, 173188
' 167442
. 154399
▁de 112953
▁la 59463
▁et 55391
▁que 52271
▁le 48441
▁à 46529
▁les 46275
▁l 43534
▁des 37213
▁un 35953
▁d 35209
▁en 32837
▁vous 30904
est 30836
▁nous 30418
▁une 29326
▁qui 28834
▁dans 25773
▁ce 25573
- 25418
▁Et 24624
▁pas 24624
▁a 24359
▁pour 24221
▁est 23867
▁je 21249
▁qu 18758
▁du 17211
▁c 17209
▁plus 16039
▁ne 15748
▁n 14897
▁il 14127
▁sur 13904
ai 12644
▁j 12351
’ 11967
▁sont 11824
▁avec 11450
▁-- 11201
▁fait 10900
▁y 10778
▁au 10729
▁C 10299
▁se 10196
▁Je 9879
▁ces 9733
▁ça 9590
▁comme 9510
▁par 9424
▁cette 9238
▁" 9094
▁faire 9090
▁si 8878
▁Il 8870
▁s 8842
▁tout 8297
il 8254
▁ont 7958
▁avons 7915
▁mais 7779
▁Mais 7767
▁on 7552
▁Nous 7510
▁ou 7509
un 7436
▁très 7112
▁ils 6978
▁? 6840
▁: 6819
▁bien 6496
▁peut 6413
▁monde 6191
▁gens 6179
▁chose 5858
▁J 5492
▁dit 5463
▁cela 5397
on 5327
a 5314
une 5294
▁être 5265
? 5139
▁même 5118
▁quand 5074
▁me 4955
▁vraiment 4855
▁suis 4827
▁Vous 4784
▁où 4777
▁leur 4739
▁tous 4696
▁notre 4655
▁Donc 4638
▁était 4532
▁La 4502
▁donc 4501
▁été 4456
▁m 4452
▁beaucoup 4444
▁choses 4418
▁parce 4372
▁mon 4365
▁aux 4331
ils 4305
▁deux 4243
▁aussi 4233
était 4188
▁Ce 4087
▁là 4056
▁quelque 3931
▁♫ 3911
▁ans 3888
▁Les 3855
▁voir 3851
▁Le 3832
▁elle 3820
▁dire 3746
être 3654
▁son 3651
▁vie 3643
▁Ils 3553
▁ici 3528
▁pouvez 3483
▁peu 3423
▁votre 3409
▁temps 3389
." 3334
▁nos 3330
: 3318
▁fois 3211
▁En 3201
en 3136
▁On 3118
▁- 3114
▁avait 3090
▁Alors 3048
▁moi 3027
▁ma 3001
y 2988
▁L 2961
▁comment 2895
▁sommes 2891
▁pense 2872
é 2706
▁dont 2662
ce 2652
▁Si 2634
▁encore 2618
▁avez 2560
▁avoir 2544
▁façon 2529
▁maintenant 2521
▁sa 2498
▁vais 2497
▁autre 2488
▁« 2454
és 2430
▁toutes 2423
ant 2409
▁juste 2406
▁leurs 2404
▁personnes 2380
▁alors 2374
▁va 2363
ait 2318
▁lui 2300
ée 2271
▁veux 2259
ons 2250
▁besoin 2236
hui 2182
▁non 2167
▁sans 2162
ent 2155
▁quelques 2149
▁savez 2146
▁pouvons 2098
▁pays 2095
▁enfants 2081
▁années 2070
▁mes 2064
▁jamais 2052
ont 2049
▁Voici 1979
▁parler 1968
▁eu 1959
▁pendant 1937
▁problème 1936
▁entre 1931
▁moins 1912
▁toujours 1907
▁seulement 1897
autres 1868
ées 1867
▁chaque 1865
elle 1836
à 1827
▁peuvent 1825
▁voyez 1816
▁soit 1810
▁trois 1810
▁partie 1800
▁moment 1790
▁grand 1783
▁Elle 1771
▁elles 1762
▁personne 1755
autre 1747
▁quoi 1737
▁après 1728
aient 1707
▁» 1700
▁cet 1682
vous 1675
▁toute 1675
▁autres 1672
▁aujourd 1671
▁vers 1667
▁ses 1666
▁jour 1660
▁première 1657
▁puis 1654
▁manière 1621
▁commencé 1617
▁exemple 1617
▁point 1615
▁question 1604
étais 1594
▁étaient 1581
▁Merci 1580
▁sûr 1578
▁travail 1568
▁Maintenant 1563
" 1550
▁système 1549
▁êtes 1519
er 1491
▁sorte 1470
▁jusqu 1461
▁Un 1459
▁pourquoi 1445
es 1438
▁avant 1436
▁petit 1435
▁rien 1425
▁sous 1415
ais 1411
▁assez 1405
entre 1400
▁Une 1399
▁font 1399
eau 1397
avais 1391
▁tant 1390
▁vu 1389
▁depuis 1388
▁Cela 1378
▁grande 1370
▁bon 1366
▁cas 1362
▁A 1355
▁Parce 1348
▁pourrait 1343
▁trouver 1339
▁prendre 1329
▁technologie 1318
▁quelqu 1313
▁D 1310
▁cerveau 1310
▁genre 1307
▁Quand 1299
▁passe 1299
▁Ça 1281
▁millions 1276
▁vos 1264
▁peux 1251
▁important 1246
▁Dans 1242
▁ceci 1242
▁faut 1241
▁devons 1237
▁crois 1226
▁idée 1224
▁comprendre 1214
▁créer 1212
▁train 1203
▁passé 1202
▁sais 1201
t 1200
▁sens 1191
▁montrer 1188
▁premier 1178
▁10 1166
▁femmes 1161
▁eux 1160
▁nouveau 1153
". 1150
▁voici 1148
▁car 1141
▁données 1135
▁simplement 1132
ie 1130
▁mettre 1119
▁environ 1118
▁histoire 1118
▁bonne 1117
▁ensuite 1114
▁donner 1107
▁aller 1106
▁ai 1104
▁pouvoir 1094
▁problèmes 1082
s 1080
▁plutôt 1080
▁laquelle 1077
▁dollars 1076
▁Pour 1074
▁plupart 1074
▁déjà 1068
i 1066
ique 1060
▁travers 1057
ci 1055
▁ceux 1054
▁fin 1053
▁tu 1050
▁petite 1039
z 1038
▁jours 1038
▁chez 1033
▁savoir 1028
nous 1021
▁mois 1018
▁forme 1002
▁projet 991
▁nouvelle 987
▁mieux 985
▁trop 984
histoire 982
▁raison 979
▁serait 978
▁ainsi 977
▁gros 977
▁doit 974
▁près 971
▁pris 969
... 968
▁Tout 966
▁corps 959
▁avaient 958
agit 956
▁vrai 954
▁vont 953
▁côté 951
▁penser 950
▁veut 949
idée 942
même 941
ions 940
▁20 940
▁allons 936
▁compte 936
▁contre 934
▁lieu 932
▁simple 926
▁000 924
is 914
it 914
▁mal 913
ment 910
▁femme 908
▁trouve 905
avons 900
elles 896
▁passer 895
avoir 893
▁changer 886
▁part 885
là 884
e 881
▁autour 880
▁nombre 878
; 874
o 874
▁quel 872
in 871
▁différentes 867
iques 866
▁sera 866
Unis 864
▁celui 864
▁planète 860
▁propre 859
▁faisons 858
▁utiliser 857
▁cours 856
▁certains 855
▁faites 855
▁quatre 852
▁seule 852
ur 851
▁possible 849
argent 845
▁niveau 838
▁difficile 826
énergie 825
▁; 824
▁tard 824
▁place 816
▁voulez 813
▁celle 812
▁ville 810
▁mis 805
ante 804
importe 804
▁Qu 803
▁réalité 802
▁santé 802
▁Comment 801
▁lumière 801
▁type 801
▁allez 796
▁ensemble 796
iez 793
▁S 787
appelle 786
air 784
▁reste 784
▁De 783
▁trouvé 777
au 773
▁lorsque 772
aux 770
▁Au 770
▁souvent 767
▁Cette 766
", 765
▁seul 765
▁probablement 763
▁parle 762
▁idées 760
▁produit 760
▁partir 759
▁savons 758
▁sujet 758
▁marché 755
▁groupe 754
▁Ces 753
▁commencer 753
▁travailler 752
▁maison 750
▁cellules 749
▁pu 745
▁milliards 744
▁regardez 741
▁Voilà 740
▁haut 740
▁tellement 738
▁jeu 735
▁vue 735
▁Pourquoi 731
▁société 731
▁devez 730
▁nature 730
▁voilà 730
▁également 728
▁donne 726
moi 725
▁main 721
▁construire 719
▁moyen 719
▁presque 719
▁bas 718
▁changement 717
▁fais 715
▁3 712
▁M 712
▁différents 712
▁regarder 712
us 708
▁donné 707
▁Elles 706
▁petits 705
espace 704
▁cause 704
▁long 700
age 699
▁homme 699
▁enfant 697
▁mère 696
▁vient 696
▁photo 695
u 694
ants 691
▁nouvelles 691
▁cinq 690
▁livre 690
▁début 688
▁guerre 688
▁cent 684
▁complètement 683
▁endroit 682
▁Des 677
▁signifie 677
an 674
▁Bien 674
▁demandé 673
▁hommes 671
▁pouvait 670
ir 669
▁terre 669
▁dernière 668
▁dis 668
▁plusieurs 668
▁propos 668
?" 667
▁ligne 666
▁année 665
▁famille 662
▁B 661
▁entendu 661
le 660
▁réponse 660
ale 659
accord 657
▁coup 654
▁Eh 653
▁heures 651
ité 650
▁Ceci 650
▁rendre 647
▁t 645
▁commence 644
▁humains 643
▁processus 642
▁arrive 640
ation 637
ez 637
▁quelle 637
▁humain 635
▁Terre 633
▁tête 633
▁TED 631
▁disent 631
▁P 630
or 629
▁Bon 628
▁T 628
▁nom 625
C 624
ue 623
▁Est 623
intérieur 622
! 620
▁modèle 620
▁partout 620
▁film 619
at 618
▁! 617
▁vidéo 617
▁voiture 617
▁yeux 616
▁appelé 615
▁nourriture 615
▁questions 615
▁recherche 614
▁intéressant 608
▁musique 608
▁science 608
▁voulais 607
▁an 605
▁image 605
al 604
▁lequel 603
▁appris 602
▁développement 601
▁minutes 599
▁public 599
▁pensé 597
▁voyons 596
h 594
▁100 594
▁mesure 592
▁Comme 591
l 590
▁Que 590
c 589
▁expérience 589
▁voit 589
▁Dieu 588
▁?" 587
▁essayer 585
▁meilleur 585
abord 584
▁avions 584
▁montre 583
▁30 581
▁Mon 581
▁animaux 580
▁certaines 580
avez 578
▁marche 578
ar 577
▁communauté 575
▁base 574
▁exactement 574
▁jouer 574
art 573
▁50 573
▁Ainsi 573
▁voulons 573
ier 570
▁Oui 570
▁décidé 570
▁face 570
▁capacité 569
re 568
▁OK 568
▁dernier 568
▁New 567
▁réellement 567
m 563
▁dernières 562
▁dois 561
▁vivre 561
▁États 561
r 560
▁dessus 559
▁Par 557
▁loin 557
▁prix 556
▁cancer 555
▁rapidement 554
▁centre 553
▁grands 553
▁mort 553
▁devenir 552
▁écrit 549
▁ressemble 548
▁mot 544
▁politique 544
univers 543
ine 542
▁ni 542
▁sait 540
▁découvert 539
▁futur 539
années 538
▁aucun 538
▁créé 537
▁gouvernement 537
▁regarde 537
▁[ 536
▁gauche 536
▁petites 536
▁grâce 535
▁peur 535
able 534
▁semble 534
▁permet 533
école 532
▁histoires 532
▁père 528
ations 527
urs 527
▁2 526
▁milliers 526
▁incroyable 525
▁choix 524
▁longtemps 524
▁grandes 523
▁fille 522
▁force 522
▁Non 521
▁Ou 521
▁apprendre 520
▁siècle 520
▁suite 518
▁aurait 517
▁différence 514
▁amis 513
▁aucune 512
▁six 511
▁taille 511
as 510
▁15 509
▁pensez 509
aire 508
▁culture 507
▁entier 505
▁population 505
▁arrivé 504
os 503
▁demande 502
Afrique 501
aimerais 501
▁design 500
▁veulent 499
▁mots 497
je 496
▁présent 496
▁porte 495
▁devant 493
A 492
▁devrait 492
▁fut 492
esprit 491
ies 491
▁devient 491
▁jeunes 490
et 489
▁N 488
▁différent 488
▁importante 488
▁meilleure 488
▁oui 487
aime 485
▁milieu 485
▁parfois 485
▁Chine 483
▁Puis 483
▁compris 483
▁venir 482
▁images 481
▁plein 480
▁capable 479
▁parlé 479
▁demander 478
▁énorme 477
▁appelle 476
▁termes 476
Je 474
▁arriver 474
ales 473
▁voudrais 473
▁f 472
▁humaine 472
▁chance 471
▁endroits 471
▁surface 471
▁salle 470
▁aider 469
ou 468
▁droite 468
▁facile 468
▁particulier 468
information 467
▁sortes 467
▁plan 466
▁selon 466
▁vite 466
▁programme 465
▁rapport 464
▁systèmes 464
▁G 463
▁produits 463
▁4 462
▁Pas 462
▁puisse 462
▁r 462
▁mouvement 459
▁sortir 458
ét 457
▁R 457
▁existe 457
b 456
▁but 456
▁sécurité 456
▁machine 455
▁ré 455
▁chacun 454
▁prend 453
avait 452
te 452
▁combien 451
▁ait 450
▁dû 449
▁scientifiques 449
▁mer 447
antes 446
▁droit 446
▁York 445
▁afin 445
▁technologies 445
p 444
▁K 442
▁fond 442
▁devenu 441
▁finalement 441
iste 440
▁maladie 440
▁jeune 439
ateur 438
▁5 438
▁nuit 438
aires 437
année 437
▁villes 435
ème 433
▁carte 433
▁doivent 433
▁contrôle 432
▁certain 431
▁situation 431
ins 429
▁super 429
mêmes 428
utiliser 428
▁physique 428
n 427
▁informations 427
▁fonctionne 426
▁points 426
▁allé 425
▁bout 425
▁livres 425
▁Afrique 423
▁structure 423
▁utilisé 422
bas 421
ien 421
▁pouvais 421
▁deuxième 420
▁H 418
▁changé 418
D 417
aide 417
d 417
ne 417
▁heureux 417
▁seconde 417
am 416
▁moitié 416
▁mondiale 416
▁produire 415
▁vies 415
▁laisser 414
▁parents 413
S 412
évolution 412
▁photos 411
▁site 411
▁environnement 409
▁gars 408
▁pièce 408
▁semaines 408
▁solution 408
▁pensons 406
▁vision 406
▁étudiants 406
▁Ensuite 405
▁lire 405
▁effet 403
▁V 402
▁différente 402
▁semaine 402
▁comportement 401
▁nouveaux 401
▁derrière 400
▁ordinateur 400
▁b 399
▁etc 399
▁construit 398
▁mètres 398
▁pourrions 398
▁terme 398
▁tour 398
iens 397
▁. 396
▁raisons 396
isme 395
▁filles 395
époque 394
▁Etats 394
▁bâtiment 394
▁certaine 394
▁propres 394
éducation 392
▁partager 392
if 391
▁centaines 391
ad 389
ienne 389
▁40 389
▁obtenir 389
▁autant 388
▁essayé 388
▁travaille 388
▁mêmes 387
▁trucs 387
▁raconter 385
▁théorie 384
▁soient 383
▁valeur 383
ables 382
ite 382
▁voyage 382
▁pourriez 381
▁relation 381
▁réseau 381
▁étions 380
homme 379
res 379
ère 379
▁croissance 379
▁pensent 379
▁truc 379
▁disait 377
▁rend 377
▁viennent 377
▁% 375
▁p 375
▁réel 375
ot 374
▁F 374
▁soleil 374
▁troisième 374
amour 373
▁domaine 373
▁faisait 372
▁vois 372
espère 371
▁sol 368
dessus 367
▁pourraient 366
▁résoudre 366
▁résultat 366
▁virus 366
use 365
ise 362
▁vitesse 362
▁, 361
▁résultats 361
▁devrions 360
▁quantité 360
ure 359
▁12 359
▁faisant 359
▁voix 359
▁compassion 357
▁économique 357
▁fil 355
▁jeux 355
▁journée 355
▁matière 355
▁scientifique 355
▁développer 354
▁maladies 354
▁réfléchir 352
▁montré 351
▁nombreuses 351
▁parmi 351
▁pétrole 351
▁règles 351
▁demi 350
▁matin 350
▁nombreux 350
g 349
▁tendance 349
ments 348
environnement 347
▁premiers 347
▁travaillé 347
ici 346
ér 346
▁Internet 345
▁conférence 344
f 343
ues 343
▁assis 343
▁taux 343
▁général 342
▁mains 342
▁ordinateurs 342
ol 341
ux 341
▁Ici 341
▁qualité 341
▁bonnes 340
▁fils 340
▁projets 340
▁rendu 340
▁ressources 340
▁voulait 340
▁zone 340
▁– 340
ré 339
▁Tu 339
▁espèces 339
M 338
ag 338
▁classe 338
Inde 337
▁change 337
▁faite 337
▁sept 337
▁tas 337
▁téléphone 337
v 336
▁formes 336
▁modèles 335
▁utilisant 335
▁1 334
▁déc 334
▁langage 334
▁fini 333
▁mauvais 333
▁période 333
▁scène 333
▁te 333
▁types 333
▁attention 331
▁groupes 331
▁patients 331
ièrement 330
▁Peut 330
▁bras 330
▁outils 330
ette 329
én 328
▁réalisé 327
▁... 326
▁pourtant 326
▁Ma 325
▁chercher 325
▁voie 325
] 324
▁allait 324
▁manger 324
économie 323
▁robot 323
▁savent 323
ateurs 322
▁crée 322
▁époque 322
océan 321
▁entreprises 321
▁lorsqu 321
ADN 320
E 320
▁Après 320
▁bons 320
▁objets 320
▁pouvaient 320
▁traitement 320
▁venu 320
▁celles 319
▁conscience 319
▁espèce 319
ra 318
▁confiance 318
▁succès 318
▁équipe 318
que 317
▁aura 317
▁million 317
▁étant 317
ac 316
▁extrêmement 316
▁seront 316
ch 315
lle 315
▁ch 315
▁poser 315
▁prise 315
▁source 315
ic 314
impression 314
▁chemin 314
▁visage 313
▁bonheur 312
▁génération 312
▁voitures 312
▁zones 311
ance 310
▁200 310
▁cœur 310
▁dé 310
▁meilleurs 310
istes 309
▁25 309
▁découvrir 308
▁mauvaise 308
▁pauvres 308
2 307
où 307
âge 307
▁CA 307
▁commun 307
▁couleur 307
P 306
▁patient 306
▁série 306
▁tel 306
▁6 305
▁absolument 305
▁parties 305
▁peine 305
▁bureau 304
▁dur 304
▁dés 304
▁suivre 304
▁vivent 304
état 303
▁particul 303
▁vérité 303
èrent 302
▁marcher 302
▁met 302
▁représente 302
▁utilise 302
expérience 301
isé 301
▁région 301
▁g 300
▁rouge 300
me 299
▁fort 299
era 298
ner 298
▁Car 298
▁Qui 298
▁moyenne 297
aller 296
avenir 296
▁Google 296
▁continuer 296
▁risque 296
▁rue 296
après 294
eux 294
▁Oh 294
▁glace 294
▁imaginer 294
▁noir 294
▁rapide 294
▁espace 293
▁morceau 293
▁À 293
ages 292
▁Sud 292
▁effectivement 292
▁rester 292
▁revenir 291
▁crise 290
▁papier 290
L 289
iers 289
▁pensais 289
Amérique 288
▁Avec 288
▁climatique 288
▁test 288
ures 287
▁Inde 287
▁huit 287
▁prochaine 287
iser 286
▁concept 286
▁conception 286
▁finir 286
▁lesquelles 286
▁totalement 286
▁in 285
▁perdu 285
▁recherches 285
▁vieux 285
ifs 284
isation 284
▁construction 284
▁expliquer 284
▁réussi 284
▁rôle 284
▁état 284
▁11 283
▁E 283
▁Ne 283
▁capables 283
▁unique 283
▁vit 283
▁Ca 282
▁fonction 282
▁récemment 282
▁appelée 281
ab 280
ut 280
▁60 280
▁Aujourd 280
▁complexe 280
▁croire 280
▁vraie 280
ain 279
ens 279
ig 279
▁uns 279
▁Regardez 278
▁direction 278
▁doute 278
▁h 278
▁suivante 278
B 277
▁défi 277
▁production 277
▁révolution 277
▁18 276
▁changements 276
▁deviennent 276
▁sentiment 276
▁mur 275
▁prenez 275
ités 274
▁dites 274
▁haute 274
▁lors 274
▁merveilleux 274
▁soi 274
ap 273
ro 273
▁littéralement 273
id 272
▁belle 272
▁message 272
amp 271
▁village 271
étaient 270
▁merci 270
▁possibilité 270
▁éléments 270
▁directement 269
▁disant 269
▁langue 269
▁écrire 269
▁beau 268
▁Même 267
▁Notre 267
▁sang 267
O 266
av 266
▁Certains 266
▁chanson 266
▁création 266
▁enfin 266
▁position 266
▁v 266
▁surtout 265
▁utilisent 265
▁chiffres 264
▁dehors 264
▁extraordinaire 264
▁longue 264
▁telle 264
▁version 264
ard 263
el 263
▁développé 263
▁incroyablement 263
▁reçu 263
▁Nord 262
▁rencontré 262
▁retour 262
▁sociétés 262
▁traiter 262
▁travaillent 262
alement 261
heure 261
▁code 261
avaient 260
▁ami 260
▁disons 260
▁peau 260
▁pire 260
▁plantes 260
end 259
▁7 259
▁acheter 259
▁durant 259
▁médicaments 259
▁Chaque 258
▁entreprise 258
▁kilomètres 258
▁objet 258
▁pensée 258
▁service 258
H 257
▁expériences 257
▁médias 257
▁commencent 256
▁devait 256
▁loi 256
▁moyens 256
▁savais 256
alité 255
▁Beaucoup 255
▁large 255
▁liste 255
▁soir 255
avère 254
▁politiques 254
▁tôt 254
▁carbone 253
▁connu 253
▁esprit 253
▁façons 253
▁sein 253
▁table 253
▁ép 253
T 252
industrie 252
ordinateur 252
▁page 252
▁pourrais 252
▁route 252
N 251
ass 251
k 251
▁500 251
▁conditions 251
▁puissance 251
issent 250
▁exemples 250
▁gaz 250
▁uniquement 250
▁». 250
▁écoles 250
échelle 249
▁arrière 249
▁utilisons 249
▁Plus 248
▁gènes 248
▁laboratoire 248
▁matériaux 248
▁permettre 248
▁premières 248
ines 247
▁8 247
▁W 247
▁feu 247
▁vivant 247
che 246
im 246
op 246
▁Imaginez 246
▁Pendant 246
▁atteindre 246
▁secondes 246
▁fabriquer 245
▁gagner 245
▁études 245
action 244
▁Y 244
▁simples 244
▁certainement 243
▁continue 243
▁dès 243
les 242
▁Chris 242
▁films 242
▁impossible 242
▁mode 242
▁répondre 242
▁terrain 242
▁vert 242
▁vol 242
ents 241
la 241
▁intéressante 241
▁laissez 241
▁masse 241
▁réaliser 241
▁vivons 241
▁social 240
▁solaire 240
éc 239
▁Là 239
▁bébé 239
▁nord 239
," 238
ensemble 238
image 238
qu 238
ères 238
▁coût 238
▁essentiellement 238
▁liberté 238
▁pratique 238
ers 237
ém 237
▁cellule 237
▁connaissance 237
▁morts 237
▁auparavant 236
▁biologie 236
▁contexte 236
▁sauver 236
rait 235
se 235
▁sentir 235
▁télé 235
▁br 234
▁robots 234
▁transformer 234
tu 233
▁coeur 233
▁sociaux 233
ets 232
rons 232
▁choisir 232
▁neuf 232
▁relations 232
▁vent 232
ites 231
▁droits 231
▁tomber 231
humanité 230
▁démocratie 230
▁répondu 230
▁sociale 230
om 229
▁entrer 229
▁portable 229
▁web 229
ologie 228
rer 228
ul 228
▁Ch 228
▁Tous 228
▁aide 228
▁am 228
▁importantes 228
▁tr 228
▁viens 228
▁étude 228
ient 227
iquement 227
ler 227
▁prennent 227
oc 226
▁concevoir 226
▁fallait 226
▁regardé 226
R 225
aujourd 225
avant 225
importance 225
▁génial 225
▁ouvert 225
▁paix 225
J 224
imp 224
né 224
▁beauté 224
▁clair 224
▁machines 224
▁échelle 224
▁pauvreté 223
▁revenu 223
% 222
I 222
▁cher 222
▁libre 222
uses 221
▁dix 221
▁faible 221
▁lancer 221
▁suivant 221
▁école 221
enfants 220
ille 220
▁calcul 220
▁essayons 220
▁imaginez 220
▁instant 220
▁milliard 220
▁pied 220
issant 219
▁VIH 219
▁concerne 219
▁vécu 219
▁court 218
▁dimensions 218
▁professeur 218
▁sud 218
allais 217
▁ciel 217
▁courant 217
▁médecine 217
▁tourner 217
apprentissage 216
aurais 216
ence 216
él 216
▁communautés 216
▁cr 216
▁mourir 216
▁parti 216
▁tirer 216
▁êtres 216
ente 215
espoir 215
lles 215
▁Laissez 215
▁poissons 215
▁pousser 215
née 214
▁animal 214
▁lois 214
▁minute 214
▁passion 214
Oh 213
delà 213
ement 213
nes 213
▁nécessaire 213
▁permis 213
▁trouvent 213
ives 212
électricité 212
▁cartes 212
▁contenu 212
▁facilement 212
▁final 212
▁manque 212
▁payer 212
▁potentiel 212
▁réduire 212
endroit 211
ive 211
ter 211
▁ 211
▁réseaux 211
▁température 211
▁voler 211
5 210
ats 210
▁Lorsque 210
▁Sur 210
▁chef 210
▁ton 210
▁actuellement 209
▁micro 209
▁solutions 209
▁verrez 209
▁étudier 209
ind 208
mes 208
▁Quel 208
▁Très 208
▁lien 208
▁mondial 208
▁naturel 208
▁proche 208
▁réponses 208
▁souris 208
▁univers 208
ion 207
j 207
▁Mars 207
▁créativité 207
▁80 206
▁campagne 206
▁faits 206
▁génétique 206
▁moteur 206
▁océans 206
▁plaisir 206
▁prêt 206
ri 205
▁16 205
▁approche 205
▁arbres 205
▁contact 205
▁cuisine 205
▁désir 205
▁désormais 205
▁magnifique 205
▁pl 205
▁services 205
▁soins 205
▁sérieux 205
▁tenir 205
▁évidemment 205
▁Combien 204
▁décisions 204
▁km 204
▁né 204
▁pieds 204
▁pièces 204
▁accès 203
▁conduit 203
▁lesquels 203
été 202
▁besoins 202
▁communication 202
▁faux 202
▁poisson 202
▁trou 202
ang 201
▁compagnie 201
▁puissent 201
ettes 200
extérieur 200
▁17 200
▁bord 200
▁heure 200
▁valeurs 200
▁étrange 200
erez 199
lé 199
▁dedans 199
▁devraient 199
▁décision 199
▁numéro 199
▁parlons 199
▁plastique 199
▁voulaient 199
▁énergie 199
essayer 198
ill 198
▁bactéries 198
▁discours 198
▁importe 198
adore 197
eur 197
ole 197
▁clairement 197
▁éc 197
ire 196
ule 196
▁appareil 196
▁forces 196
▁formation 196
▁grandi 196
▁ins 196
▁pré 196
▁respect 196
dire 195
ég 195
▁ag 195
▁as 195
▁faisaient 195
▁gouvernements 195
▁inventé 195
▁moments 195
▁tuer 195
▁étoiles 195
environ 194
ore 194
▁coin 194
▁membres 194
▁moderne 194
▁nucléaire 194
▁numérique 194
-- 193
▁90 193
▁complexité 193
▁garder 193
▁progrès 193
▁étape 193
innovation 192
uer 192
▁21 192
▁blanc 192
▁lancé 192
▁pouvions 192
▁protéger 192
▁voulu 192
ade 191
ah 191
ailleurs 191
▁Quelle 191
▁affaires 191
▁arrivent 191
▁atteint 191
▁entendre 191
▁lignes 191
▁mar 191
▁médecin 191
▁sorti 191
architecture 190
enfant 190
université 190
▁14 190
▁fonctionner 190
▁immédiatement 190
▁limites 190
▁lit 190
▁personnel 190
▁présentation 190
▁servir 190
▁télévision 190
Le 189
cher 189
▁Ok 189
▁Personne 189
▁allés 189
▁cour 189
▁présenter 189
▁toi 189
▁violence 189
F 188
▁' 188
▁CO 188
▁ayant 188
▁bois 188
▁fou 188
▁noire 188
▁parlent 188
▁passent 188
▁permettent 188
▁principe 188
▁tableau 188
Vous 187
ex 187
ide 187
isée 187
▁300 187
▁Europe 187
▁perdre 187
▁religion 187
▁rêve 187
ieux 186
ière 186
éd 186
▁bateau 186
▁entièrement 186
▁mise 186
▁monter 186
▁particules 186
▁poids 186
▁technique 186
▁Toutes 185
▁différences 185
▁départ 185
▁efficace 185
▁naissance 185
▁police 185
▁sort 185
▁électrique 185
isés 184
ép 184
▁Où 184
▁déf 184
▁molécules 184
▁organismes 184
▁regardant 184
▁véritable 184
ile 183
um 183
écran 183
▁O 183
▁anglais 183
▁dessin 183
▁prenons 183
▁sommet 183
▁Al 182
▁bleu 182
▁conf 182
▁devais 182
▁découverte 182
▁prison 182
▁vendre 182
êtes 181
▁ailleurs 181
▁bébés 181
▁compréhension 181
▁donnent 181
▁laisse 181
▁riche 181
▁tâche 181
de 180
habitude 180
inter 180
od 180
▁ab 180
▁détails 180
▁pose 180
origine 179
out 179
▁bouger 179
▁distance 179
▁familles 179
▁pression 179
▁vis 179
aine 178
asse 178
nel 178
onne 178
up 178
▁24 178
▁bizarre 178
▁chinois 178
▁concentrer 178
▁forte 178
▁imp 178
▁mathématiques 178
▁regardons 178
▁responsabilité 178
▁sauf 178
▁seraient 178
▁verre 178
aider 177
int 177
▁amener 177
▁chambre 177
▁connaissez 177
▁couleurs 177
▁hors 177
▁mission 177
▁président 177
▁revenus 177
▁vidéos 177
6 176
7 176
activité 176
emp 176
tes 176
ène 176
▁13 176
▁disaient 176
▁naturelle 176
▁passait 176
▁phénomène 176
▁sujets 176
▁toucher 176
V 175
all 175
ris 175
▁commençons 175
▁consommation 175
▁entière 175
▁mesurer 175
▁outil 175
1 174
issons 174
▁derniers 174
▁devriez 174
▁fantastique 174
▁lu 174
▁majorité 174
▁rencontrer 174
▁riches 174
ié 173
nent 173
▁Amérique 173
▁X 173
▁bâtiments 173
▁collègues 173
▁complexes 173
▁douleur 173
▁envoyer 173
▁hasard 173
▁joue 173
▁possibilités 173
▁règle 173
man 172
▁connaissons 172
▁course 172
▁devenue 172
▁es 172
▁importants 172
▁», 172
▁chien 171
▁gr 171
▁neurones 171
▁publique 171
▁économie 171
our 170
tr 170
▁Deux 170
▁côte 170
▁impact 170
▁notion 170
▁somme 170
▁suivi 170
▁évolué 170
La 169
ains 169
rent 169
utilise 169
év 169
▁Londres 169
▁boîte 169
▁diversité 169
▁dét 169
▁faisais 169
▁inc 169
▁individus 169
▁matériel 169
▁pain 169
▁rythme 169
▁seuls 169
▁conçu 168
▁durable 168
▁définition 168
▁graphique 168
▁obtenez 168
▁rappelle 168
aise 167
ans 167
▁appelons 167
▁cerveaux 167
▁charge 167
▁laissé 167
▁marchés 167
▁pr 167
▁profondément 167
▁remarqué 167
3 166
apprendre 166
attention 166
inc 166
▁chimiques 166
▁effets 166
▁gagné 166
▁génome 166
▁meilleures 166
▁profond 166
▁venait 166
▁élevé 166
▁évident 166
iner 165
pe 165
▁Cet 165
▁argent 165
▁article 165
▁célèbre 165
▁devoir 165
▁fr 165
▁montrent 165
▁quant 165
▁souviens 165
▁structures 165
▁croyez 164
▁créatures 164
▁dos 164
▁grosse 164
▁marque 164
▁peuple 164
▁puissant 164
▁techniques 164
▁travaillons 164
▁café 163
▁conséquences 163
▁logiciel 163
▁mettez 163
▁quelles 163
▁vide 163
▁́ 163
ia 162
nelle 162
ordre 162
st 162
▁Encore 162
▁alimentaire 162
▁avion 162
▁comprend 162
▁danse 162
▁garçons 162
▁institutions 162
▁inter 162
▁partage 162
▁sciences 162
▁statistiques 162
raient 161
▁actuelle 161
▁américains 161
▁appel 161
▁chaîne 161
▁choisi 161
▁contrôler 161
▁justice 161
▁pensait 161
▁programmes 161
oxygène 160
▁Californie 160
▁américain 160
▁dessous 160
▁déplacer 160
▁forêt 160
▁fournir 160
▁jambes 160
▁prochaines 160
▁radio 160
▁regard 160
▁rues 160
▁Pensez 159
▁arrêter 159
▁co 159
▁former 159
▁garçon 159
▁humaines 159
▁niveaux 159
▁observer 159
▁posé 159
▁pouviez 159
▁preuve 159
▁réaction 159
Est 158
Europe 158
ge 158
▁John 158
▁connais 158
▁coûte 158
▁merveilleuse 158
▁médecins 158
▁utile 158
▁zéro 158
rit 157
▁carrière 157
▁connaître 157
▁lieux 157
▁mouvements 157
▁oiseaux 157
▁ressemblent 157
▁répond 157
▁stade 157
▁élèves 157
00 156
arrive 156
ois 156
▁difficiles 156
▁moindre 156
▁pages 156
▁parfait 156
▁protection 156
▁âge 156
G 155
ché 155
érer 155
▁9 155
▁chacune 155
▁dizaines 155
▁logique 155
▁porter 155
▁prêts 155
▁risques 155
▁tests 155
▁visite 155
8 154
Et 154
ice 154
rez 154
x 154
▁Parfois 154
▁connaissent 154
▁conversation 154
▁demandez 154
▁devenus 154
▁emp 154
▁formidable 154
▁parfaitement 154
▁pauvre 154
▁savait 154
▁second 154
▁suffisamment 154
▁tombe 154
▁adultes 153
▁artistes 153
▁auraient 153
▁bruit 153
▁contient 153
▁critique 153
▁fer 153
▁lettres 153
▁montagne 153
▁mortalité 153
▁oh 153
▁organisation 153
▁passant 153
▁pleine 153
▁voient 153
and 152
impact 152
▁caméra 152
▁cultures 152
▁dirais 152
▁débat 152
▁envoyé 152
▁erreurs 152
▁perd 152
▁perspective 152
▁secteur 152
▁tort 152
▁écouter 152
▁ét 152
ances 151
arrêter 151
ate 151
▁clé 151
▁contraire 151
▁couche 151
▁déchets 151
▁médicament 151
▁presse 151
▁rappeler 151
▁rec 151
Internet 150
Les 150
onn 150
▁auquel 150
▁mémoire 150
▁planètes 150
▁plaît 150
▁quartier 150
▁étiez 150
▁étudié 150
;& 149
imaginer 149
iv 149
▁aime 149
▁doigts 149
iles 148
issement 148
issez 148
ose 148
utilisation 148
▁capacités 148
▁caractérist 148
▁envers 148
▁journal 148
▁magie 148
▁manières 148
▁mauvaises 148
▁pont 148
▁puisque 148
▁sub 148
U 147
atrice 147
▁400 147
▁Dr 147
▁Moyen 147
▁Z 147
▁amené 147
▁fonctionnent 147
▁maisons 147
▁musée 147
▁personnage 147
▁ressentir 147
▁sites 147
nés 146
▁Cependant 146
▁Quelqu 146
▁améliorer 146
▁champ 146
▁consiste 146
▁courbe 146
▁galaxies 146
▁gl 146
▁internet 146
▁preuves 146
▁produisent 146
▁ta 146
▁transport 146
▁téléphones 146
Université 145
atif 145
▁Japon 145
▁Richard 145
▁boulot 145
▁cadre 145
▁capital 145
▁compliqué 145
▁principes 145
▁sent 145
▁trouvez 145
▁vaut 145
▁év 145
informations 144
mer 144
équipe 144
▁David 144
▁I 144
▁apprend 144
▁auto 144
▁classique 144
▁dirait 144
▁dépend 144
▁ex 144
▁précis 144
▁semblent 144
▁suppose 144
▁titre 144
▁venue 144
étude 143
▁américaine 143
▁chaud 143
▁climat 143
▁conflit 143
▁correspond 143
▁dép 143
▁eau 143
▁fasse 143
▁ferme 143
▁maths 143
▁mettent 143
▁mille 143
▁re 143
▁rentrer 143
▁signal 143
▁transformation 143
avions 142
▁Américains 142
▁aviez 142
▁fallu 142
▁malgré 142
▁mères 142
▁prochain 142
▁présente 142
▁remarquable 142
▁rés 142
▁soin 142
Pourquoi 141
armée 141
aurait 141
effet 141
entes 141
mère 141
ver 141
▁Celui 141
▁acheté 141
▁ca 141
▁citoyens 141
▁communiquer 141
▁compétences 141
▁direct 141
▁décider 141
▁désert 141
▁grippe 141
▁parlait 141
▁possède 141
▁survivre 141
▁tissu 141
9 140
▁Mes 140
▁Son 140
▁aiment 140
▁apporter 140
▁biologique 140
▁devrais 140
▁fonds 140
▁per 140
▁rencontre 140
▁retourner 140
▁revient 140
/ 139
Non 139
ablement 139
isent 139
iter 139
its 139
▁Sh 139
▁avis 139
▁impression 139
▁langues 139
▁morceaux 139
▁sombre 139
▁tiers 139
▁élément 139
▁émotions 139
aut 138
avion 138
ct 138
w 138
▁Nos 138
▁attendre 138
▁dangereux 138
▁dinosaures 138
▁doigt 138
▁dynamique 138
▁insectes 138
▁morale 138
▁régions 138
▁souches 138
▁trouvons 138
▁étudiant 138
atmosphère 137
isse 137
▁70 137
▁Washington 137
▁ass 137
▁bouche 137
▁chaleur 137
▁cool 137
▁danger 137
▁espaces 137
▁molécule 137
▁responsable 137
▁sec 137
▁su 137
▁sélection 137
▁19 136
▁Votre 136
▁ar 136
▁coté 136
▁décrire 136
▁envie 136
▁erreur 136
▁héros 136
▁information 136
▁membre 136
▁protéines 136
▁septembre 136
▁émissions 136
4 135
act 135
▁arrivés 135
▁changent 135
▁clients 135
▁degrés 135
▁différemment 135
▁disponible 135
▁intérêt 135
▁meurent 135
▁mod 135
▁mont 135
▁obtenu 135
▁perte 135
▁portables 135
▁sert 135
▁séquence 135
arrière 134
ing 134
ud 134
▁Avant 134
▁armes 134
▁chercheurs 134
▁colère 134
▁conférences 134
▁descend 134
▁enseignants 134
▁fera 134
▁informatique 134
▁intelligents 134
▁os 134
▁référence 134
▁soldats 134
intelligence 133
objet 133
rais 133
▁150 133
▁ajouter 133
▁augmente 133
▁camp 133
▁davantage 133
▁man 133
▁noirs 133
▁principalement 133
▁profonde 133
▁propriété 133
▁présence 133
▁tourne 133
▁venez 133
ach 132
entreprise 132
hôpital 132
ibles 132
oir 132
ous 132
rés 132
tent 132
uc 132
▁Grande 132
▁SIDA 132
▁apprennent 132
▁civilisation 132
▁flux 132
▁gérer 132
▁lentement 132
▁paysage 132
▁populaire 132
▁principale 132
▁publié 132
▁quels 132
▁ressembler 132
▁similaire 132
▁sortie 132
▁éviter 132
2. 131
att 131
▁Depuis 131
▁National 131
▁San 131
▁domaines 131
▁fl 131
▁mo 131
▁murs 131
▁nourrir 131
▁régime 131
▁tester 131
atique 130
avec 130
ières 130
è 130
▁aient 130
▁appareils 130
▁bande 130
▁connecter 130
▁disais 130
▁fabrication 130
▁faim 130
▁froid 130
▁jardin 130
▁joie 130
▁principal 130
▁queue 130
▁rep 130
▁terminer 130
▁viande 130
▁vin 130
▁volonté 130
ace 129
io 129
rée 129
▁affaire 129
▁amusant 129
▁appeler 129
▁aspects 129
▁conduire 129
▁cycle 129
▁debout 129
▁décrit 129
▁galaxie 129
▁jouent 129
▁mélange 129
▁méthode 129
▁passage 129
▁proches 129
▁états 129
auto 128
ib 128
ign 128
ouv 128
étique 128
▁accord 128
▁allaient 128
▁bi 128
▁cardiaque 128
▁cherche 128
▁connaissances 128
▁convaincre 128
▁liens 128
▁mari 128
▁raconte 128
▁sagesse 128
▁style 128
▁traverser 128
Qu 127
nement 127
rai 127
▁dém 127
▁lettre 127
▁prises 127
▁puissante 127
▁recevoir 127
▁retrouver 127
agriculture 126
intéresse 126
obtenir 126
▁Royaume 126
▁agir 126
▁av 126
▁charbon 126
▁commerce 126
▁frère 126
▁matériau 126
▁précisément 126
▁venus 126
▁vouloir 126
og 125
uelle 125
▁ad 125
▁comportements 125
▁considérer 125
▁défis 125
▁employés 125
▁fenêtre 125
▁ferait 125
▁honte 125
▁incroyables 125
▁intéressé 125
▁post 125
▁pêche 125
▁quitter 125
▁réelle 125
▁secret 125
▁trous 125
▁vend 125
illes 124
onde 124
ort 124
ques 124
ve 124
▁cl 124
▁continué 124
▁fourmis 124
▁opportunité 124
▁rem 124
▁rép 124
▁sac 124
▁sociales 124
atiques 123
▁Ceux 123
▁Juste 123
▁action 123
▁avancer 123
▁connexion 123
▁conséquent 123
▁hier 123
▁lever 123
▁mettons 123
▁nommé 123
▁o 123
▁surprise 123
▁terrible 123
▁tient 123
▁vélo 123
ist 122
ération 122
▁MIT 122
▁can 122
▁cheval 122
▁demain 122
▁dents 122
▁disponibles 122
▁durée 122
▁e 122
▁menace 122
▁perception 122
▁terres 122
abilité 121
aff 121
app 121
ches 121
ifier 121
iné 121
▁accident 121
▁basé 121
▁bus 121
▁chaussures 121
▁décennies 121
▁inf 121
▁intelligent 121
▁intéressantes 121
▁locaux 121
▁pointe 121
▁signaux 121
▁singes 121
▁tué 121
▁utilisée 121
▁vieille 121
▁vrais 121
.000 120
Nous 120
existe 120
ingénierie 120
oire 120
▁allée 120
▁cercle 120
▁comprennent 120
▁condition 120
▁essayez 120
▁existent 120
▁mariage 120
▁nation 120
▁national 120
▁port 120
▁quitté 120
▁regardent 120
▁rendent 120
▁représentent 120
▁richesse 120
▁sal 120
▁sexe 120
▁sources 120
▁soutenir 120
▁stratégie 120
▁survie 120
° 119
▁Public 119
▁abeilles 119
▁actions 119
▁bientôt 119
▁correctement 119
▁créent 119
▁dessiner 119
▁explorer 119
▁générations 119
▁ingénieurs 119
▁limite 119
▁légèrement 119
▁maintenir 119
▁noms 119
▁organisations 119
▁participer 119
▁pourra 119
▁red 119
▁réchauffement 119
▁réduit 119
anglais 118
ates 118
ay 118
ca 118
ends 118
ert 118
idées 118
iment 118
écrire 118
▁Rien 118
▁activité 118
▁carré 118
▁chiffre 118
▁complet 118
▁composants 118
▁conflits 118
▁continent 118
▁objectif 118
▁pensées 118
▁plat 118
▁ser 118
▁suffit 118
Oui 117
nelles 117
rant 117
ué 117
▁cheveux 117
▁comprends 117
▁demandent 117
▁double 117
▁extrait 117
▁labo 117
▁nulle 117
▁rêves 117
▁semblait 117
▁tonnes 117
▁utilisés 117
aliser 116
be 116
chent 116
intérêt 116
ront 116
uré 116
éré 116
▁Re 116
▁arrivée 116
▁battre 116
▁bouteille 116
▁directeur 116
▁leçon 116
▁lycée 116
▁personnelle 116
▁phrase 116
▁possibles 116
▁requins 116
▁voulions 116
alisation 115
ber 115
unes 115
ê 115
▁Du 115
▁anti 115
▁arbre 115
▁clinique 115
▁commencez 115
▁côtés 115
▁malheureusement 115
▁montagnes 115
▁monte 115
▁soutien 115
▁telles 115
▁thé 115
▁tiens 115
com 114
eurs 114
uns 114
▁45 114
▁ayons 114
▁croyons 114
▁jaune 114
▁joué 114
▁mener 114
▁pluie 114
▁sensation 114
▁spécial 114
2, 113
animal 113
erait 113
onner 113
▁Bill 113
▁Certaines 113
▁Darwin 113
▁Pr 113
▁aut 113
▁dieu 113
▁déjeuner 113
▁largement 113
▁liquide 113
▁particulière 113
▁puissions 113
▁résolution 113
▁soyez 113
▁sport 113
▁total 113
▁économiques 113
▁électriques 113
.. 112
Comment 112
accès 112
ak 112
atifs 112
ial 112
ich 112
ime 112
iss 112
si 112
ust 112
▁Mexique 112
▁acc 112
▁aspect 112
▁bou 112
▁devaient 112
▁donnez 112
▁drôle 112
▁frontières 112
▁généralement 112
▁joueurs 112
▁lumières 112
▁magasin 112
▁mange 112
▁métaphore 112
▁parc 112
▁quatrième 112
▁repas 112
▁restaurant 112
▁texte 112
▁vaste 112
▁victimes 112
Ar 111
endre 111
ls 111
ord 111
ulaire 111
▁35 111
▁Permettez 111
▁Pourtant 111
▁Web 111
▁business 111
▁découvertes 111
▁essaye 111
▁gravité 111
▁guerres 111
▁gé 111
▁générale 111
▁leaders 111
▁local 111
▁normal 111
▁note 111
▁obtient 111
▁pierre 111
▁reconnaître 111
▁sons 111
▁souvenez 111
▁touche 111
▁évolution 111
are 110
ieuse 110
ises 110
ots 110
çons 110
▁1000 110
▁Enfin 110
▁Times 110
▁amène 110
▁arrêté 110
▁art 110
▁aurons 110
▁bouge 110
▁budget 110
▁conseil 110
▁considère 110
▁constamment 110
▁distribution 110
▁décennie 110
▁foie 110
▁malade 110
▁nationale 110
▁normale 110
▁professeurs 110
▁représentation 110
▁sable 110
▁spectacle 110
▁énormément 110
Il 109
Uni 109
ides 109
ran 109
tez 109
▁Quelques 109
▁and 109
▁chat 109
▁concernant 109
▁content 109
▁fondament 109
▁nouvel 109
▁passés 109
▁publicité 109
▁rel 109
▁rouges 109
▁soie 109
%. 108
organisation 108
oul 108
uel 108
▁Ah 108
▁auxquels 108
▁boite 108
▁chances 108
▁compagnies 108
▁dollar 108
▁dure 108
▁internationale 108
▁pousse 108
▁ressemblait 108
▁vivants 108
cent 107
essaie 107
expression 107
issait 107
one 107
ong 107
▁Malheureusement 107
▁Or 107
▁Sa 107
▁bat 107
▁microbes 107
▁ouvrir 107
▁ressent 107
▁réussir 107
▁réussite 107
▁schéma 107
▁tumeur 107
▁vêtements 107
▁écran 107
▁étapes 107
agissait 106
bre 106
enseignement 106
ographie 106
▁Anderson 106
▁augmenter 106
▁centres 106
▁chimie 106
▁comprenons 106
▁horrible 106
▁journaux 106
▁k 106
▁lait 106
▁mentale 106
▁nez 106
▁sûrement 106
▁tenter 106
▁triste 106
Eh 105
ane 105
orer 105
ours 105
▁Los 105
▁NASA 105
▁aimons 105
▁bibliothèque 105
▁coûts 105
▁croient 105
▁déterminer 105
▁essais 105
▁essayant 105
▁experts 105
▁fabriqué 105
▁opération 105
▁parfaite 105
▁récompense 105
▁sucre 105
▁travaillant 105
▁vas 105
agent 104
essence 104
ip 104
isant 104
isons 104
ton 104
équivalent 104
▁600 104
▁George 104
▁Kenya 104
▁ballon 104
▁col 104
▁compétition 104
▁conclusion 104
▁descendre 104
▁disparu 104
▁efficaces 104
▁gu 104
▁jeter 104
▁motif 104
▁pensaient 104
▁positif 104
▁prés 104
▁retrouve 104
▁rev 104
▁serez 104
▁thème 104
▁verte 104
Tu 103
ager 103
gr 103
igne 103
itions 103
▁Soleil 103
▁collaboration 103
▁couverture 103
▁designers 103
▁fondamentale 103
▁frais 103
▁génér 103
▁lié 103
▁marketing 103
▁messages 103
▁morte 103
▁normalement 103
▁personnages 103
▁profit 103
▁rassembler 103
▁relativement 103
▁rivière 103
▁siège 103
▁suit 103
▁tels 103
▁transforme 103
ction 102
dedans 102
ll 102
teur 102
urer 102
▁Charles 102
▁Twitter 102
▁accro 102
▁amour 102
▁concepts 102
▁enf 102
▁esprits 102
▁essaie 102
▁fondamental 102
▁globale 102
▁int 102
▁longueur 102
▁ouverte 102
▁rendez 102
arriver 101
ifié 101
rées 101
ète 101
▁Brésil 101
▁Grand 101
▁Sans 101
▁al 101
▁ancêtres 101
▁artistique 101
▁chirurgie 101
▁con 101
▁consommateurs 101
▁cortex 101
▁explique 101
▁forment 101
▁grandir 101
▁individu 101
▁instrument 101
▁notes 101
▁objectifs 101
▁physiques 101
▁pot 101
▁quasiment 101
▁ren 101
▁spectre 101
▁théâtre 101
▁venant 101
appelait 100
ification 100
nées 100
quer 100
ub 100
usement 100
â 100
▁Big 100
▁Se 100
▁Toute 100
▁anciens 100
▁artiste 100
▁bases 100
▁beaux 100
▁chimique 100
▁complète 100
▁dirigeants 100
▁facteurs 100
▁fonctions 100
▁hab 100
▁hauteur 100
▁identité 100
▁ind 100
▁lune 100
▁parlez 100
▁réunion 100
▁terminé 100
▁tradition 100
▁travaux 100
▁tâches 100
▁unes 100
♫ 100
essaye 99
imagination 99
▁75 99
▁Afghanistan 99
▁batterie 99
▁biens 99
▁blog 99
▁cependant 99
▁chimpanzés 99
▁combinaison 99
▁conclure 99
▁courage 99
▁garde 99
▁global 99
▁goût 99
▁longues 99
▁mécanique 99
▁or 99
▁portée 99
▁publics 99
▁rayons 99
▁réc 99
▁sentiments 99
▁signe 99
▁sérieusement 99
▁visuel 99
▁vote 99
▁véhicules 99
▁étonnant 99
entrée 98
haut 98
ouvrir 98
ros 98
écriture 98
▁Ben 98
▁Einstein 98
▁Trois 98
▁auront 98
▁centaine 98
▁champs 98
▁feuille 98
▁instruments 98
▁maman 98
▁men 98
▁mène 98
▁médical 98
▁métal 98
▁ph 98
▁photographie 98
▁ramener 98
▁restent 98
▁réflexion 98
▁rég 98
▁toit 98
▁écl 98
!" 97
K 97
améliorer 97
ars 97
ast 97
eté 97
expliquer 97
idé 97
iller 97
ième 97
ob 97
ologique 97
orte 97
quent 97
vent 97
▁Facebook 97
▁Mar 97
▁auprès 97
▁autrement 97
▁belles 97
▁entend 97
▁frères 97
▁grave 97
▁gène 97
▁magique 97
▁mour 97
▁pourcentage 97
▁prends 97
▁présenté 97
▁soudain 97
▁technologique 97
▁tissus 97
▁visages 97
En 96
acheter 96
ards 96
entendre 96
éch 96
▁Jusqu 96
▁Paul 96
▁apporté 96
▁baisse 96
▁chefs 96
▁courte 96
▁destruction 96
▁efforts 96
▁moteurs 96
▁occasion 96
▁phase 96
▁souhait 96
▁sphère 96
▁stress 96
▁traitements 96
▁voisins 96
▁véhicule 96
espèce 95
ett 95
hydrogène 95
inf 95
ivité 95
uellement 95
▁Prenez 95
▁bleue 95
▁conséquence 95
▁degré 95
▁fusion 95
▁institution 95
▁jet 95
▁magazine 95
▁moral 95
▁parlant 95
▁prouver 95
▁remonte 95
▁réparer 95
▁similaires 95
▁spécifique 95
▁usine 95
▁utilisées 95
▁volume 95
emb 94
té 94
▁!" 94
▁Pakistan 94
▁actuel 94
▁ancien 94
▁chute 94
▁cou 94
▁dispositif 94
▁enc 94
▁entrepreneurs 94
▁exposé 94
▁hôpital 94
▁pingouins 94
▁quantités 94
▁situations 94
▁supplémentaires 94
▁sympa 94
▁tire 94
000 93
Al 93
Bon 93
airement 93
ari 93
arrête 93
ble 93
iant 93
iel 93
ologue 93
omb 93
urent 93
éri 93
▁$ 93
▁197 93
▁Angeles 93
▁Harvard 93
▁Pouvez 93
▁basée 93
▁collection 93
▁compter 93
▁cont 93
▁dessins 93
▁devions 93
▁déplace 93
▁extraordinaires 93
▁facteur 93
▁four 93
▁fréquence 93
▁génétiques 93
▁mét 93
▁of 93
▁organes 93
▁pile 93
▁prom 93
▁psychologie 93
▁religions 93
▁rest 93
▁retraite 93
▁solide 93
▁souffrance 93
▁standard 93
▁surpris 93
▁tandis 93
▁tes 93
▁tir 93
▁tourné 93
▁vaccin 93
▁ve 93
▁venons 93
▁éducation 93
alisé 92
ors 92
ron 92
▁Deuxièmement 92
▁Mont 92
▁amoureux 92
▁attend 92
▁auriez 92
▁bataille 92
▁coll 92
▁corruption 92
▁essai 92
▁fascinant 92
▁heureuse 92
▁inspiré 92
▁nuage 92
▁offrir 92
▁responsables 92
▁serais 92
0, 91
ase 91
entends 91
issements 91
▁2000 91
▁Allez 91
▁Leur 91
▁Michael 91
▁Ouais 91
▁Peu 91
▁Steve 91
▁Voyons 91
▁aidé 91
▁bal 91
▁cru 91
▁date 91
▁donnée 91
▁définir 91
▁enseigner 91
▁foi 91
▁gestion 91
▁ha 91
▁historique 91
▁nécessaires 91
▁parole 91
▁partenaires 91
▁poche 91
▁remplacer 91
▁suivent 91
▁énormes 91
Orient 90
aines 90
approche 90
leur 90
oires 90
ome 90
écouter 90
▁Canada 90
▁Irak 90
▁activités 90
▁air 90
▁avance 90
▁centrale 90
▁chiens 90
▁circulation 90
▁client 90
▁comp 90
▁considér 90
▁courir 90
▁cri 90
▁créature 90
▁créée 90
▁dimension 90
▁emmener 90
▁ent 90
▁entrain 90
▁faudrait 90
▁forêts 90
▁furent 90
▁génie 90
▁lutte 90
▁naturellement 90
▁nombres 90
▁partis 90
▁passée 90
▁placer 90
▁probabilité 90
▁provient 90
▁rempl 90
▁stupide 90
▁ver 90
▁ém 90
▁énergétique 90
enc 89
irez 89
isées 89
ivement 89
iés 89
onc 89
ts 89
ulé 89
çant 89
▁Finalement 89
▁Mondiale 89
▁Premièrement 89
▁allant 89
▁aurions 89
▁biais 89
▁civile 89
▁commercial 89
▁conc 89
▁connait 89
▁connaît 89
▁crime 89
▁discussion 89
▁débarrasser 89
▁espérons 89
▁fossiles 89
▁foule 89
▁front 89
▁industrielle 89
▁majeure 89
▁mets 89
▁modernes 89
▁nerveux 89
▁panneau 89
▁parent 89
▁pensions 89
▁pilote 89
▁plans 89
▁procédé 89
▁profondeur 89
▁requin 89
▁ret 89
▁scanner 89
▁souhaite 89
▁station 89
▁totale 89
▁véritablement 89
Islam 88
ense 88
ible 88
occasion 88
▁Pacifique 88
▁app 88
▁banque 88
▁comprenez 88
▁fleurs 88
▁fonctionnement 88
▁forcément 88
▁magnifiques 88
▁mesures 88
▁militaires 88
▁panneaux 88
▁positive 88
▁pourrons 88
▁poésie 88
▁puissiez 88
▁ridicule 88
▁rire 88
▁réduction 88
▁savions 88
▁so 88
▁sortent 88
▁souvenir 88
▁tombé 88
▁viv 88
ades 87
aill 87
appro 87
auteur 87
erie 87
nellement 87
opportunité 87
▁ADN 87
▁PIB 87
▁auxquelles 87
▁avantage 87
▁baleines 87
▁chanter 87
▁dér 87
▁détecter 87
▁détru 87
▁for 87
▁fête 87
▁implique 87
▁intérêts 87
▁invité 87
▁neige 87
▁off 87
▁représenter 87
▁retard 87
▁récupérer 87
▁senti 87
▁touché 87
▁utilisez 87
▁voyager 87
▁— 87
alisme 86
amb 86
exemple 86
iennes 86
uis 86
œil 86
▁23 86
▁An 86
▁Bonjour 86
▁James 86
▁Me 86
▁all 86
▁arrêt 86
▁arts 86
▁aurez 86
▁avenir 86
▁corail 86
▁dépenser 86
▁gratuitement 86
▁immense 86
▁li 86
▁liés 86
▁motivation 86
▁mécanisme 86
▁nécessairement 86
▁opportunités 86
▁personnalité 86
▁polio 86
▁probable 86
▁profondes 86
▁prédire 86
▁quiconque 86
▁sentez 86
▁traditionnelle 86
▁vague 86
▁villages 86
▁visuelle 86
▁vérifier 86
In 85
anc 85
asser 85
assurer 85
chant 85
ences 85
existence 85
exp 85
llement 85
ologues 85
par 85
tant 85
échec 85
étend 85
▁Am 85
▁Aussi 85
▁Francisco 85
▁Nations 85
▁St 85
▁Street 85
▁adulte 85
▁ann 85
▁blanche 85
▁blancs 85
▁char 85
▁cinéma 85
▁citation 85
▁couches 85
▁créons 85
▁da 85
▁dév 85
▁eff 85
▁essayent 85
▁gagne 85
▁infantile 85
▁jambe 85
▁mondes 85
▁nu 85
▁pattes 85
▁plante 85
▁pollution 85
▁prototype 85
▁surprenant 85
▁“ 85
efficacité 84
ox 84
uelles 84
uent 84
ug 84
▁Celle 84
▁Quelque 84
▁Quoi 84
▁Voyez 84
▁agréable 84
▁aperçu 84
▁ayez 84
▁bactérie 84
▁bar 84
▁bureaux 84
▁central 84
▁chirurgien 84
▁com 84
▁connecté 84
▁dirige 84
▁diriger 84
▁donnait 84
▁détruire 84
▁eaux 84
▁emplois 84
▁excitant 84
▁frontière 84
▁lac 84
▁ministre 84
▁montrant 84
▁oublié 84
▁pourrez 84
▁reproduire 84
▁résolu 84
▁silence 84
▁souffle 84
▁support 84
▁tente 84
▁transition 84
▁transmettre 84
▁viol 84
▁œuvre 84
acc 83
envoyer 83
instant 83
off 83
ote 83
per 83
ry 83
teurs 83
▁Bush 83
▁Chicago 83
▁France 83
▁Guerre 83
▁In 83
▁aff 83
▁applications 83
▁atomes 83
▁avais 83
▁aveugle 83
▁balle 83
▁bio 83
▁cap 83
▁continu 83
▁dépression 83
▁français 83
▁graines 83
▁hôpitaux 83
▁mené 83
▁motifs 83
▁oreilles 83
▁plait 83
▁pratiquement 83
▁propriétés 83
▁remettre 83
▁satellite 83
▁st 83
▁toile 83
▁transformé 83
▁vendu 83
▁É 83
aie 82
atives 82
exc 82
uv 82
vis 82
ç 82
équilibre 82
▁appellent 82
▁bloc 82
▁bombe 82
▁calculs 82
▁combat 82
▁cordes 82
▁docteur 82
▁don 82
▁donnant 82
▁enfance 82
▁exposition 82
▁honnête 82
▁importance 82
▁littérature 82
▁locale 82
▁militaire 82
▁mystère 82
▁mètre 82
▁médicaux 82
▁nucléaires 82
▁pal 82
▁plate 82
▁recul 82
▁regret 82
▁remarquer 82
▁reçoit 82
▁résistance 82
▁serons 82
▁sour 82
▁tiré 82
▁utilisateurs 82
▁vaisseaux 82
Afghanistan 81
Si 81
ative 81
ess 81
ium 81
iée 81
lo 81
nels 81
ouest 81
ville 81
érence 81
étape 81
▁augmenté 81
▁bouton 81
▁cents 81
▁croit 81
▁douce 81
▁jusque 81
▁médicale 81
▁méthodes 81
▁nations 81
▁ours 81
▁passons 81
▁poème 81
▁rare 81
▁savaient 81
▁siècles 81
▁tend 81
▁via 81
▁établ 81
▁étoile 81
Asie 80
agir 80
alisée 80
aî 80
aï 80
ira 80
ok 80
oll 80
oser 80
écoute 80
études 80
▁Noël 80
▁ant 80
▁biologiques 80
▁collect 80
▁composé 80
▁conv 80
▁diss 80
▁détail 80
▁eng 80
▁espoir 80
▁impliqué 80
▁invent 80
▁lendemain 80
▁mathématique 80
▁média 80
▁psych 80
▁rent 80
▁reçoivent 80
▁sculpture 80
▁sommeil 80
▁trouvait 80
▁venaient 80
▁élevés 80
chez 79
des 79
em 79
enez 79
hab 79
ilité 79
ouverture 79
pl 79
pr 79
uler 79
éb 79
û 79
▁22 79
▁250 79
▁YouTube 79
▁aident 79
▁augmentation 79
▁brut 79
▁cal 79
▁chansons 79
▁disparaître 79
▁déb 79
▁défense 79
▁nage 79
▁offre 79
▁populations 79
▁principales 79
▁ram 79
▁ressort 79
▁sc 79
▁sourire 79
▁tours 79
▁traite 79
▁traité 79
▁utiles 79
▁vente 79
arr 78
els 78
ifie 78
ige 78
imagine 78
oup 78
oy 78
ute 78
ètes 78
▁Boston 78
▁Congrès 78
▁Hé 78
▁Thomas 78
▁apparemment 78
▁automatiquement 78
▁convaincu 78
▁cor 78
▁coups 78
▁fleur 78
▁fondation 78
▁ok 78
▁pollen 78
▁rig 78
▁saut 78
▁spatial 78
▁studio 78
▁tendances 78
▁tue 78
▁visible 78
▁vues 78
▁économies 78
▁économistes 78
▁él 78
atteindre 77
ces 77
enf 77
imm 77
inspiration 77
itation 77
ition 77
ouvre 77
ov 77
qué 77
quée 77
érons 77
▁AB 77
▁Iran 77
▁Voila 77
▁achet 77
▁acteurs 77
▁attendez 77
▁boule 77
▁bref 77
▁carburant 77
▁champignons 77
▁cherché 77
▁cop 77
▁densité 77
▁emploi 77
▁fac 77
▁finit 77
▁foyer 77
▁gamme 77
▁gouvernance 77
▁intelligente 77
▁joueur 77
▁mangent 77
▁observé 77
▁organisme 77
▁soci 77
▁trans 77
▁vieillissement 77
ande 76
eff 76
ere 76
esse 76
vez 76
ys 76
énormes 76
▁32 76
▁Tr 76
▁acte 76
▁aimer 76
▁aliments 76
▁amie 76
▁ancienne 76
▁avantages 76
▁basse 76
▁bulle 76
▁caractère 76
▁cliniques 76
▁connue 76
▁dispar 76
▁dist 76
▁divers 76
▁document 76
▁donnons 76
▁déclin 76
▁désolé 76
▁gamin 76
▁identifier 76
▁identiques 76
▁intitulé 76
▁leçons 76
▁meurt 76
▁mi 76
▁permettez 76
▁portent 76
▁privé 76
▁préparer 76
▁quantique 76
▁rayon 76
▁sinon 76
▁spéc 76
▁vir 76
▁vraies 76
▁électronique 76
▁évoluer 76
ifiée 75
ombre 75
▁27 75
▁Bang 75
▁Dan 75
▁Moi 75
▁Nature 75
▁The 75
▁active 75
▁apprenons 75
▁arrivez 75
▁articles 75
▁bo 75
▁bu 75
▁chasse 75
▁claire 75
▁coupe 75
▁difficulté 75
▁emb 75
▁fausse 75
▁feuilles 75
▁marchent 75
▁miroir 75
▁modifier 75
▁muscles 75
▁ordinaire 75
▁pensant 75
▁permanence 75
▁poulet 75
▁primaire 75
▁protéine 75
▁puissants 75
▁rang 75
▁rentre 75
▁resté 75
▁retirer 75
▁réalis 75
▁salles 75
▁seules 75
▁sou 75
▁suggère 75
▁toilettes 75
▁travailleurs 75
▁z 75
▁é 75
ONU 74
animaux 74
ature 74
hommes 74
ices 74
ik 74
midi 74
riez 74
ulation 74
» 74
▁2, 74
▁Robert 74
▁Russie 74
▁accepter 74
▁apporte 74
▁assise 74
▁calculer 74
▁chocolat 74
▁créatif 74
▁dég 74
▁développent 74
▁empêcher 74
▁invisible 74
▁libérer 74
▁minuscule 74
▁mobile 74
▁naturels 74
▁no 74
▁ordre 74
▁peinture 74
▁philosophie 74
▁pi 74
▁po 74
▁pol 74
▁pourcent 74
▁pourront 74
▁proportion 74
▁rempli 74
▁routes 74
▁sauter 74
▁serre 74
▁simplicité 74
▁symétrie 74
▁sûre 74
▁sœur 74
▁trouverez 74
▁vér 74
▁îles 74
Ne 73
axe 73
ctions 73
ed 73
engager 73
huile 73
investissement 73
objectif 73
opération 73
pp 73
père 73
ress 73
tement 73
étudier 73
▁196 73
▁App 73
▁DH 73
▁Vraiment 73
▁affect 73
▁africains 73
▁boire 73
▁censé 73
▁chant 73
▁collective 73
▁commune 73
▁créateurs 73
▁démonstration 73
▁déplacent 73
▁eh 73
▁expliqué 73
▁goutte 73
▁gras 73
▁imagination 73
▁intéressants 73
▁intéresse 73
▁lev 73
▁logiciels 73
▁légumes 73
▁messieurs 73
▁mérite 73
▁oeil 73
▁optimiste 73
▁personnellement 73
▁piano 73
▁pic 73
▁politiciens 73
▁potentiellement 73
▁préféré 73
▁pyramide 73
▁quart 73
▁quelconque 73
▁religieux 73
▁retourné 73
▁réactions 73
▁saison 73
▁sentent 73
▁vache 73
▁équilibre 73
▁œil 73
0 72
adapter 72
analyse 72
ange 72
ath 72
avance 72
cer 72
essentiel 72
exploitation 72
ignent 72
ina 72
isez 72
issaient 72
occuper 72
ond 72
orme 72
oud 72
rice 72
ru 72
ules 72
▁198 72
▁Lune 72
▁Paris 72
▁Suède 72
▁World 72
▁accepté 72
▁anniversaire 72
▁artificielle 72
▁compl 72
▁copie 72
▁dame 72
▁discuter 72
▁développe 72
▁effort 72
▁encourage 72
▁fous 72
▁ignor 72
▁inv 72
▁journaliste 72
▁lance 72
▁match 72
▁min 72
▁opérations 72
▁partenaire 72
▁physiquement 72
▁prévu 72
▁quotidien 72
▁rat 72
▁reconnaissance 72
▁surfaces 72
▁symbole 72
▁trait 72
▁voire 72
▁voisin 72
▁élevée 72
▁événement 72
0. 71
Mais 71
anger 71
attend 71
bles 71
ibilité 71
ouer 71
qués 71
ueux 71
ui 71
État 71
▁Mac 71
▁accessible 71
▁circonstances 71
▁conscient 71
▁considéré 71
▁effect 71
▁franchement 71
▁fruits 71
▁habitants 71
▁im 71
▁monté 71
▁montée 71
▁neur 71
▁obtenons 71
▁pan 71
▁parcours 71
▁pareil 71
▁permettant 71
▁professionnel 71
▁propose 71
▁provenant 71
▁rédu 71
▁travaillait 71
▁variole 71
▁vouliez 71
▁électroniques 71
1, 70
Bretagne 70
Occident 70
On 70
acte 70
ands 70
atiquement 70
empathie 70
irait 70
nait 70
oles 70
pt 70
rie 70
île 70
▁BF 70
▁Tom 70
▁U 70
▁Unies 70
▁agents 70
▁angle 70
▁appar 70
▁architectes 70
▁attaque 70
▁cadeau 70
▁choc 70
▁compét 70
▁concert 70
▁démarrer 70
▁désastre 70
▁emmené 70
▁explication 70
▁faisions 70
▁golf 70
▁grosses 70
▁influence 70
▁laser 70
▁lunettes 70
▁merveilleuses 70
▁offert 70
▁open 70
▁paludisme 70
▁pass 70
▁plage 70
▁rappelez 70
▁remercie 70
▁réf 70
▁réserve 70
▁spectaculaire 70
▁terrorisme 70
▁traduire 70
▁transmission 70
▁vieilles 70
▁éch 70
af 69
appareil 69
dessous 69
individus 69
internet 69
ma 69
mat 69
nant 69
org 69
épidémie 69
ï 69
ô 69
▁Asie 69
▁assurer 69
▁attraper 69
▁autor 69
▁colonie 69
▁confrontés 69
▁cro 69
▁câble 69
▁delà 69
▁dignité 69
▁divertissement 69
▁entré 69
▁gonf 69
▁ingénieur 69
▁interagir 69
▁investir 69
▁jou 69
▁lecture 69
▁levé 69
▁millier 69
▁multiples 69
▁payé 69
▁principaux 69
▁pâte 69
▁rapides 69
▁remonter 69
▁scolaire 69
▁trajectoire 69
▁transports 69
▁échantillons 69
▁étais 69
env 68
ern 68
exposition 68
irent 68
itaires 68
ph 68
usage 68
étiques 68
œuvre 68
▁Allons 68
▁Bible 68
▁City 68
▁Microsoft 68
▁Nobel 68
▁apparu 68
▁appro 68
▁baleine 68
▁causes 68
▁cible 68
▁circuit 68
▁connexions 68
▁cons 68
▁conserver 68
▁contrairement 68
▁couper 68
▁décomp 68
▁encourager 68
▁enregistré 68
▁fix 68
▁générer 68
▁heureusement 68
▁imagin 68
▁maïs 68
▁mises 68
▁muscle 68
▁musiciens 68
▁organisé 68
▁partageons 68
▁prof 68
▁pur 68
▁rapports 68
▁retrouvé 68
▁roi 68
▁réfléchi 68
▁réfléchissez 68
▁réserves 68
▁sauce 68
▁sensible 68
▁seuil 68
▁soul 68
▁soyons 68
▁statut 68
▁supérieur 68
▁thérapie 68
▁utilis 68
▁vivaient 68
▁volant 68
▁ère 68
▁étud 68
Angleterre 67
]. 67
aille 67
cl 67
ger 67
irer 67
oeil 67
orter 67
ric 67
venir 67
ément 67
▁65 67
▁800 67
▁99 67
▁Congo 67
▁Nigeria 67
▁apparaître 67
▁application 67
▁attirer 67
▁baisser 67
▁barrière 67
▁blogs 67
▁boucle 67
▁caméras 67
▁cardiaques 67
▁conversations 67
▁créant 67
▁diable 67
▁directions 67
▁extra 67
▁feront 67
▁fibres 67
▁fig 67
▁formule 67
▁fournit 67
▁gratuit 67
▁jouets 67
▁laboratoires 67
▁liées 67
▁marques 67
▁métro 67
▁numériques 67
▁ordinaires 67
▁parlais 67
▁placé 67
▁profiter 67
▁périodes 67
▁radi 67
▁rappel 67
▁rappro 67
▁respirer 67
▁ressenti 67
▁réunions 67
▁saisir 67
▁siff 67
▁souv 67
▁symptômes 67
▁sé 67
▁voies 67
▁échoué 67
Union 66
W 66
augmentation 66
engagement 66
entrer 66
exploration 66
he 66
oh 66
ulaires 66
uss 66
▁1, 66
▁Aucun 66
▁Vidéo 66
▁apparaissent 66
▁apparaît 66
▁apport 66
▁barre 66
▁cach 66
▁capteurs 66
▁caractéristique 66
▁casse 66
▁chaise 66
▁commande 66
▁courbes 66
▁curieux 66
▁diverses 66
▁dégâts 66
▁faciles 66
▁financier 66
▁glob 66
▁gris 66
▁indique 66
▁interne 66
▁japonais 66
▁locales 66
▁mettant 66
▁oiseau 66
▁orbite 66
▁paire 66
▁ple 66
▁poursuivre 66
▁précip 66
▁précision 66
▁précédent 66
▁présents 66
▁qualités 66
▁race 66
▁ralentir 66
▁ressource 66
▁sacré 66
▁serv 66
▁supporter 66
▁systém 66
▁tapis 66
▁traditionnel 66
▁transporter 66
▁émet 66
▁événements 66
Homme 65
aid 65
appeler 65
arbre 65
bl 65
cient 65
emploi 65
itaire 65
ost 65
sez 65
yn 65
êt 65
” 65
▁Ar 65
▁Corée 65
▁Stanford 65
▁aimerions 65
▁blague 65
▁bombes 65
▁catastrophe 65
▁combattre 65
▁combin 65
▁concentration 65
▁concours 65
▁connectés 65
▁dict 65
▁dîner 65
▁exception 65
▁extraire 65
▁extrême 65
▁extérieur 65
▁formé 65
▁forts 65
▁grav 65
▁innovations 65
▁kilos 65
▁liée 65
▁microscope 65
▁née 65
▁oubl 65
▁pe 65
▁performance 65
▁phrases 65
▁productivité 65
▁professionnels 65
▁puce 65
▁quête 65
▁racines 65
▁rares 65
▁reproduction 65
▁retenir 65
▁signification 65
▁simulation 65
▁technologiques 65
▁terriblement 65
▁théories 65
▁tombée 65
▁travaillais 65
▁traverse 65
▁tribus 65
▁w 65
▁île 65
.» 64
8, 64
aim 64
allons 64
ama 64
ident 64
identité 64
informatique 64
iqu 64
itant 64
lin 64
lée 64
oré 64
unité 64
érés 64
étr 64
▁Chacun 64
▁Chinois 64
▁Coca 64
▁Nouvelle 64
▁RB 64
▁Rwanda 64
▁affich 64
▁algorithmes 64
▁britannique 64
▁camion 64
▁carrés 64
▁catégories 64
▁chinoise 64
▁construisent 64
▁construite 64
▁contribuer 64
▁croyances 64
▁environnements 64
▁expression 64
▁faibles 64
▁fermé 64
▁fur 64
▁globe 64
▁industrie 64
▁laiss 64
▁mammifères 64
▁océan 64
▁passez 64
▁personn 64
▁pouss 64
▁printemps 64
▁profession 64
▁propriétaire 64
▁précise 64
▁préd 64
▁prête 64
▁radicalement 64
▁sanguins 64
▁sauvé 64
▁secteurs 64
▁servent 64
▁superbe 64
▁ultime 64
▁vingt 64
▁élections 64
., 63
ail 63
aisse 63
amment 63
appel 63
atoire 63
aucun 63
enne 63
ha 63
images 63
ination 63
ones 63
onie 63
ouille 63
toi 63
uels 63
ède 63
▁10, 63
▁700 63
▁Heureusement 63
▁Life 63
▁Obama 63
▁Orient 63
▁Regardons 63
▁ajouté 63
▁analyse 63
▁avéré 63
▁coins 63
▁comparé 63
▁conseils 63
▁contr 63
▁couvert 63
▁dent 63
▁div 63
▁déch 63
▁déroule 63
▁ennuyeux 63
▁fauteuil 63
▁fier 63
▁frappe 63
▁frappé 63
▁géant 63
▁imaginé 63
▁intégr 63
▁oeuvre 63
▁poitrine 63
▁puisqu 63
▁pure 63
▁rarement 63
▁rav 63
▁rendue 63
▁réunir 63
▁sain 63
▁secondaires 63
▁sensibles 63
▁singe 63
▁souvenirs 63
▁surv 63
▁talents 63
▁titres 63
▁virtuel 63
▁vivante 63
▁échantillon 63
Ouest 62
amis 62
az 62
ider 62
iger 62
imes 62
important 62
naire 62
non 62
obésité 62
onné 62
vé 62
▁199 62
▁Dès 62
▁Ec 62
▁Mal 62
▁Manhattan 62
▁aimez 62
▁arrivait 62
▁arrivons 62
▁bière 62
▁catégorie 62
▁collègue 62
▁convention 62
▁demandais 62
▁demie 62
▁décès 62
▁démocratique 62
▁fantôme 62
▁fenêtres 62
▁finance 62
▁fre 62
▁ingrédients 62
▁joli 62
▁lève 62
▁maximum 62
▁ment 62
▁moléculaire 62
▁musulmans 62
▁naturelles 62
▁possèdent 62
▁privée 62
▁pro 62
▁publiques 62
▁remplir 62
▁récente 62
▁récompenses 62
▁révél 62
▁significative 62
▁soigner 62
▁totalité 62
▁vaccins 62
▁vieill 62
▁voyages 62
▁émotionnelle 62
▁équipes 62
▁́est 62
acier 61
alle 61
attendre 61
cteur 61
enn 61
exprimer 61
iciens 61
ouve 61
rique 61
éros 61
▁Angleterre 61
▁Ghana 61
▁KB 61
▁Mesdames 61
▁Monde 61
▁Moore 61
▁accept 61
▁anciennes 61
▁arme 61
▁calme 61
▁caus 61
▁chaude 61
▁colle 61
▁comparaison 61
▁comparer 61
▁considérons 61
▁couvrir 61
▁culturelle 61
▁curiosité 61
▁céréales 61
▁destin 61
▁développés 61
▁effrayant 61
▁envoie 61
▁fabrique 61
▁form 61
▁froide 61
▁gagnent 61
▁gang 61
▁intelligentes 61
▁intention 61
▁ir 61
▁leadership 61
▁lég 61
▁mâle 61
▁méd 61
▁nager 61
▁nécessite 61
▁négatif 61
▁paradigme 61
▁participation 61
▁parvenir 61
▁paysages 61
▁pires 61
▁pos 61
▁poste 61
▁prév 61
▁raconté 61
▁reconn 61
▁ref 61
▁restaurants 61
▁revue 61
▁réagir 61
▁répand 61
▁supplémentaire 61
▁tableaux 61
▁transparence 61
▁verts 61
▁vus 61
▁écologique 61
▁émotion 61
▁équipement 61
▁évidence 61
administration 60
agn 60
amener 60
appar 60
chée 60
du 60
endent 60
infrastructure 60
li 60
ly 60
ologiques 60
tons 60
▁Ed 60
▁Quelles 60
▁Rome 60
▁aborder 60
▁affecte 60
▁aimé 60
▁allions 60
▁autonome 60
▁cancers 60
▁cesse 60
▁classes 60
▁collision 60
▁confort 60
▁continuent 60
▁crucial 60
▁demandant 60
▁diapo 60
▁diront 60
▁essentiel 60
▁essentielle 60
▁expert 60
▁fan 60
▁ident 60
▁installations 60
▁intéressés 60
▁kilomètre 60
▁lourd 60
▁mine 60
▁minuscules 60
▁musicale 60
▁nuages 60
▁nôtre 60
▁occidentale 60
▁organiser 60
▁piste 60
▁portes 60
▁poussé 60
▁prenant 60
▁provoque 60
▁provoquer 60
▁pub 60
▁radical 60
▁remercier 60
▁rentré 60
▁riz 60
▁réuss 60
▁sembler 60
▁sois 60
▁sonne 60
▁spécifiques 60
▁suppos 60
▁surp 60
▁symboles 60
▁sûrs 60
▁tomb 60
▁transform 60
▁utilisation 60
▁vaisseau 60
▁voy 60
▁vulnérabilité 60
Hé 59
Irak 59
affaire 59
alimentation 59
aspect 59
lant 59
obscurité 59
éro 59
▁194 59
▁Faites 59
▁Gr 59
▁He 59
▁Homme 59
▁ONG 59
▁Occident 59
▁] 59
▁accompl 59
▁agriculteurs 59
▁ailes 59
▁appliquer 59
▁arabe 59
▁argument 59
▁associé 59
▁attaques 59
▁bénéfices 59
▁chaos 59
▁compliquée 59
▁crâne 59
▁créatifs 59
▁designer 59
▁diapositive 59
▁disposition 59
▁dén 59
▁end 59
▁entoure 59
▁examiner 59
▁extr 59
▁financiers 59
▁frapper 59
▁idé 59
▁informatiques 59
▁intellectuelle 59
▁international 59
▁intérieur 59
▁kg 59
▁lat 59
▁manuel 59
▁ondes 59
▁orient 59
▁oublier 59
▁paquet 59
▁pause 59
▁pratiques 59
▁prisonniers 59
▁proposer 59
▁pèse 59
▁quartiers 59
▁rejoindre 59
▁retourne 59
▁roman 59
▁réalise 59
▁sandwich 59
▁stable 59
▁synthèse 59
▁transf 59
▁travaillez 59
▁urbain 59
▁vivait 59
5, 58
Mon 58
affaires 58
aiment 58
artiste 58
aw 58
chose 58
min 58
odeur 58
ouver 58
tre 58
ult 58
ume 58
ument 58
écl 58
émotion 58
érant 58
êtres 58
▁0, 58
▁Br 58
▁Bronx 58
▁Gore 58
▁Martin 58
▁Sir 58
▁So 58
▁ac 58
▁accomplir 58
▁aspir 58
▁avancée 58
▁aventure 58
▁cacher 58
▁diabète 58
▁diminue 58
▁disc 58
▁discussions 58
▁dise 58
▁détach 58
▁excité 58
▁fourmi 58
▁glamour 58
▁grille 58
▁jeunesse 58
▁mines 58
▁mécanismes 58
▁métier 58
▁nid 58
▁nés 58
▁observe 58
▁organique 58
▁organis 58
▁partagent 58
▁pat 58
▁percevoir 58
▁peuples 58
▁pierres 58
▁pommes 58
▁potable 58
▁poumons 58
▁recette 58
▁reconstruire 58
▁repose 58
▁résumer 58
▁sachant 58
▁sauvages 58
▁soudainement 58
▁tentative 58
▁tenu 58
▁terrestre 58
▁trafic 58
▁traversé 58
▁tube 58
▁vacances 58
▁vagues 58
▁vo 58
▁vole 58
▁écouté 58
▁éd 58
▁éthique 58
aces 57
ater 57
chons 57
cle 57
erve 57
han 57
idité 57
ielle 57
influence 57
interaction 57
iqué 57
issante 57
ivre 57
oirs 57
oph 57
organ 57
oule 57
ourd 57
uit 57
ves 57
éviter 57
▁26 57
▁Man 57
▁PDG 57
▁Pays 57
▁Selon 57
▁ah 57
▁appliqu 57
▁attendent 57
▁bulles 57
▁bén 57
▁ci 57
▁clés 57
▁comm 57
▁conçus 57
▁croyais 57
▁diviser 57
▁décharge 57
▁démontrer 57
▁dépenses 57
▁dépensé 57
▁développée 57
▁enlever 57
▁entendez 57
▁entraî 57
▁folle 57
▁fortes 57
▁grandissent 57
▁intense 57
▁invers 57
▁libres 57
▁limité 57
▁massive 57
▁ouverts 57
▁pompe 57
▁press 57
▁proposé 57
▁qual 57
▁robotique 57
▁rétro 57
▁section 57
▁signes 57
▁signifiait 57
▁tragédie 57
▁têtes 57
▁unité 57
▁usines 57
▁vivez 57
▁volé 57
▁voyait 57
▁établir 57
▁étranges 57
5. 56
absence 56
agé 56
alis 56
ancien 56
chés 56
espérance 56
iale 56
icien 56
illée 56
ode 56
oï 56
▁Allemagne 56
▁Quatre 56
▁Sch 56
▁Voix 56
▁abstrait 56
▁admettre 56
▁aud 56
▁bain 56
▁bour 56
▁brillant 56
▁cm 56
▁comporte 56
▁concepteurs 56
▁consommer 56
▁câbles 56
▁diminuer 56
▁docteurs 56
▁détection 56
▁essaient 56
▁excellent 56
▁existence 56
▁faudra 56
▁fermer 56
▁fus 56
▁hypothèse 56
▁hé 56
▁idéal 56
▁impliqués 56
▁interd 56
▁invest 56
▁journalistes 56
▁larmes 56
▁léger 56
▁malades 56
▁matières 56
▁merveille 56
▁mondialisation 56
▁paraît 56
▁paraître 56
▁partagé 56
▁pay 56
▁perdez 56
▁plier 56
▁privilège 56
▁procès 56
▁prop 56
▁proposition 56
▁pères 56
▁salaire 56
▁secondaire 56
▁secrets 56
▁sièges 56
▁supérieure 56
▁tension 56
▁termin 56
▁th 56
▁tournée 56
▁troupes 56
▁universités 56
▁variété 56
▁échange 56
▁évidente 56
Un 55
assez 55
endroits 55
endu 55
envers 55
essayais 55
ian 55
itt 55
land 55
neur 55
orchestre 55
oreille 55
q 55
quant 55
resse 55
temps 55
th 55
usine 55
uée 55
èle 55
échange 55
érique 55
érée 55
ête 55
▁Banque 55
▁Hong 55
▁King 55
▁accéder 55
▁acquis 55
▁alternative 55
▁apprécier 55
▁attitude 55
▁attrib 55
▁banlieue 55
▁barrières 55
▁biodiversité 55
▁biologistes 55
▁bl 55
▁bleus 55
▁bond 55
▁boîtes 55
▁capt 55
▁cercles 55
▁coopération 55
▁cuisiner 55
▁devienne 55
▁diagnostic 55
▁dialogue 55
▁dioxyde 55
▁déform 55
▁enceinte 55
▁entrent 55
▁ext 55
▁fantastiques 55
▁fibre 55
▁fit 55
▁football 55
▁habitués 55
▁iPhone 55
▁infrastructures 55
▁laissent 55
▁libér 55
▁lutter 55
▁marchait 55
▁méthane 55
▁obstacles 55
▁outre 55
▁ouv 55
▁peurs 55
▁plateforme 55
▁préparé 55
▁reprendre 55
▁résol 55
▁réve 55
▁servi 55
▁soeur 55
▁souffrent 55
▁substance 55
▁suffisant 55
▁supp 55
▁surmonter 55
▁séquences 55
▁thon 55
▁tiennent 55
▁traduction 55
▁tremblement 55
▁tromper 55
▁troubles 55
▁typique 55
▁télescope 55
▁usage 55
▁vallée 55
▁variations 55
▁économ 55
▁ég 55
▁élève 55
▁étranger 55
8. 54
Ce 54
Institut 54
Iran 54
ame 54
ara 54
arch 54
empêcher 54
eng 54
espèces 54
iennent 54
iff 54
ifiés 54
individu 54
ision 54
ouill 54
resser 54
çait 54
étranger 54
ôt 54
▁195 54
▁Aucune 54
▁Commençons 54
▁Cor 54
▁Environ 54
▁Floride 54
▁Frank 54
▁Golfe 54
▁Haïti 54
▁Super 54
▁Texas 54
▁USA 54
▁abandonner 54
▁africain 54
▁alimentaires 54
▁appell 54
▁bombard 54
▁bourse 54
▁chers 54
▁circuits 54
▁cré 54
▁danser 54
▁dense 54
▁description 54
▁discipline 54
▁drogue 54
▁efficacement 54
▁entrez 54
▁faveur 54
▁financière 54
▁hauts 54
▁héritage 54
▁imm 54
▁lâ 54
▁mangé 54
▁maternelle 54
▁mobiles 54
▁mondiaux 54
▁mut 54
▁paradis 54
▁personnelles 54
▁pleurer 54
▁prét 54
▁prévention 54
▁refus 54
▁remont 54
▁repos 54
▁ressens 54
▁régler 54
▁répondent 54
▁résumé 54
▁sacs 54
▁scénario 54
▁serai 54
▁spatiale 54
▁squelette 54
▁suivantes 54
▁syndrome 54
▁travaillaient 54
▁témoin 54
▁vagin 54
▁vieil 54
▁voila 54
▁écoute 54
▁évènement 54
%, 53
1. 53
4, 53
Etat 53
Que 53
aiss 53
allez 53
altitude 53
attaquer 53
autorité 53
illon 53
inquiète 53
intention 53
invention 53
lement 53
ley 53
objets 53
ousse 53
uter 53
utilis 53
érité 53
▁Apple 53
▁Be 53
▁Cambridge 53
▁Gu 53
▁MS 53
▁Sp 53
▁adolescents 53
▁amus 53
▁analyser 53
▁ap 53
▁architecture 53
▁attendant 53
▁avancé 53
▁ban 53
▁centimètres 53
▁compar 53
▁conduite 53
▁connaissait 53
▁contiennent 53
▁continuons 53
▁correct 53
▁diplôme 53
▁dispos 53
▁dormir 53
▁débarr 53
▁démontré 53
▁détect 53
▁engagé 53
▁entouré 53
▁entrée 53
▁examiné 53
▁exc 53
▁expériment 53
▁fassent 53
▁figure 53
▁fourn 53
▁inspir 53
▁intelligence 53
▁interactions 53
▁introduit 53
▁inventer 53
▁ira 53
▁lis 53
▁magnétique 53
▁mou 53
▁multi 53
▁normes 53
▁occuper 53
▁ouvre 53
▁pandémie 53
▁physicien 53
▁plafond 53
▁plongée 53
▁pomme 53
▁préfère 53
▁quitt 53
▁rejoint 53
▁remarquables 53
▁ressentez 53
▁sentais 53
▁subi 53
▁talent 53
▁tombent 53
▁traditions 53
▁trompe 53
▁universel 53
▁vienne 53
▁volontaire 53
▁éclair 53
▁élever 53
▁étonnamment 53
3. 52
An 52
apporter 52
effort 52
explorer 52
gl 52
ilé 52
itent 52
once 52
osé 52
uch 52
uf 52
uts 52
équipement 52
▁80% 52
▁Bob 52
▁Coran 52
▁Long 52
▁Mark 52
▁Ray 52
▁actif 52
▁actifs 52
▁aim 52
▁atte 52
▁branche 52
▁brillants 52
▁commerciaux 52
▁conserv 52
▁cyber 52
▁cérébral 52
▁difficultés 52
▁diffusion 52
▁dispers 52
▁dél 52
▁eut 52
▁familier 52
▁fondé 52
▁fumée 52
▁geste 52
▁graisse 52
▁gén 52
▁géniale 52
▁immunitaire 52
▁intégrer 52
▁inutile 52
▁lut 52
▁majeur 52
▁meubles 52
▁mor 52
▁obligé 52
▁obten 52
▁optim 52
▁parcourir 52
▁porc 52
▁poussent 52
▁précieux 52
▁puits 52
▁reconnu 52
▁relier 52
▁roue 52
▁roul 52
▁rév 52
▁sauvage 52
▁secours 52
▁semblable 52
▁souff 52
▁spécialement 52
▁stabilité 52
▁stratégies 52
▁succ 52
▁surviv 52
▁survécu 52
▁tribu 52
▁val 52
▁vides 52
▁âgées 52
▁écrite 52
▁épidémie 52
4. 51
7. 51
Histoire 51
ailles 51
aper 51
arc 51
aéroport 51
entend 51
herbe 51
ific 51
imagin 51
interface 51
ordinateurs 51
oute 51
rite 51
roit 51
ça 51
ènes 51
équation 51
▁3, 51
▁Aut 51
▁Center 51
▁Cinq 51
▁Prenons 51
▁Président 51
▁Turquie 51
▁adopter 51
▁agent 51
▁annoncé 51
▁antibiotiques 51
▁atta 51
▁attentivement 51
▁blocs 51
▁camions 51
▁cherchons 51
▁cinquième 51
▁class 51
▁compt 51
▁connecte 51
▁constante 51
▁constructions 51
▁continents 51
▁critiques 51
▁créateur 51
▁deviez 51
▁diagramme 51
▁dingue 51
▁distinguer 51
▁durables 51
▁découvre 51
▁démarré 51
▁dérange 51
▁détecteur 51
▁empreinte 51
▁envah 51
▁exponentielle 51
▁famine 51
▁ferai 51
▁fermiers 51
▁frapp 51
▁gestes 51
▁hautement 51
▁hom 51
▁investissement 51
▁jouet 51
▁malheureux 51
▁manquer 51
▁moelle 51
▁nettoyer 51
▁normaux 51
▁néanmoins 51
▁observ 51
▁participants 51
▁perdent 51
▁prostate 51
▁prévoir 51
▁publier 51
▁pén 51
▁relever 51
▁restait 51
▁retir 51
▁récifs 51
▁subir 51
▁taper 51
▁terr 51
▁territoire 51
▁trace 51
▁traités 51
▁université 51
▁ventre 51
▁volontaires 51
▁voyant 51
▁émerge 51
▁émission 51
▁évolue 51
7, 50
ache 50
agne 50
aig 50
arrêt 50
ash 50
cs 50
dé 50
erv 50
ielles 50
igné 50
inqui 50
lés 50
met 50
och 50
ographique 50
oncer 50
organiser 50
orie 50
outez 50
pas 50
rions 50
urant 50
ution 50
val 50
étisme 50
▁Ad 50
▁Parmi 50
▁Pro 50
▁Saint 50
▁Science 50
▁Valley 50
▁Wikipedia 50
▁adorent 50
▁allum 50
▁amélior 50
▁appartement 50
▁banques 50
▁bateaux 50
▁bel 50
▁bouteilles 50
▁bruits 50
▁bâton 50
▁capture 50
▁cascade 50
▁civilisations 50
▁coh 50
▁commerciale 50
▁constater 50
▁croyait 50
▁cul 50
▁cérébrale 50
▁devenues 50
▁diamètre 50
▁discut 50
▁département 50
▁dépassé 50
▁détermine 50
▁enlevé 50
▁extrêmes 50
▁faute 50
▁financer 50
▁finissent 50
▁foyers 50
▁gamins 50
▁gay 50
▁graphiques 50
▁handicap 50
▁infirmières 50
▁innovation 50
▁interagissent 50
▁laissons 50
▁leader 50
▁linéaire 50
▁mâles 50
▁neurone 50
▁papiers 50
▁passerait 50
▁pente 50
▁personnels 50
▁photographe 50
▁poussière 50
▁produite 50
▁programmation 50
▁pron 50
▁préférés 50
▁prévenir 50
▁puissantes 50
▁quotidienne 50
▁radicale 50
▁rassemble 50
▁regardais 50
▁rendus 50
▁romantique 50
▁récup 50
▁réunis 50
▁simpl 50
▁solaires 50
▁sépar 50
▁séparer 50
▁tor 50
▁transmis 50
▁uniques 50
▁vaches 50
▁venais 50
▁éliminer 50
▁émotionnel 50
▁étonnante 50
▁évènements 50
As 49
acité 49
alors 49
ape 49
araignée 49
asseoir 49
attendais 49
ec 49
effondrement 49
histoires 49
iels 49
ifient 49
imagerie 49
marin 49
nulle 49
ow 49
pos 49
èse 49
érale 49
étoiles 49
êche 49
▁50% 49
▁Africains 49
▁El 49
▁Grâce 49
▁Hollywood 49
▁Italie 49
▁Rio 49
▁Unis 49
▁aléatoire 49
▁attentes 49
▁augment 49
▁caché 49
▁capturer 49
▁chapeau 49
▁charges 49
▁chromosome 49
▁colonne 49
▁commença 49
▁communications 49
▁compromis 49
▁comptes 49
▁connus 49
▁corde 49
▁croyance 49
▁crédit 49
▁créez 49
▁cultiver 49
▁cycles 49
▁deviner 49
▁dinosaure 49
▁dépasser 49
▁effectuer 49
▁engagement 49
▁exister 49
▁genoux 49
▁graves 49
▁génocide 49
▁habit 49
▁hautes 49
▁hor 49
▁impressionnant 49
▁individuelle 49
▁intérieure 49
▁lampe 49
▁lot 49
▁magasins 49
▁maill 49
▁mental 49
▁mention 49
▁monsieur 49
▁mythe 49
▁occidental 49
▁option 49
▁organe 49
▁plant 49
▁poignée 49
▁promesse 49
▁promouvoir 49
▁proviennent 49
▁précoce 49
▁prépar 49
▁quasi 49
▁racont 49
▁recev 49
▁recours 49
▁repart 49
▁respiration 49
▁revoir 49
▁rose 49
▁régulièrement 49
▁répandre 49
▁sage 49
▁semblables 49
▁serions 49
▁solides 49
▁trich 49
▁universitaire 49
▁visiter 49
▁voyais 49
▁Évidemment 49
▁œufs 49
▁œuvres 49
Art 48
Ec 48
aj 48
aler 48
asses 48
attente 48
ax 48
culaire 48
eter 48
explosion 48
hiver 48
ifiées 48
illés 48
inte 48
invest 48
iteurs 48
ka 48
lez 48
lu 48
nation 48
ocytocine 48
oque 48
osez 48
oue 48
ret 48
rime 48
vers 48
É 48
èmes 48
église 48
▁120 48
▁3000 48
▁Dev 48
▁Fin 48
▁Howard 48
▁Saturne 48
▁Wall 48
▁abandonné 48
▁alimentation 48
▁appren 48
▁avancées 48
▁bandes 48
▁batteries 48
▁bizarres 48
▁chère 48
▁collabor 48
▁combiner 48
▁concurrence 48
▁connaissais 48
▁consommateur 48
▁coupé 48
▁crimes 48
▁créative 48
▁culturel 48
▁devoirs 48
▁di 48
▁drapeau 48
▁déroul 48
▁enseigne 48
▁estime 48
▁explor 48
▁fondamentaux 48
▁fortement 48
▁humanitaire 48
▁invisibles 48
▁laver 48
▁lent 48
▁lisez 48
▁lou 48
▁maire 48
▁mat 48
▁mensonge 48
▁minimum 48
▁mortes 48
▁nerfs 48
▁options 48
▁parallèle 48
▁parking 48
▁partant 48
▁partenariat 48
▁pensiez 48
▁performances 48
▁pertes 48
▁progress 48
▁rejet 48
▁rouler 48
▁réfugiés 48
▁saur 48
▁soldat 48
▁sortis 48
▁stock 48
▁suggérer 48
▁synchron 48
▁the 48
▁traces 48
▁tri 48
▁vendredi 48
▁verrons 48
▁voudrait 48
▁ya 48
Australie 47
Ch 47
aimais 47
alisés 47
amène 47
aucune 47
br 47
esclavage 47
ication 47
idence 47
ires 47
iz 47
naires 47
oler 47
oss 47
rop 47
to 47
uie 47
urgence 47
èrer 47
étendre 47
▁4, 47
▁55 47
▁Aux 47
▁Bref 47
▁Gén 47
▁JH 47
▁SW 47
▁Second 47
▁Smith 47
▁Soit 47
▁adolescent 47
▁apparue 47
▁architecte 47
▁arrivera 47
▁attiré 47
▁automobile 47
▁autrefois 47
▁bête 47
▁caractères 47
▁casque 47
▁collectif 47
▁color 47
▁commentaire 47
▁communs 47
▁concentré 47
▁construisons 47
▁contrôl 47
▁coton 47
▁cricket 47
▁demandait 47
▁dictionnaire 47
▁dira 47
▁dirigé 47
▁disparaissent 47
▁distances 47
▁dynamiques 47
▁déclaration 47
▁défendre 47
▁dégrad 47
▁désespoir 47
▁essayait 47
▁expressions 47
▁familial 47
▁fant 47
▁fassiez 47
▁feriez 47
▁fiction 47
▁gar 47
▁gê 47
▁hiver 47
▁impliquer 47
▁impos 47
▁infrastructure 47
▁installer 47
▁internationales 47
▁intégré 47
▁juin 47
▁luxe 47
▁mang 47
▁mangeons 47
▁marqué 47
▁mathématiciens 47
▁mentionné 47
▁mienne 47
▁miracle 47
▁nommée 47
▁oeuvres 47
▁origines 47
▁physiciens 47
▁phénomènes 47
▁positifs 47
▁positions 47
▁prenait 47
▁prédictions 47
▁rats 47
▁record 47
▁remarquez 47
▁retrait 47
▁satellites 47
▁spéciale 47
▁séparés 47
▁ter 47
▁thons 47
▁to 47
▁toits 47
▁tronc 47
▁tsunami 47
▁unités 47
▁urbaine 47
▁vapeur 47
▁volent 47
▁vols 47
▁écosystèmes 47
9. 46
accent 46
ann 46
attaque 46
ck 46
der 46
erg 46
erm 46
erreur 46
esp 46
essai 46
estre 46
humains 46
ical 46
ics 46
ino 46
inv 46
inverse 46
lex 46
oiseaux 46
ols 46
osition 46
pro 46
rage 46
ras 46
rog 46
utilisent 46
uté 46
éf 46
élect 46
épargne 46
équ 46
▁28 46
▁85 46
▁Avez 46
▁Feynman 46
▁Passons 46
▁West 46
▁agit 46
▁atmosphère 46
▁blanches 46
▁blessures 46
▁cad 46
▁catastrophes 46
▁chaînes 46
▁conscients 46
▁courants 46
▁créés 46
▁cultiv 46
▁dirai 46
▁dépasse 46
▁détruit 46
▁empêche 46
▁ennemis 46
▁ferais 46
▁fonctionnait 46
▁fondamentales 46
▁fromage 46
▁graph 46
▁grimper 46
▁har 46
▁honneur 46
▁hypothèses 46
▁installé 46
▁intuition 46
▁lecteurs 46
▁log 46
▁logo 46
▁mammographie 46
▁marins 46
▁mince 46
▁modes 46
▁moustiquaires 46
▁musulman 46
▁még 46
▁météo 46
▁navire 46
▁obt 46
▁paie 46
▁panne 46
▁pardon 46
▁parlaient 46
▁passera 46
▁passionné 46
▁pel 46
▁plaque 46
▁pleins 46
▁plonger 46
▁posée 46
▁professionnelle 46
▁profits 46
▁progressivement 46
▁prédiction 46
▁raisonnable 46
▁recher 46
▁remarquerez 46
▁requ 46
▁reviennent 46
▁roche 46
▁sache 46
▁session 46
▁sexuelle 46
▁souligner 46
▁susceptibles 46
▁tap 46
▁tar 46
▁tournant 46
▁tra 46
▁traduit 46
▁tragique 46
▁trajet 46
▁universelle 46
▁écoutez 46
▁étendue 46
Ah 45
OK 45
agée 45
ald 45
alt 45
amélioration 45
appr 45
architecte 45
ator 45
aud 45
aussi 45
cé 45
enfance 45
enseigner 45
expl 45
forme 45
humour 45
iler 45
occup 45
quet 45
rices 45
roc 45
rom 45
son 45
èque 45
ès 45
éclairage 45
érées 45
éter 45
étudiants 45
▁29 45
▁90% 45
▁As 45
▁Earth 45
▁Gates 45
▁IRM 45
▁Ind 45
▁Th 45
▁Tim 45
▁XX 45
▁abord 45
▁accidents 45
▁accum 45
▁ajoute 45
▁allemand 45
▁artificiel 45
▁attaquer 45
▁attir 45
▁avocat 45
▁balles 45
▁bords 45
▁brillante 45
▁briser 45
▁brûler 45
▁centr 45
▁chapitre 45
▁cherchent 45
▁chirurgiens 45
▁citer 45
▁club 45
▁connues 45
▁constitue 45
▁constituent 45
▁doucement 45
▁duquel 45
▁débar 45
▁dépendance 45
▁enseigné 45
▁entrepreneur 45
▁ess 45
▁exact 45
▁femelle 45
▁filet 45
▁financement 45
▁fo 45
▁fonctionné 45
▁fondations 45
▁forcer 45
▁garage 45
▁garant 45
▁gigantesque 45
▁gouver 45
▁hur 45
▁hôtel 45
▁immeubles 45
▁indien 45
▁invention 45
▁jolie 45
▁jouant 45
▁juge 45
▁laissant 45
▁licence 45
▁métaux 45
▁observant 45
▁occup 45
▁oncle 45
▁peindre 45
▁peint 45
▁perpét 45
▁pers 45
▁pla 45
▁populaires 45
▁prouvé 45
▁prédateurs 45
▁pât 45
▁reine 45
▁remarque 45
▁rendant 45
▁reprises 45
▁ressembl 45
▁ressentent 45
▁reviens 45
▁roule 45
▁récolter 45
▁réputation 45
▁réserv 45
▁simuler 45
▁suiv 45
▁supposé 45
▁surveillance 45
▁séparation 45
▁températures 45
▁terribles 45
▁tourn 45
▁transmet 45
▁transparent 45
▁trouvée 45
▁tumeurs 45
▁van 45
▁vulnérables 45
▁vôtre 45
▁Ét 45
▁égale 45
▁épr 45
..." 44
3, 44
9, 44
All 44
accro 44
ana 44
ancienne 44
anes 44
appe 44
aps 44
assurance 44
augmenter 44
co 44
cteurs 44
ds 44
entreprises 44
exercice 44
ili 44
illé 44
issants 44
ister 44
itudes 44
ky 44
let 44
liqu 44
observation 44
oi 44
ression 44
uez 44
». 44
écart 44
ériques 44
î 44
▁33 44
▁95 44
▁At 44
▁Benjamin 44
▁Christ 44
▁Dites 44
▁Ford 44
▁Fr 44
▁Indiens 44
▁Mo 44
▁Newton 44
▁Park 44
▁Tony 44
▁Van 44
▁Vietnam 44
▁accél 44
▁adopté 44
▁apparence 44
▁appels 44
▁appréci 44
▁avocats 44
▁capteur 44
▁cellulaire 44
▁cod 44
▁colline 44
▁combustibles 44
▁commentaires 44
▁commençait 44
▁comédie 44
▁cong 44
▁consac 44
▁constaté 44
▁coucher 44
▁cout 44
▁couvre 44
▁dauphins 44
▁documents 44
▁déd 44
▁enr 44
▁exprimer 44
▁flott 44
▁fraction 44
▁gagn 44
▁guider 44
▁imprim 44
▁indienne 44
▁industriel 44
▁inspirer 44
▁inspirés 44
▁investissements 44
▁jeté 44
▁mentionner 44
▁moustiques 44
▁mèmes 44
▁mém 44
▁paires 44
▁pen 44
▁plastiques 44
▁porté 44
▁positives 44
▁priorités 44
▁proc 44
▁préférée 44
▁ramène 44
▁rassemblé 44
▁regardait 44
▁reprodu 44
▁restée 44
▁réalisation 44
▁réveille 44
▁salon 44
▁satisfaire 44
▁sensibilité 44
▁silencieux 44
▁supprimer 44
▁surn 44
▁trib 44
▁tués 44
▁victime 44
▁végét 44
▁échelles 44
▁éducatif 44
▁étrangère 44
adoption 43
amuser 43
avantage 43
enser 43
expériences 43
extinction 43
iche 43
ignez 43
illage 43
isses 43
ith 43
mment 43
obt 43
odes 43
oient 43
oulé 43
outils 43
quel 43
rement 43
riques 43
rir 43
ull 43
», 43
ât 43
▁%. 43
▁191 43
▁36 43
▁42 43
▁AK 43
▁Com 43
▁Delhi 43
▁Faisons 43
▁Gandhi 43
▁Ses 43
▁Six 43
▁aid 43
▁aimait 43
▁appartient 43
▁appelait 43
▁assembler 43
▁bip 43
▁blo 43
▁bouts 43
▁capitalisme 43
▁chromosomes 43
▁colonies 43
▁composition 43
▁contraintes 43
▁contribution 43
▁contribué 43
▁convainc 43
▁cosm 43
▁couloir 43
▁cube 43
▁célébrer 43
▁descendu 43
▁destination 43
▁dieux 43
▁diminué 43
▁diriez 43
▁divisé 43
▁djihad 43
▁défaut 43
▁déménagé 43
▁détest 43
▁encour 43
▁fiers 43
▁fixe 43
▁fournissent 43
▁future 43
▁gard 43
▁hum 43
▁idiot 43
▁immeuble 43
▁implications 43
▁informe 43
▁intervention 43
▁invite 43
▁lucratif 43
▁légère 43
▁mén 43
▁nourrit 43
▁noyau 43
▁op 43
▁pairs 43
▁parcour 43
▁participé 43
▁passées 43
▁permettra 43
▁plonge 43
▁poches 43
▁poly 43
▁posent 43
▁posséder 43
▁précédente 43
▁rechercher 43
▁réaliste 43
▁récent 43
▁réfléchit 43
▁répète 43
▁révéler 43
▁sexuels 43
▁sonde 43
▁souffre 43
▁souhaitez 43
▁supermarché 43
▁ten 43
▁tent 43
▁tranquille 43
▁transcend 43
▁transp 43
▁variation 43
▁ventes 43
▁éb 43
▁écrivains 43
▁édu 43
▁éloigné 43
▁émerger 43
▁én 43
▁étrangers 43
50 42
Univers 42
abri 42
acher 42
appliquer 42
assistance 42
astique 42
ativement 42
cier 42
enregistrement 42
esses 42
este 42
ieuses 42
igner 42
lam 42
oin 42
omm 42
orient 42
oth 42
ott 42
ouiller 42
uant 42
ulent 42
ung 42
utilisateur 42
visionnement 42
ève 42
écologie 42
écosystème 42
égalité 42
élé 42
ût 42
▁2007, 42
▁5000 42
▁Go 42
▁Jack 42
▁Jim 42
▁Johnson 42
▁LG 42
▁Leurs 42
▁My 42
▁Peter 42
▁Su 42
▁Wikipédia 42
▁africaine 42
▁apprise 42
▁archives 42
▁blé 42
▁bric 42
▁brièvement 42
▁bétail 42
▁camps 42
▁chanceux 42
▁chasseurs 42
▁chats 42
▁chercheur 42
▁chevaux 42
▁cité 42
▁command 42
▁comptent 42
▁conducteur 42
▁contrat 42
▁couple 42
▁culturelles 42
▁célèbres 42
▁côtes 42
▁demandons 42
▁dilemme 42
▁directe 42
▁déclaré 42
▁décor 42
▁démographique 42
▁endomm 42
▁enlève 42
▁enregistrer 42
▁exp 42
▁fasciné 42
▁finale 42
▁fine 42
▁grimp 42
▁géométrie 42
▁human 42
▁hyper 42
▁individuel 42
▁levez 42
▁loc 42
▁malaria 42
▁manipuler 42
▁masses 42
▁mec 42
▁mesuré 42
▁mondiales 42
▁mutuellement 42
▁mémor 42
▁métabolisme 42
▁nat 42
▁net 42
▁papa 42
▁prat 42
▁proximité 42
▁psychologues 42
▁radios 42
▁raff 42
▁ramen 42
▁ray 42
▁remarqu 42
▁ress 42
▁roulant 42
▁récit 42
▁réels 42
▁régén 42
▁résister 42
▁rétine 42
▁réun 42
▁saute 42
▁saviez 42
▁sexuelles 42
▁sign 42
▁situe 42
▁soirée 42
▁sonore 42
▁spécialistes 42
▁spécifiquement 42
▁stations 42
▁sèche 42
▁sœurs 42
▁tournent 42
▁tubes 42
▁écrans 42
▁épaule 42
▁équation 42
Bien 41
], 41
angle 41
anté 41
ares 41
arg 41
arme 41
article 41
assé 41
ention 41
fs 41
ht 41
hôtel 41
iants 41
identifier 41
ieusement 41
illusion 41
ings 41
inn 41
intéress 41
istique 41
iées 41
mp 41
oeuvre 41
olé 41
opinion 41
oui 41
pile 41
ps 41
trait 41
urg 41
électronique 41
émergence 41
éra 41
érateur 41
érie 41
▁50, 41
▁Av 41
▁Clinton 41
▁Jésus 41
▁Mad 41
▁Malgré 41
▁Numéro 41
▁Oxford 41
▁Quels 41
▁Sc 41
▁Shakespeare 41
▁Suisse 41
▁accompli 41
▁apparait 41
▁apprenez 41
▁astéroïde 41
▁bougent 41
▁branches 41
▁bénéfice 41
▁capitale 41
▁chante 41
▁colon 41
▁commenc 41
▁constitu 41
▁corbeaux 41
▁correspondent 41
▁creuser 41
▁dessiné 41
▁devenez 41
▁diffus 41
▁disp 41
▁disque 41
▁distinction 41
▁douloureux 41
▁drogues 41
▁décro 41
▁défini 41
▁déplacement 41
▁dériv 41
▁effectué 41
▁effond 41
▁esc 41
▁excellente 41
▁fixer 41
▁fondée 41
▁fuite 41
▁grandit 41
▁gross 41
▁gâ 41
▁génétiquement 41
▁ill 41
▁infl 41
▁install 41
▁instructions 41
▁internationaux 41
▁introdu 41
▁joindre 41
▁jouait 41
▁manqu 41
▁marine 41
▁maîtrise 41
▁moralité 41
▁omniprésent 41
▁opinion 41
▁parcouru 41
▁permission 41
▁perspectives 41
▁posséd 41
▁pouce 41
▁pouvoirs 41
▁poète 41
▁pri 41
▁programmer 41
▁psychologique 41
▁ralent 41
▁rappelé 41
▁rebond 41
▁refl 41
▁repenser 41
▁repr 41
▁représent 41
▁représenté 41
▁ris 41
▁rond 41
▁réelles 41
▁répéter 41
▁sanguin 41
▁sat 41
▁schémas 41
▁sk 41
▁suivez 41
▁sérieuse 41
▁thèmes 41
▁théor 41
▁télécharger 41
▁var 41
▁viendra 41
▁vivantes 41
▁écriv 41
▁élarg 41
▁élect 41
▁établi 41
▁étages 41
▁étonnantes 41
acée 40
allée 40
andais 40
aque 40
auraient 40
avis 40
encre 40
ennes 40
erre 40
ff 40
humain 40
iat 40
ica 40
ifiant 40
incertitude 40
intéresser 40
iseur 40
ivent 40
nez 40
observer 40
ola 40
onnés 40
ouss 40
quées 40
rier 40
uées 40
çon 40
▁2000, 40
▁70, 40
▁Adam 40
▁Autrement 40
▁Brian 40
▁Chili 40
▁Conseil 40
▁Israël 40
▁Jamais 40
▁Maison 40
▁Monterey 40
▁Musée 40
▁Pat 40
▁Pôle 40
▁Revenons 40
▁Santé 40
▁Shanghai 40
▁Talibans 40
▁Titan 40
▁accessibles 40
▁achètent 40
▁ajout 40
▁attrap 40
▁auteurs 40
▁authentique 40
▁bleues 40
▁boue 40
▁cassé 40
▁ceinture 40
▁cer 40
▁cherchant 40
▁cherchez 40
▁cho 40
▁cit 40
▁conclu 40
▁cond 40
▁construis 40
▁contente 40
▁convertir 40
▁conçue 40
▁courante 40
▁dangereuses 40
▁deviendra 40
▁domestique 40
▁dossier 40
▁dou 40
▁doublé 40
▁démarche 40
▁dépensent 40
▁dépensons 40
▁empê 40
▁enlev 40
▁entour 40
▁esp 40
▁existait 40
▁expansion 40
▁explosé 40
▁extérieure 40
▁fausses 40
▁formidables 40
▁formés 40
▁gentil 40
▁grandeur 40
▁grandissant 40
▁génère 40
▁honnêtement 40
▁hyd 40
▁illusion 40
▁import 40
▁jazz 40
▁jugement 40
▁litres 40
▁majeures 40
▁manuels 40
▁menaces 40
▁merde 40
▁méchant 40
▁mélang 40
▁naviguer 40
▁négociations 40
▁patron 40
▁pes 40
▁pleinement 40
▁ponts 40
▁progression 40
▁promen 40
▁présentes 40
▁publ 40
▁pér 40
▁religieuse 40
▁repouss 40
▁retrouvent 40
▁robe 40
▁royaume 40
▁réd 40
▁rét 40
▁sale 40
▁signature 40
▁significatif 40
▁surf 40
▁surveiller 40
▁tables 40
▁textes 40
▁top 40
▁traversée 40
▁visualisation 40
▁visualiser 40
▁voyagé 40
▁échec 40
▁échecs 40
▁électro 40
▁énergies 40
▁étendre 40
$ 39
.] 39
Atlantique 39
agés 39
aison 39
arts 39
atte 39
bo 39
endant 39
ension 39
ester 39
honneur 39
interprétation 39
intitule 39
istiques 39
iture 39
mb 39
nons 39
obs 39
ogramme 39
ograph 39
orm 39
riers 39
uons 39
ven 39
élo 39
émission 39
érez 39
étudie 39
▁%, 39
▁100% 39
▁193 39
▁80, 39
▁All 39
▁Australie 39
▁Blanche 39
▁CD 39
▁Centre 39
▁Groenland 39
▁Hum 39
▁Lab 39
▁Lincoln 39
▁Lorsqu 39
▁Monsieur 39
▁Prix 39
▁Q 39
▁South 39
▁Tanzanie 39
▁abatt 39
▁agricoles 39
▁aliment 39
▁applaud 39
▁armée 39
▁assist 39
▁associés 39
▁atomique 39
▁attach 39
▁augmentent 39
▁blessure 39
▁boulevers 39
▁brill 39
▁cage 39
▁canopée 39
▁changeant 39
▁chauff 39
▁classiques 39
▁clavier 39
▁combustible 39
▁commençant 39
▁communiquent 39
▁considèrent 39
▁constitué 39
▁convert 39
▁coraux 39
▁corrélation 39
▁coupable 39
▁disparition 39
▁dons 39
▁dose 39
▁doux 39
▁débuts 39
▁décide 39
▁découpe 39
▁dépos 39
▁enseignant 39
▁feux 39
▁fins 39
▁fossé 39
▁guide 39
▁généré 39
▁inconnu 39
▁infect 39
▁inform 39
▁inférieure 39
▁initiale 39
▁inject 39
▁insc 39
▁instantanément 39
▁investi 39
▁juridique 39
▁librement 39
▁liv 39
▁longs 39
▁mobilité 39
▁médi 39
▁médiatique 39
▁naissent 39
▁noter 39
▁nouveauté 39
▁nutriments 39
▁observez 39
▁occidentaux 39
▁orange 39
▁parlerai 39
▁perdue 39
▁plomb 39
▁poll 39
▁portait 39
▁portant 39
▁poumon 39
▁proté 39
▁protégés 39
▁prédit 39
▁préf 39
▁puzzle 39
▁rap 39
▁ras 39
▁ration 39
▁recyclage 39
▁reflète 39
▁religieuses 39
▁remis 39
▁rends 39
▁repousser 39
▁respecter 39
▁répét 39
▁résist 39
▁résume 39
▁réussissent 39
▁révélé 39
▁sau 39
▁scan 39
▁sculptures 39
▁sil 39
▁solid 39
▁statistique 39
▁stupides 39
▁suff 39
▁séparé 39
▁tenté 39
▁toxiques 39
▁typiquement 39
▁ultra 39
▁vastes 39
▁versions 39
▁voter 39
▁âme 39
▁échou 39
▁économiser 39
▁écosystème 39
▁égal 39
▁équilib 39
▁équip 39
▁ér 39
6, 38
Ind 38
Y 38
acteur 38
aies 38
ala 38
allait 38
ander 38
application 38
arbres 38
armes 38
aur 38
berg 38
cence 38
erreurs 38
her 38
horizon 38
hum 38
iellement 38
ifi 38
ignons 38
immeuble 38
installer 38
intégration 38
intéressant 38
inés 38
ish 38
itu 38
onf 38
onnant 38
onomie 38
ora 38
oration 38
quette 38
reur 38
seur 38
tra 38
ualité 38
ués 38
élément 38
érent 38
ésion 38
ît 38
▁Bell 38
▁Berlin 38
▁Cal 38
▁Caroline 38
▁Hey 38
▁Laden 38
▁Nigéria 38
▁Norden 38
▁PC 38
▁Ros 38
▁Sal 38
▁Seulement 38
▁ach 38
▁achète 38
▁acides 38
▁affronter 38
▁agissent 38
▁airs 38
▁ang 38
▁anglaise 38
▁anim 38
▁appelés 38
▁aérienne 38
▁billet 38
▁bât 38
▁bénévoles 38
▁casser 38
▁chair 38
▁changez 38
▁cochons 38
▁commandes 38
▁concentre 38
▁conservateurs 38
▁costume 38
▁dil 38
▁distribuer 38
▁douzaines 38
▁durer 38
▁débuté 38
▁définit 38
▁démocrat 38
▁engagés 38
▁envoient 38
▁espérer 38
▁exercice 38
▁explo 38
▁explosion 38
▁fiable 38
▁filtre 38
▁foot 38
▁fragile 38
▁frustr 38
▁février 38
▁gel 38
▁gloire 38
▁gosses 38
▁génomes 38
▁habitant 38
▁habituellement 38
▁hein 38
▁hiérarchie 38
▁imprimer 38
▁incapable 38
▁initial 38
▁interdit 38
▁intrig 38
▁inévitable 38
▁libéraux 38
▁limitée 38
▁march 38
▁marin 38
▁milit 38
▁mill 38
▁modifié 38
▁observons 38
▁occupé 38
▁paroles 38
▁partagée 38
▁particule 38
▁peintures 38
▁permettait 38
▁planification 38
▁planter 38
▁planétaire 38
▁plats 38
▁poils 38
▁poudre 38
▁prenaient 38
▁producteurs 38
▁profondeurs 38
▁promotion 38
▁propriétaires 38
▁prototypes 38
▁précises 38
▁préparation 38
▁préservatifs 38
▁préserver 38
▁pun 38
▁racine 38
▁raisonnement 38
▁ramasser 38
▁refusé 38
▁rendait 38
▁revend 38
▁reviend 38
▁récif 38
▁récolte 38
▁saine 38
▁seriez 38
▁sexuel 38
▁sombres 38
▁spéci 38
▁spécialiste 38
▁substances 38
▁surement 38
▁tasse 38
▁terroristes 38
▁texture 38
▁traditionnels 38
▁transforment 38
▁us 38
▁vertical 38
▁virtuelle 38
▁visions 38
▁écart 38
▁écologiques 38
▁écrits 38
▁éduc 38
▁égoïste 38
▁étudie 38
▁évoluent 38
Ex 37
Quand 37
The 37
abil 37
acer 37
aimer 37
alcool 37
ami 37
amus 37
applique 37
atrices 37
attends 37
bor 37
con 37
entr 37
gu 37
ick 37
icules 37
incl 37
inez 37
intégrer 37
ionn 37
lent 37
oiseau 37
omp 37
organisme 37
oubl 37
port 37
ration 37
rig 37
umer 37
âme 37
écris 37
▁2005, 37
▁2008, 37
▁350 37
▁Ab 37
▁Anglais 37
▁BG 37
▁Copenhague 37
▁Cyrus 37
▁DVD 37
▁Femme 37
▁Geographic 37
▁II 37
▁Island 37
▁Larry 37
▁Ni 37
▁Né 37
▁PM 37
▁Sauf 37
▁Scott 37
▁Silicon 37
▁Vos 37
▁absolue 37
▁achetez 37
▁agricole 37
▁alliez 37
▁alternatives 37
▁appropriée 37
▁assure 37
▁at 37
▁attaché 37
▁atter 37
▁baby 37
▁baie 37
▁balance 37
▁barres 37
▁biomasse 37
▁brûl 37
▁bénéficier 37
▁bénéfique 37
▁béton 37
▁calories 37
▁clon 37
▁collège 37
▁confortable 37
▁consacrer 37
▁considérez 37
▁conviction 37
▁couv 37
▁coûteux 37
▁destiné 37
▁dirigeant 37
▁doctorat 37
▁dopamine 37
▁douzaine 37
▁délic 37
▁dépense 37
▁détaill 37
▁effray 37
▁ennemi 37
▁entraîne 37
▁exploit 37
▁exploiter 37
▁exposés 37
▁femelles 37
▁foc 37
▁fœtus 37
▁genres 37
▁gentillesse 37
▁grains 37
▁guérir 37
▁habitudes 37
▁illustrer 37
▁implant 37
▁imprimante 37
▁impulsion 37
▁infini 37
▁initiative 37
▁interaction 37
▁islam 37
▁lancement 37
▁lecteur 37
▁logement 37
▁lointain 37
▁magazines 37
▁magn 37
▁mai 37
▁mangez 37
▁mettait 37
▁mig 37
▁musées 37
▁naître 37
▁nuits 37
▁nécessité 37
▁obsession 37
▁opér 37
▁original 37
▁pap 37
▁partent 37
▁particip 37
▁passions 37
▁pathogènes 37
▁posez 37
▁prenne 37
▁procédure 37
▁présentent 37
▁rad 37
▁rapproche 37
▁rassembl 37
▁recommencer 37
▁rencontrés 37
▁rendement 37
▁respir 37
▁rou 37
▁roues 37
▁récession 37
▁réduite 37
▁sacrée 37
▁situ 37
▁som 37
▁sortez 37
▁soulève 37
▁souterr 37
▁sulfure 37
▁symétries 37
▁sélect 37
▁tenez 37
▁termine 37
▁tonne 37
▁trouvaient 37
▁vendent 37
▁vice 37
▁violon 37
▁vén 37
▁zoom 37
▁écras 37
30 36
6. 36
X 36
aborder 36
abs 36
ader 36
alisées 36
ani 36
autor 36
cev 36
culaires 36
ena 36
ene 36
enseignant 36
entraînement 36
expansion 36
heures 36
hi 36
ias 36
iculture 36
ifications 36
igue 36
illent 36
illons 36
ilée 36
inaire 36
infection 36
infini 36
irons 36
iteur 36
itive 36
itude 36
men 36
na 36
oe 36
oise 36
orph 36
oux 36
ren 36
rim 36
rois 36
roph 36
sh 36
su 36
ueuse 36
ular 36
vert 36
yg 36
ètent 36
émin 36
établir 36
ë 36
▁1. 36
▁190 36
▁2,5 36
▁2. 36
▁2004, 36
▁60, 36
▁70% 36
▁Ag 36
▁Bangladesh 36
▁Durant 36
▁Désolé 36
▁Entre 36
▁Fondation 36
▁Jeff 36
▁Kong 36
▁Mandela 36
▁Messieurs 36
▁Mère 36
▁Pal 36
▁Partout 36
▁Ph 36
▁Rob 36
▁Seattle 36
▁She 36
▁Tant 36
▁acqu 36
▁actes 36
▁acteur 36
▁activ 36
▁ampl 36
▁annonce 36
▁appr 36
▁arriva 36
▁assur 36
▁attrapé 36
▁autorités 36
▁aviaire 36
▁axe 36
▁battu 36
▁biologiste 36
▁biosphère 36
▁brin 36
▁cam 36
▁carton 36
▁chaises 36
▁chemins 36
▁chimiothérapie 36
▁choisis 36
▁cibles 36
▁cin 36
▁citoyen 36
▁coller 36
▁compare 36
▁concent 36
▁condam 36
▁conseiller 36
▁considérable 36
▁copier 36
▁courtes 36
▁couteau 36
▁crit 36
▁cylindre 36
▁cérébrales 36
▁dangereuse 36
▁dess 36
▁devinez 36
▁devint 36
▁diagnost 36
▁diplomatie 36
▁directeurs 36
▁dispositifs 36
▁distrib 36
▁donnera 36
▁donnés 36
▁durs 36
▁décembre 36
▁déclenche 36
▁découp 36
▁dépens 36
▁dévou 36
▁engend 36
▁fabriquent 36
▁fabriqués 36
▁fermes 36
▁ferons 36
▁filmer 36
▁format 36
▁fragment 36
▁gravitation 36
▁hausse 36
▁horribles 36
▁héroï 36
▁inclut 36
▁individuels 36
▁industries 36
▁indépendant 36
▁infinie 36
▁inhabituel 36
▁interface 36
▁interpr 36
▁isol 36
▁janvier 36
▁jette 36
▁just 36
▁lib 36
▁libération 36
▁manifestement 36
▁marqueurs 36
▁marée 36
▁mutation 36
▁mér 36
▁météor 36
▁neurosciences 36
▁nommer 36
▁norme 36
▁obtiennent 36
▁optique 36
▁origin 36
▁ouais 36
▁parachute 36
▁paramètres 36
▁particuliers 36
▁pav 36
▁permanente 36
▁photographié 36
▁pleines 36
▁poèmes 36
▁prisons 36
▁processeur 36
▁provo 36
▁prédateur 36
▁prétend 36
▁rapprocher 36
▁recommand 36
▁recueill 36
▁rede 36
▁refaire 36
▁relie 36
▁revenons 36
▁rituels 36
▁rivières 36
▁réfléch 36
▁répar 36
▁réponds 36
▁scènes 36
▁sexy 36
▁sols 36
▁sortant 36
▁soutient 36
▁stimul 36
▁subvention 36
▁tenais 36
▁tenait 36
▁tolérance 36
▁touchent 36
▁traversent 36
▁trouvés 36
▁valait 36
▁voile 36
▁voyaient 36
▁vraisembl 36
▁âgés 36
▁électrons 36
▁équipements 36
Alzheimer 35
CA 35
abondance 35
actions 35
animation 35
aurions 35
aviez 35
effondrer 35
emplois 35
entropie 35
eries 35
ges 35
hom 35
hélium 35
icule 35
ieur 35
lan 35
mis 35
obl 35
ologiste 35
oudre 35
quons 35
rob 35
réd 35
seurs 35
so 35
têtes 35
utés 35
étions 35
ître 35
▁10% 35
▁Attendez 35
▁Brown 35
▁Chacune 35
▁Charlie 35
▁Cl 35
▁Disney 35
▁Disons 35
▁For 35
▁Force 35
▁GPS 35
▁LED 35
▁Maman 35
▁Mur 35
▁Méd 35
▁Paix 35
▁Pe 35
▁Plutôt 35
▁Puisque 35
▁Savez 35
▁Seconde 35
▁Virginie 35
▁Wal 35
▁We 35
▁about 35
▁actuels 35
▁adapté 35
▁administr 35
▁américaines 35
▁approfond 35
▁aveugles 35
▁balay 35
▁batt 35
▁bidonville 35
▁bouse 35
▁cachée 35
▁caf 35
▁censés 35
▁cert 35
▁certitude 35
▁cesser 35
▁chaine 35
▁chauffeur 35
▁clip 35
▁cognitive 35
▁coincé 35
▁collecter 35
▁comics 35
▁comportent 35
▁comporter 35
▁conclusions 35
▁coopér 35
▁croquis 35
▁côt 35
▁devenait 35
▁différ 35
▁disparaît 35
▁divin 35
▁domin 35
▁défin 35
▁démont 35
▁détermin 35
▁détour 35
▁dévast 35
▁email 35
▁emmen 35
▁employé 35
▁emporter 35
▁entrés 35
▁escal 35
▁espérant 35
▁flèche 35
▁fréqu 35
▁fréquent 35
▁fusil 35
▁gagnant 35
▁gal 35
▁gig 35
▁haine 35
▁haï 35
▁hy 35
▁illégal 35
▁imiter 35
▁impliqu 35
▁incar 35
▁individuelles 35
▁infectés 35
▁insecte 35
▁interrog 35
▁jaunes 35
▁jo 35
▁jouez 35
▁jus 35
▁justement 35
▁lanc 35
▁larges 35
▁lave 35
▁lumineux 35
▁lèvres 35
▁légal 35
▁matrice 35
▁miles 35
▁milieux 35
▁modern 35
▁moul 35
▁multipli 35
▁mél 35
▁navig 35
▁observations 35
▁ouvriers 35
▁parie 35
▁payés 35
▁perturb 35
▁portrait 35
▁poubelle 35
▁prisonnier 35
▁privés 35
▁progresser 35
▁projection 35
▁prolong 35
▁propager 35
▁prospérité 35
▁provoqué 35
▁prêter 35
▁pétro 35
▁pêcher 35
▁quitte 35
▁radiation 35
▁reb 35
▁rencont 35
▁rencontrent 35
▁reçois 35
▁rituel 35
▁réagissent 35
▁révélation 35
▁scolaires 35
▁souffrir 35
▁soutenu 35
▁tempor 35
▁terminée 35
▁thermique 35
▁tit 35
▁torture 35
▁transfert 35
▁transformée 35
▁trouvais 35
▁télescopes 35
▁ven 35
▁violent 35
▁Être 35
▁échanges 35
▁élo 35
▁équations 35
Océan 34
Z 34
acé 34
aises 34
anie 34
aph 34
arité 34
aug 34
aître 34
car 34
cte 34
ennemi 34
enseigne 34
ensible 34
etteur 34
exception 34
face 34
faire 34
icaux 34
iend 34
ifiques 34
incroyable 34
issions 34
itifs 34
itives 34
itre 34
ke 34
ographe 34
onom 34
onte 34
organes 34
organismes 34
phal 34
quin 34
rire 34
uite 34
uls 34
usion 34
uy 34
yl 34
économ 34
éh 34
élite 34
érior 34
éthique 34
étudiant 34
▁1,5 34
▁1990, 34
▁30, 34
▁72 34
▁Do 34
▁Ex 34
▁Gen 34
▁Institute 34
▁Jane 34
▁Joshua 34
▁Lego 34
▁Milo 34
▁Pl 34
▁Rappelez 34
▁SMS 34
▁Singapour 34
▁Soyez 34
▁US 34
▁Wright 34
▁agences 34
▁amateurs 34
▁amusante 34
▁amélioré 34
▁anatom 34
▁anthrop 34
▁appelées 34
▁arabes 34
▁associée 34
▁atterri 34
▁briques 34
▁bro 34
▁bénéfici 34
▁canal 34
▁chameau 34
▁chang 34
▁chemise 34
▁choisissent 34
▁cite 34
▁climatiques 34
▁coch 34
▁colonnes 34
▁combatt 34
▁commencement 34
▁comparable 34
▁connections 34
▁consomme 34
▁contenir 34
▁contradiction 34
▁corromp 34
▁courses 34
▁cousins 34
▁coûtent 34
▁créations 34
▁curieuse 34
▁dessinée 34
▁destru 34
▁diarrhée 34
▁diffuser 34
▁dimanche 34
▁diraient 34
▁domicile 34
▁donateurs 34
▁dr 34
▁duré 34
▁décour 34
▁détermination 34
▁engager 34
▁enseign 34
▁envisager 34
▁exacte 34
▁examen 34
▁exponent 34
▁fardeau 34
▁fascinante 34
▁fermier 34
▁file 34
▁forcé 34
▁fréquences 34
▁gasp 34
▁grain 34
▁gâteau 34
▁homosex 34
▁identique 34
▁ingén 34
▁inquiet 34
▁intime 34
▁juger 34
▁lan 34
▁levier 34
▁lions 34
▁longévité 34
▁marches 34
▁marge 34
▁miroirs 34
▁mit 34
▁mix 34
▁montent 34
▁motiv 34
▁mouche 34
▁mult 34
▁mus 34
▁my 34
▁mènent 34
▁méritent 34
▁nutrition 34
▁opposition 34
▁parait 34
▁pard 34
▁paysans 34
▁piège 34
▁plateau 34
▁polar 34
▁pond 34
▁probabilités 34
▁prochains 34
▁produ 34
▁propuls 34
▁préfèrent 34
▁psychiat 34
▁pêcheurs 34
▁quoique 34
▁raté 34
▁reconnaitre 34
▁regardaient 34
▁remet 34
▁remise 34
▁remède 34
▁revanche 34
▁récits 34
▁récol 34
▁salaires 34
▁satisfaction 34
▁semblaient 34
▁sentons 34
▁soupe 34
▁sp 34
▁spirale 34
▁spéciaux 34
▁stupéfiant 34
▁trains 34
▁traitent 34
▁traitons 34
▁transférer 34
▁tuyau 34
▁utilisaient 34
▁vendus 34
▁venues 34
▁çà 34
▁épargner 34
▁épaules 34
▁épuis 34
▁étendu 34
▁évaluer 34
▁évol 34
Cola 33
Qui 33
accepter 33
actualité 33
appelons 33
arm 33
arter 33
assemblage 33
auche 33
ayez 33
cal 33
enci 33
enu 33
envie 33
ettons 33
garde 33
iance 33
ignant 33
imer 33
indépendance 33
intuition 33
investir 33
itez 33
ks 33
ling 33
lli 33
niste 33
occupe 33
ock 33
osse 33
parents 33
pes 33
rogène 33
rég 33
tait 33
ulée 33
uration 33
user 33
vation 33
ze 33
ôme 33
▁& 33
▁000. 33
▁2006, 33
▁2009, 33
▁25% 33
▁Bar 33
▁Bas 33
▁Brooklyn 33
▁Cambodge 33
▁Daniel 33
▁Européenne 33
▁Faire 33
▁Gene 33
▁Islamique 33
▁Levez 33
▁Loi 33
▁Lors 33
▁No 33
▁Okay 33
▁Ouganda 33
▁Port 33
▁Projet 33
▁Rick 33
▁School 33
▁Sept 33
▁Stephen 33
▁Sylvia 33
▁Tokyo 33
▁Wi 33
▁abri 33
▁accélérer 33
▁ajoutez 33
▁amen 33
▁amp 33
▁anéant 33
▁arm 33
▁arr 33
▁arriv 33
▁assembl 33
▁association 33
▁atelier 33
▁attendons 33
▁battent 33
▁billets 33
▁brevet 33
▁bureaucr 33
▁calcule 33
▁campus 33
▁canaux 33
▁cat 33
▁centrales 33
▁chambres 33
▁champignon 33
▁che 33
▁combler 33
▁communautaire 33
▁compliqués 33
▁composés 33
▁concentrés 33
▁concevons 33
▁confronté 33
▁continuellement 33
▁contraste 33
▁contrôlée 33
▁croyaient 33
▁cuir 33
▁dessine 33
▁décriv 33
▁désespérément 33
▁déterminé 33
▁emm 33
▁engage 33
▁enquête 33
▁enthousiastes 33
▁entraîner 33
▁environs 33
▁exige 33
▁expliquent 33
▁explos 33
▁exploser 33
▁expos 33
▁flash 33
▁fondre 33
▁fourni 33
▁grise 33
▁gère 33
▁géants 33
▁hanche 33
▁historiques 33
▁hommage 33
▁ignorer 33
▁indiquent 33
▁indiquer 33
▁infections 33
▁influencer 33
▁inférieur 33
▁inst 33
▁intéressée 33
▁irré 33
▁manip 33
▁marchant 33
▁model 33
▁montant 33
▁moustique 33
▁naiss 33
▁naï 33
▁nourrissent 33
▁noy 33
▁négocier 33
▁obstacle 33
▁opinions 33
▁organiques 33
▁ouest 33
▁ouvertes 33
▁paradoxe 33
▁participent 33
▁perdons 33
▁pertinent 33
▁peup 33
▁philanthropie 33
▁plaques 33
▁policiers 33
▁pop 33
▁poursuiv 33
▁privilég 33
▁producteur 33
▁profil 33
▁protégées 33
▁préférées 33
▁puces 33
▁pé 33
▁rayonnement 33
▁recettes 33
▁regroup 33
▁relève 33
▁remplace 33
▁remédier 33
▁repl 33
▁ressortir 33
▁retiré 33
▁reç 33
▁ro 33
▁réalisée 33
▁réfléchissons 33
▁réformes 33
▁résolus 33
▁révèle 33
▁rêver 33
▁satisfait 33
▁sauvetage 33
▁sav 33
▁sel 33
▁sexes 33
▁soud 33
▁stockage 33
▁synthétique 33
▁taxe 33
▁tendre 33
▁thérapies 33
▁toxique 33
▁traditionnelles 33
▁tuberculose 33
▁télév 33
▁urgences 33
▁utilisait 33
▁valent 33
▁verbe 33
▁vertes 33
▁vi 33
▁voté 33
▁voudriez 33
▁échang 33
▁échanger 33
▁éteint 33
Américains 32
Apple 32
Oxford 32
Quel 32
aliment 32
aliste 32
ament 32
amie 32
argument 32
attach 32
aube 32
aurai 32
autisme 32
azote 32
eneurs 32
héritage 32
ios 32
iquant 32
iquer 32
ix 32
observ 32
offre 32
ombe 32
oo 32
ope 32
oques 32
plan 32
queurs 32
tel 32
uff 32
ulsion 32
vi 32
vir 32
èner 32
érieurs 32
œ 32
▁--- 32
▁0 32
▁185 32
▁2000. 32
▁201 32
▁37 32
▁Alex 32
▁Applaud 32
▁Coll 32
▁Comp 32
▁Con 32
▁Henry 32
▁Jay 32
▁Ju 32
▁Kosovo 32
▁Louis 32
▁Min 32
▁Ministère 32
▁Nelson 32
▁Probablement 32
▁Souvenez 32
▁Steven 32
▁Sécurité 32
▁TV 32
▁Yémen 32
▁absolu 32
▁affectent 32
▁agrand 32
▁algorithme 32
▁altitude 32
▁analogie 32
▁appliqué 32
▁approches 32
▁avril 32
▁bidonvilles 32
▁bits 32
▁bonus 32
▁boul 32
▁boutique 32
▁buts 32
▁cache 32
▁cass 32
▁changeons 32
▁charg 32
▁charité 32
▁choisissez 32
▁circuler 32
▁clo 32
▁cognitives 32
▁collecte 32
▁compat 32
▁consciemment 32
▁consistait 32
▁construites 32
▁construits 32
▁conte 32
▁conten 32
▁contrib 32
▁contribue 32
▁contrôlent 32
▁contrôlé 32
▁corpore 32
▁critères 32
▁cu 32
▁cycl 32
▁discuté 32
▁dispose 32
▁donnerait 32
▁drôles 32
▁déconnect 32
▁dépass 32
▁dépit 32
▁détecteurs 32
▁déteste 32
▁excités 32
▁export 32
▁extraits 32
▁extrém 32
▁fabriqu 32
▁fabuleux 32
▁familiers 32
▁frustration 32
▁fun 32
▁grenouilles 32
▁habitat 32
▁hey 32
▁illusions 32
▁immun 32
▁indice 32
▁influenc 32
▁intens 32
▁interven 32
▁investisseurs 32
▁inévitablement 32
▁irration 32
▁lap 32
▁lentilles 32
▁listes 32
▁localement 32
▁mac 32
▁magicien 32
▁mainten 32
▁majeurs 32
▁marier 32
▁mathématicien 32
▁millénaires 32
▁moléculaires 32
▁monnaie 32
▁moustache 32
▁moutons 32
▁municip 32
▁mutations 32
▁mystères 32
▁nettoy 32
▁noires 32
▁nég 32
▁négative 32
▁opp 32
▁ouverture 32
▁parl 32
▁parlions 32
▁paye 32
▁perfection 32
▁plaisante 32
▁pots 32
▁pratiquer 32
▁prendra 32
▁priorité 32
▁privées 32
▁projeter 32
▁prothèse 32
▁prévisible 32
▁prévisions 32
▁psychologiques 32
▁publication 32
▁ramené 32
▁regardiez 32
▁remix 32
▁renfor 32
▁renforcer 32
▁renouve 32
▁renverser 32
▁reten 32
▁riv 32
▁rock 32
▁récepteur 32
▁réconfort 32
▁régimes 32
▁réveiller 32
▁serviette 32
▁soigneusement 32
▁sondage 32
▁souten 32
▁standards 32
▁stylo 32
▁survivent 32
▁susceptible 32
▁terreur 32
▁tirée 32
▁tiss 32
▁tombés 32
▁touch 32
▁traits 32
▁tunnel 32
▁victoire 32
▁vierge 32
▁vingtaine 32
▁vœu 32
▁écout 32
▁éduquer 32
▁étudient 32
▁œ 32
20 31
Allemagne 31
Antarctique 31
Or 31
Pas 31
Re 31
abeilles 31
acés 31
ailler 31
aites 31
ajouter 31
ali 31
amm 31
appell 31
apprécie 31
ati 31
autonomie 31
autoroute 31
ball 31
blé 31
cell 31
ensé 31
ete 31
euse 31
extrême 31
hypothèse 31
import 31
insc 31
interagir 31
interviewer 31
iquée 31
itations 31
jac 31
mm 31
nistes 31
nu 31
ogue 31
ony 31
opp 31
orb 31
outs 31
shirt 31
sol 31
tech 31
urée 31
utilisons 31
vel 31
vin 31
çaient 31
éloigne 31
éléments 31
émie 31
épanou 31
érable 31
éral 31
étrique 31
▁180 31
▁192 31
▁20% 31
▁90, 31
▁Act 31
▁Brad 31
▁Co 31
▁Cons 31
▁Craig 31
▁Dick 31
▁Essayons 31
▁Hans 31
▁Jones 31
▁Ken 31
▁Kevin 31
▁MT 31
▁Met 31
▁Montana 31
▁Neandertal 31
▁Pittsburgh 31
▁Pouvons 31
▁Premier 31
▁Ré 31
▁Révolution 31
▁SETI 31
▁WK 31
▁Watson 31
▁abond 31
▁abordable 31
▁accueill 31
▁accéléré 31
▁adapter 31
▁analys 31
▁apparten 31
▁apprécié 31
▁arrivant 31
▁automatique 31
▁autorisé 31
▁baseball 31
▁basés 31
▁blessés 31
▁bouill 31
▁cancéreuses 31
▁cens 31
▁centimètre 31
▁chômage 31
▁circul 31
▁cochon 31
▁confond 31
▁connaitre 31
▁consomm 31
▁contents 31
▁crayon 31
▁cy 31
▁demandaient 31
▁demandes 31
▁devenons 31
▁deviens 31
▁diplom 31
▁disposons 31
▁division 31
▁douleurs 31
▁décident 31
▁découvrons 31
▁déplaçant 31
▁enseignement 31
▁enthousiaste 31
▁entiers 31
▁env 31
▁essentiels 31
▁exist 31
▁extraordin 31
▁exéc 31
▁faisable 31
▁filtres 31
▁généreux 31
▁géographique 31
▁hér 31
▁identifié 31
▁inconnue 31
▁inconnus 31
▁innocent 31
▁installation 31
▁intentions 31
▁interactif 31
▁interag 31
▁interfaces 31
▁interprétation 31
▁intrinsèquement 31
▁intégrée 31
▁inventions 31
▁inviter 31
▁invités 31
▁isolé 31
▁jetons 31
▁jong 31
▁livrer 31
▁manifestations 31
▁manifeste 31
▁maquette 31
▁marchandises 31
▁marrant 31
▁maître 31
▁mena 31
▁mentir 31
▁miel 31
▁minéraux 31
▁mobil 31
▁motive 31
▁musicien 31
▁mycélium 31
▁mystérieux 31
▁neutre 31
▁nul 31
▁octobre 31
▁originale 31
▁philosophe 31
▁philosophique 31
▁phot 31
▁pitié 31
▁planche 31
▁possédons 31
▁prendrait 31
▁preniez 31
▁problématique 31
▁promis 31
▁propage 31
▁prothèses 31
▁prélever 31
▁rass 31
▁rassemblent 31
▁reconnait 31
▁reconstruction 31
▁rej 31
▁remp 31
▁renvers 31
▁reposer 31
▁représentations 31
▁règne 31
▁réalisent 31
▁récomp 31
▁régl 31
▁résonance 31
▁révolutionnaire 31
▁sachiez 31
▁sauté 31
▁sauv 31
▁sauve 31
▁segment 31
▁sem 31
▁soumis 31
▁spontanément 31
▁statique 31
▁sugg 31
▁suggéré 31
▁sure 31
▁symbol 31
▁tempête 31
▁testé 31
▁théorique 31
▁tuent 31
▁vents 31
▁verriez 31
▁voeu 31
▁vulnérable 31
▁zoomer 31
▁éclat 31
▁électricité 31
▁élu 31
▁étage 31
▁étrangères 31
Tout 30
Une 30
accueil 30
acide 30
adolescence 30
adresse 30
anges 30
arrivais 30
assi 30
aura 30
avancer 30
ave 30
ayant 30
ayer 30
bes 30
bon 30
cons 30
cée 30
encer 30
ensez 30
eront 30
form 30
hy 30
iante 30
inquiéter 30
intervention 30
intimité 30
intéressent 30
inée 30
isaient 30
isions 30
ismes 30
ison 30
itement 30
itée 30
lande 30
lément 30
marine 30
mé 30
ney 30
ocr 30
oit 30
ologies 30
origami 30
otte 30
ouge 30
oun 30
pour 30
saharienne 30
tern 30
uk 30
urés 30
vient 30
yons 30
ètre 30
écrivais 30
éloigner 30
ére 30
ôle 30
▁1/ 30
▁10. 30
▁20, 30
▁3. 30
▁38 30
▁48 30
▁5, 30
▁900 30
▁Actuellement 30
▁Américain 30
▁Aristote 30
▁Art 30
▁Beck 30
▁Bur 30
▁Comm 30
▁Docteur 30
▁Essayez 30
▁Fille 30
▁Français 30
▁Hall 30
▁JA 30
▁Johnny 30
▁Jour 30
▁Jupiter 30
▁Mc 30
▁McDonald 30
▁Mike 30
▁Narrateur 30
▁Sinon 30
▁Souvent 30
▁Star 30
▁Teszler 30
▁Time 30
▁abondance 30
▁acoustique 30
▁affirm 30
▁aig 30
▁ajoutons 30
▁anesthés 30
▁angles 30
▁apportent 30
▁approprié 30
▁arch 30
▁armées 30
▁assisté 30
▁attrape 30
▁basant 30
▁boites 30
▁bous 30
▁brisé 30
▁brute 30
▁cabinet 30
▁candidats 30
▁cartograph 30
▁cliquer 30
▁cloche 30
▁commençaient 30
▁commer 30
▁commerci 30
▁connaissaient 30
▁connaissions 30
▁considération 30
▁constitution 30
▁construisez 30
▁contacts 30
▁contemporain 30
▁contourner 30
▁coordination 30
▁copies 30
▁cosmique 30
▁crier 30
▁crises 30
▁cruciale 30
▁créées 30
▁dauphin 30
▁denses 30
▁descendent 30
▁destinée 30
▁dette 30
▁dev 30
▁diapos 30
▁dirigent 30
▁do 30
▁découvrez 30
▁désaccord 30
▁développ 30
▁dévers 30
▁employer 30
▁empreintes 30
▁enceintes 30
▁enrich 30
▁entendue 30
▁entourent 30
▁entrons 30
▁espère 30
▁espér 30
▁examens 30
▁examin 30
▁existé 30
▁expérimenter 30
▁faculté 30
▁ferions 30
▁ferm 30
▁fermement 30
▁financé 30
▁fragments 30
▁féd 30
▁fémin 30
▁féminin 30
▁glaciers 30
▁gratuits 30
▁grill 30
▁générosité 30
▁hallucinations 30
▁iPod 30
▁inclure 30
▁indépendamment 30
▁indépendante 30
▁inh 30
▁inqui 30
▁instants 30
▁intellect 30
▁intervenir 30
▁isolés 30
▁jug 30
▁lancée 30
▁levure 30
▁levée 30
▁maintenance 30
▁malin 30
▁mariée 30
▁masculin 30
▁mesdames 30
▁mesur 30
▁morales 30
▁mortel 30
▁motiver 30
▁mouches 30
▁murm 30
▁métabol 30
▁navigation 30
▁négatives 30
▁observation 30
▁odeur 30
▁oppos 30
▁palestin 30
▁parasite 30
▁parcs 30
▁pens 30
▁pharmaceutique 30
▁photograph 30
▁pin 30
▁pompiers 30
▁pourr 30
▁premièrement 30
▁prie 30
▁procure 30
▁programm 30
▁préoccuper 30
▁présentations 30
▁préserv 30
▁pénible 30
▁pénét 30
▁recevez 30
▁reconnaiss 30
▁relâ 30
▁remplie 30
▁rencontrez 30
▁respire 30
▁ressemblerait 30
▁restaurer 30
▁revenue 30
▁ri 30
▁rot 30
▁rotation 30
▁rurales 30
▁récentes 30
▁réforme 30
▁régulation 30
▁résilience 30
▁révol 30
▁sacr 30
▁semi 30
▁seringue 30
▁serpents 30
▁signer 30
▁signific 30
▁souci 30
▁sperme 30
▁spirituel 30
▁spirituelle 30
▁stocker 30
▁struct 30
▁suffis 30
▁suprême 30
▁surg 30
▁tabl 30
▁tact 30
▁tenant 30
▁terrains 30
▁therm 30
▁traî 30
▁tremp 30
▁troisièmement 30
▁vain 30
▁visual 30
▁véritables 30
▁Éc 30
▁éclaté 30
▁écrivain 30
▁élevées 30
▁émergent 30
▁éner 30
.... 29
Bas 29
Des 29
Einstein 29
Pour 29
accél 29
achet 29
active 29
aisons 29
als 29
aman 29
applaud 29
appren 29
approcher 29
arez 29
arrivée 29
assembl 29
athie 29
autant 29
aves 29
awa 29
cept 29
chait 29
cul 29
disant 29
effondre 29
ellement 29
ende 29
ernité 29
excell 29
explication 29
fer 29
humidité 29
hyper 29
hémisphère 29
ifice 29
ifique 29
illant 29
impliquer 29
inage 29
indre 29
inventer 29
isait 29
nants 29
of 29
offrir 29
ologistes 29
onnement 29
otiques 29
ouvez 29
over 29
part 29
pit 29
pper 29
quement 29
ries 29
rot 29
roy 29
tres 29
ura 29
uste 29
way 29
we 29
well 29
yez 29
âtre 29
élè 29
élève 29
éralement 29
étoile 29
ômes 29
▁130 29
▁1500 29
▁160 29
▁31 29
▁450 29
▁60. 29
▁Alpha 29
▁Amy 29
▁Autre 29
▁BJ 29
▁Berkeley 29
▁Bonne 29
▁Can 29
▁Cap 29
▁Carl 29
▁Contin 29
▁Croyez 29
▁Donnez 29
▁Département 29
▁Esp 29
▁Fer 29
▁Harry 29
▁Jill 29
▁Joe 29
▁Kennedy 29
▁Lewis 29
▁Mer 29
▁Ministre 29
▁Musulmans 29
▁Natasha 29
▁Papa 29
▁Parlons 29
▁Phoenix 29
▁Première 29
▁Ro 29
▁Salut 29
▁Ser 29
▁Tasmanie 29
▁William 29
▁aband 29
▁adh 29
▁ador 29
▁adoré 29
▁agress 29
▁aléatoires 29
▁amenés 29
▁ampoule 29
▁amélioration 29
▁analysé 29
▁aper 29
▁appartements 29
▁appelez 29
▁araignées 29
▁artisan 29
▁assiette 29
▁attendu 29
▁bancaire 29
▁basique 29
▁basiques 29
▁basses 29
▁bibliothèques 29
▁binaire 29
▁blanch 29
▁blesser 29
▁bosse 29
▁boutons 29
▁brûle 29
▁calculé 29
▁campagnes 29
▁carottes 29
▁carreaux 29
▁cart 29
▁cascades 29
▁chariot 29
▁charm 29
▁chronique 29
▁chrét 29
▁cognitif 29
▁communes 29
▁comparez 29
▁compliquées 29
▁comport 29
▁composée 29
▁compétence 29
▁concev 29
▁conduis 29
▁connectivité 29
▁connectome 29
▁consciente 29
▁consensus 29
▁conservation 29
▁constru 29
▁convient 29
▁courageux 29
▁crevettes 29
▁cristall 29
▁disciplines 29
▁débattre 29
▁découv 29
▁délicieux 29
▁démocratiques 29
▁dépendent 29
▁dépla 29
▁désordre 29
▁efficacité 29
▁embar 29
▁engin 29
▁entraîné 29
▁entret 29
▁essayaient 29
▁eue 29
▁expédition 29
▁externe 29
▁falaise 29
▁far 29
▁favori 29
▁feraient 29
▁fiche 29
▁filmé 29
▁filtr 29
▁fixé 29
▁flexible 29
▁flot 29
▁fonctionnel 29
▁futurs 29
▁fédéral 29
▁galerie 29
▁gardez 29
▁gardé 29
▁gentils 29
▁géante 29
▁herbes 29
▁historiquement 29
▁humanité 29
▁idéale 29
▁imaginiez 29
▁incertain 29
▁incl 29
▁incons 29
▁indépendants 29
▁injuste 29
▁inquiets 29
▁intéresser 29
▁libellules 29
▁libère 29
▁lie 29
▁lobe 29
▁maintient 29
▁manifestation 29
▁manqué 29
▁masque 29
▁mass 29
▁minorité 29
▁moule 29
▁musical 29
▁médicales 29
▁mê 29
▁neuron 29
▁not 29
▁notamment 29
▁notions 29
▁nus 29
▁ooh 29
▁ord 29
▁originaire 29
▁parlement 29
▁passante 29
▁passionnant 29
▁penseurs 29
▁planning 29
▁pliage 29
▁poignet 29
▁polluants 29
▁poulets 29
▁protège 29
▁précieuses 29
▁précédemment 29
▁préservation 29
▁publiée 29
▁pê 29
▁pôle 29
▁ralenti 29
▁rationnel 29
▁représentant 29
▁risqué 29
▁réchauff 29
▁réside 29
▁réuni 29
▁révolutions 29
▁semblant 29
▁sixième 29
▁sors 29
▁spéciales 29
▁stéré 29
▁superp 29
▁symbolique 29
▁taxi 29
▁techniciens 29
▁temple 29
▁terrestres 29
▁timide 29
▁tirent 29
▁tombez 29
▁toxines 29
▁tranches 29
▁triangle 29
▁tropicales 29
▁tuiles 29
▁urbaines 29
▁variable 29
▁vint 29
▁violents 29
▁viseur 29
▁visité 29
▁visuelles 29
▁vitamine 29
▁écrivent 29
▁église 29
▁électrodes 29
▁éléphants 29
▁émergé 29
80 28
De 28
IRM 28
Où 28
Q 28
activ 28
alut 28
américain 28
anatomie 28
ané 28
apparition 28
appuie 28
arder 28
arien 28
artistes 28
assés 28
automne 28
chement 28
engage 28
ensée 28
escalier 28
essor 28
etteurs 28
extraire 28
fait 28
habitants 28
hém 28
iction 28
ience 28
iendrez 28
ifions 28
imb 28
imprimerie 28
intensité 28
iquent 28
issais 28
isser 28
isson 28
km 28
lage 28
lais 28
liquent 28
ms 28
ographiques 28
omme 28
oncé 28
onnements 28
opportunités 28
opéra 28
ores 28
ortez 28
ota 28
outil 28
ouvant 28
quez 28
ss 28
uin 28
ulg 28
urrection 28
velopp 28
yd 28
ye 28
Ça 28
ège 28
éthanol 28
ôts 28
▁/ 28
▁2001, 28
▁30% 28
▁34 28
▁96 28
▁Air 28
▁Antarctique 28
▁Arabe 28
▁Bosnie 28
▁Col 28
▁Design 28
▁Ensemble 28
▁Gal 28
▁Ge 28
▁Général 28
▁IM 28
▁Im 28
▁Imp 28
▁Irlande 28
▁Joseph 28
▁Namibie 28
▁Norvège 28
▁Parfait 28
▁Per 28
▁Pol 28
▁Récemment 28
▁Sarah 28
▁Sierra 28
▁Sommes 28
▁Soviétique 28
▁Str 28
▁Te 28
▁Voie 28
▁Wow 28
▁actuelles 28
▁adop 28
▁afficher 28
▁aille 28
▁aimaient 28
▁allumer 28
▁alt 28
▁apprises 28
▁arb 28
▁arguments 28
▁arrach 28
▁artistiques 28
▁atteind 28
▁attire 28
▁autonomes 28
▁avançons 28
▁barb 28
▁bassin 28
▁blessé 28
▁brins 28
▁britanniques 28
▁capitaine 28
▁capitaux 28
▁case 28
▁cerf 28
▁combinaisons 28
▁compos 28
▁comprenait 28
▁concernés 28
▁confronter 28
▁conse 28
▁conservateur 28
▁cuivre 28
▁cérémonie 28
▁descendez 28
▁divise 28
▁documentaire 28
▁dort 28
▁doubler 28
▁due 28
▁décid 28
▁dédié 28
▁définie 28
▁définissent 28
▁démar 28
▁dérouler 28
▁détestent 28
▁emmène 28
▁employ 28
▁enregistrement 28
▁ensembles 28
▁entraine 28
▁entrepris 28
▁envoyés 28
▁essence 28
▁excitante 28
▁fich 28
▁fichier 28
▁financières 28
▁fluide 28
▁flèches 28
▁folles 28
▁fri 28
▁frot 28
▁fruit 28
▁fum 28
▁fusée 28
▁gorge 28
▁gour 28
▁greffe 28
▁gri 28
▁habituelle 28
▁hall 28
▁hop 28
▁incluant 28
▁infectées 28
▁infirmière 28
▁innov 28
▁intellectuel 28
▁interf 28
▁intéress 28
▁jouons 28
▁juillet 28
▁lentille 28
▁maintien 28
▁manipul 28
▁marron 28
▁membrane 28
▁misère 28
▁modeler 28
▁modeste 28
▁montage 28
▁moto 28
▁mouton 28
▁mâchoire 28
▁méchants 28
▁mélanger 28
▁normales 28
▁négatifs 28
▁obsédé 28
▁occasions 28
▁origami 28
▁paralysé 28
▁particulières 28
▁pencher 28
▁phases 28
▁philosophes 28
▁photographes 28
▁piles 28
▁pilules 28
▁pixels 28
▁plaisant 28
▁plongé 28
▁pointes 28
▁portraits 28
▁poster 28
▁postes 28
▁primitive 28
▁productif 28
▁protocellule 28
▁préférence 28
▁présume 28
▁rapporter 28
▁recueillir 28
▁redéfinir 28
▁relativité 28
▁reli 28
▁rendons 28
▁rentable 28
▁rentrent 28
▁repro 28
▁représentés 28
▁repérer 28
▁responsabilités 28
▁ressemblera 28
▁restes 28
▁retr 28
▁rural 28
▁répandu 28
▁réussit 28
▁rôles 28
▁semblé 28
▁sh 28
▁socialement 28
▁sophistiqué 28
▁souffrances 28
▁souviennent 28
▁stabil 28
▁stim 28
▁stupéf 28
▁subit 28
▁subventions 28
▁suivants 28
▁surpren 28
▁surveill 28
▁séquencer 28
▁tuées 28
▁téléphonique 28
▁ultrasons 28
▁uniforme 28
▁vendeur 28
▁verra 28
▁virtuels 28
▁vivais 28
▁âgé 28
▁âmes 28
▁échapper 28
▁électromagn 28
▁éloignés 28
▁éléphant 28
▁éman 28
▁éteindre 28
▁évidentes 28
) 27
Alors 27
abe 27
ack 27
adm 27
adulte 27
affichage 27
ampleur 27
américains 27
angiogenèse 27
anim 27
arrivent 27
asion 27
aventure 27
by 27
den 27
encontre 27
enlève 27
entendez 27
ep 27
ev 27
explique 27
ict 27
impossible 27
iot 27
iraient 27
irais 27
isc 27
isseur 27
itif 27
las 27
marins 27
matique 27
obst 27
olo 27
olée 27
omat 27
onge 27
ouf 27
oxyde 27
oyer 27
rat 27
rits 27
rép 27
tête 27
uait 27
ulés 27
unique 27
urez 27
usé 27
zz 27
Éc 27
èvent 27
édition 27
élim 27
épaule 27
étro 27
▁46 27
▁52 27
▁Bouddha 27
▁Contrairement 27
▁Enfant 27
▁Fort 27
▁Homo 27
▁Luther 27
▁Mall 27
▁Rires 27
▁Square 27
▁Toronto 27
▁Tur 27
▁absurde 27
▁accent 27
▁activement 27
▁adapt 27
▁adore 27
▁affiche 27
▁algues 27
▁allées 27
▁amb 27
▁améliore 27
▁anc 27
▁anecdote 27
▁arrivées 27
▁arrête 27
▁arrêtez 27
▁arrêtés 27
▁assister 27
▁atterrir 27
▁aussitôt 27
▁avert 27
▁bag 27
▁ballons 27
▁battements 27
▁bid 27
▁biotechnologie 27
▁brevets 27
▁brû 27
▁cachés 27
▁canapé 27
▁canard 27
▁cann 27
▁centimes 27
▁chanteurs 27
▁chauds 27
▁chev 27
▁chips 27
▁chrétiens 27
▁cibl 27
▁clef 27
▁cliché 27
▁clin 27
▁coincés 27
▁collaborer 27
▁comportementale 27
▁composante 27
▁condamné 27
▁connectée 27
▁constant 27
▁constat 27
▁contenter 27
▁conven 27
▁corriger 27
▁courrier 27
▁crevette 27
▁crochet 27
▁croyant 27
▁créatives 27
▁cuisin 27
▁cuisson 27
▁danseurs 27
▁demand 27
▁dimin 27
▁diplômés 27
▁dominante 27
▁dorm 27
▁doués 27
▁dramatique 27
▁dress 27
▁durabilité 27
▁débris 27
▁décentr 27
▁décl 27
▁déclar 27
▁défend 27
▁démarre 27
▁déplacé 27
▁enregist 27
▁entendrez 27
▁enthousiasme 27
▁entières 27
▁esclaves 27
▁estimations 27
▁explications 27
▁exprime 27
▁fact 27
▁fassions 27
▁fierté 27
▁flotte 27
▁fossile 27
▁fournisseurs 27
▁fout 27
▁franchir 27
▁futures 27
▁gangs 27
▁glacier 27
▁glisser 27
▁gratuite 27
▁grossesse 27
▁guérison 27
▁génomique 27
▁histor 27
▁hormones 27
▁hélicoptère 27
▁impacts 27
▁impl 27
▁inclus 27
▁indices 27
▁indiennes 27
▁indiens 27
▁industriels 27
▁influencé 27
▁infos 27
▁innover 27
▁interconnect 27
▁intégrés 27
▁is 27
▁jaill 27
▁lisent 27
▁luc 27
▁lâcher 27
▁léopard 27
▁manifest 27
▁marchera 27
▁mariages 27
▁massives 27
▁mentales 27
▁mentors 27
▁mettr 27
▁mousson 27
▁mutil 27
▁mème 27
▁mélodie 27
▁métall 27
▁méthod 27
▁numéros 27
▁obligés 27
▁occupe 27
▁opposé 27
▁orale 27
▁ordres 27
▁oreille 27
▁origine 27
▁orph 27
▁orteils 27
▁osseuse 27
▁ouvrez 27
▁ouvrières 27
▁parallèles 27
▁partenariats 27
▁passive 27
▁perform 27
▁pesticides 27
▁pilule 27
▁placés 27
▁plong 27
▁productive 27
▁produites 27
▁profonds 27
▁promesses 27
▁protégé 27
▁précieuse 27
▁préférer 27
▁prém 27
▁publicités 27
▁péd 27
▁pénétrer 27
▁racontent 27
▁rembours 27
▁renouvelable 27
▁ressentons 27
▁restant 27
▁restera 27
▁restez 27
▁réalités 27
▁régénérer 27
▁répart 27
▁répétition 27
▁résidents 27
▁rê 27
▁satisf 27
▁schizophrénie 27
▁sculpt 27
▁semblerait 27
▁sensations 27
▁simul 27
▁slogan 27
▁soeurs 27
▁souc 27
▁splend 27
▁subs 27
▁symétrique 27
▁séduisant 27
▁séries 27
▁tabac 27
▁techniquement 27
▁tentent 27
▁transformant 27
▁troubl 27
▁trouble 27
▁tuyaux 27
▁universitaires 27
▁variables 27
▁vibration 27
▁visuels 27
▁vitre 27
▁vocabulaire 27
▁voudraient 27
▁voudrions 27
▁vécue 27
▁vélos 27
▁vérités 27
▁Égypte 27
▁âgée 27
▁échouer 27
▁énergétiques 27
▁épais 27
▁équivalent 27
▁étroitement 27
"? 26
-2 26
AR 26
EC 26
Is 26
OL 26
abeille 26
achat 26
adaptation 26
afric 26
agisse 26
aisant 26
ake 26
alités 26
aluminium 26
ams 26
antaine 26
anée 26
argile 26
ariat 26
arriv 26
arrêtent 26
aspir 26
aste 26
ata 26
attache 26
attr 26
authenticité 26
avi 26
bell 26
chemin 26
chim 26
dale 26
ect 26
ecte 26
ell 26
endez 26
enthousiasme 26
enz 26
erais 26
erc 26
ession 26
estim 26
fois 26
hor 26
hu 26
iP 26
iables 26
iendrait 26
ignes 26
illet 26
introduire 26
iqués 26
ita 26
itz 26
itées 26
mar 26
métique 26
nantes 26
omet 26
omie 26
omin 26
ondes 26
oral 26
orial 26
ormes 26
ouillé 26
ouler 26
oyez 26
pan 26
ray 26
ressé 26
ription 26
rup 26
ta 26
ten 26
tront 26
uil 26
uité 26
ums 26
utions 26
win 26
écoles 26
éradication 26
érance 26
êts 26
▁2003, 26
▁43 26
▁44 26
▁Afric 26
▁Amazon 26
▁Andrew 26
▁Atlanta 26
▁Beach 26
▁Bern 26
▁Canyon 26
▁Caraïbes 26
▁Dix 26
▁Doug 26
▁Démocr 26
▁Egypte 26
▁Evidemment 26
▁FG 26
▁Indien 26
▁Lactée 26
▁May 26
▁Mel 26
▁Mr 26
▁Nick 26
▁Néanmoins 26
▁Pennsylvanie 26
▁Presque 26
▁Roi 26
▁Rés 26
▁SI 26
▁Sam 26
▁Sous 26
▁Ste 26
▁Sun 26
▁Tour 26
▁Vas 26
▁Vie 26
▁absorb 26
▁accords 26
▁acquise 26
▁adresse 26
▁affecté 26
▁aigu 26
▁aile 26
▁aimerait 26
▁animale 26
▁anneaux 26
▁antennes 26
▁appréh 26
▁aptitudes 26
▁architecturale 26
▁asc 26
▁aspirations 26
▁astronomes 26
▁atroce 26
▁atteints 26
▁basculer 26
▁be 26
▁bijoux 26
▁biom 26
▁branch 26
▁bruyant 26
▁canon 26
▁cessé 26
▁cetera 26
▁chaudes 26
▁chauffer 26
▁chaussure 26
▁chois 26
▁choisissons 26
▁choisit 26
▁choléra 26
▁chorale 26
▁chouette 26
▁coiff 26
▁collaborative 26
▁commerciales 26
▁commis 26
▁compil 26
▁conduits 26
▁consentement 26
▁construisant 26
▁contenus 26
▁contribuent 26
▁conçues 26
▁copyright 26
▁couru 26
▁couss 26
▁croître 26
▁crête 26
▁cult 26
▁culturels 26
▁célébrité 26
▁descente 26
▁deuxièmement 26
▁devra 26
▁digne 26
▁diminution 26
▁diner 26
▁disparus 26
▁disques 26
▁divert 26
▁dommages 26
▁donnaient 26
▁déco 26
▁défaill 26
▁déploy 26
▁déprim 26
▁désirs 26
▁développons 26
▁emails 26
▁embr 26
▁ench 26
▁entrant 26
▁envoyée 26
▁escalier 26
▁estim 26
▁estimation 26
▁estimer 26
▁ethniques 26
▁familiale 26
▁favoris 26
▁flexibilité 26
▁féminine 26
▁garantir 26
▁gardiens 26
▁genou 26
▁graine 26
▁hamburger 26
▁hectares 26
▁horizont 26
▁impressions 26
▁improbable 26
▁individ 26
▁infiniment 26
▁inscrit 26
▁inspiration 26
▁instinct 26
▁institut 26
▁interpréter 26
▁interviews 26
▁intégrante 26
▁inverse 26
▁iront 26
▁jardins 26
▁jouaient 26
▁lav 26
▁lim 26
▁limiter 26
▁lourds 26
▁lundi 26
▁mag 26
▁magiques 26
▁maintes 26
▁malnutrition 26
▁manch 26
▁mand 26
▁manipulation 26
▁mardi 26
▁marquer 26
▁mars 26
▁massif 26
▁maîtres 26
▁maîtriser 26
▁menée 26
▁merveilles 26
▁midi 26
▁mien 26
▁moraux 26
▁méduse 26
▁métaphores 26
▁noix 26
▁obsc 26
▁occupés 26
▁ov 26
▁oxygène 26
▁pai 26
▁pare 26
▁parfaits 26
▁paroi 26
▁pasteur 26
▁patience 26
▁patri 26
▁pend 26
▁perdues 26
▁permettrait 26
▁pil 26
▁places 26
▁plaindre 26
▁pleure 26
▁pli 26
▁pluies 26
▁polaires 26
▁politiquement 26
▁prairies 26
▁primaires 26
▁prob 26
▁procurer 26
▁programmeurs 26
▁promener 26
▁propagande 26
▁propulsion 26
▁protégée 26
▁prud 26
▁préfrontal 26
▁préoccup 26
▁présentée 26
▁psychologue 26
▁publications 26
▁pénis 26
▁rassemblement 26
▁rassemblés 26
▁rect 26
▁regroupe 26
▁remporté 26
▁renf 26
▁renouvelables 26
▁renvoie 26
▁restre 26
▁retournée 26
▁reviendrai 26
▁rom 26
▁russe 26
▁réception 26
▁récupéré 26
▁réjou 26
▁répondit 26
▁rétréc 26
▁rêvé 26
▁sensé 26
▁serpent 26
▁signé 26
▁situé 26
▁souhaiter 26
▁soumettre 26
▁spectacles 26
▁sponsor 26
▁spont 26
▁statue 26
▁submerg 26
▁suic 26
▁susc 26
▁sépare 26
▁tactile 26
▁tax 26
▁thèse 26
▁tirez 26
▁tomate 26
▁téléc 26
▁viendrait 26
▁vif 26
▁éclairé 26
▁économiquement 26
▁égaux 26
▁égypt 26
▁éle 26
▁élimin 26
▁équivaut 26
▁éventail 26
▁évolutionnaire 26
& 25
Ethiopie 25
_ 25
aa 25
accrocher 25
ada 25
adh 25
admettre 25
agan 25
agence 25
alises 25
amitié 25
apparence 25
appré 25
arrêtait 25
ary 25
attraper 25
audience 25
aure 25
ays 25
cale 25
cc 25
cel 25
ection 25
eme 25
enquête 25
erons 25
estime 25
examen 25
gel 25
habitat 25
harmonie 25
horloge 25
iPhone 25
iaux 25
icales 25
installation 25
interf 25
interview 25
ips 25
ity 25
ollywood 25
onique 25
onnez 25
oon 25
opposé 25
orce 25
orientation 25
orn 25
ory 25
osité 25
otes 25
oto 25
otre 25
oubliez 25
prés 25
quis 25
sme 25
source 25
ual 25
ude 25
und 25
uves 25
veur 25
vons 25
èges 25
èles 25
ènera 25
éclair 25
écrivain 25
érations 25
érit 25
étant 25
étiquement 25
▁1960, 25
▁1980, 25
▁2005 25
▁2008. 25
▁2010, 25
▁4000 25
▁98 25
▁Bangalore 25
▁Cour 25
▁Danemark 25
▁Dire 25
▁Eric 25
▁Fran 25
▁International 25
▁Janvier 25
▁Jefferson 25
▁Kansas 25
▁MO 25
▁Mach 25
▁Mag 25
▁Media 25
▁Mme 25
▁Mod 25
▁Mus 25
▁Pers 25
▁Rec 25
▁Red 25
▁Ross 25
▁Rover 25
▁Santa 25
▁Thé 25
▁Util 25
▁Va 25
▁Wolfram 25
▁acceptable 25
▁acier 25
▁activé 25
▁adm 25
▁adopt 25
▁africaines 25
▁alentours 25
▁allumé 25
▁araignée 25
▁athée 25
▁atome 25
▁attaqué 25
▁atteignent 25
▁autorisés 25
▁aval 25
▁baiss 25
▁banc 25
▁bav 25
▁bloquer 25
▁bourd 25
▁brûlé 25
▁budgets 25
▁calcium 25
▁caoutchouc 25
▁causé 25
▁cess 25
▁chass 25
▁chasser 25
▁chimiste 25
▁chirurg 25
▁chères 25
▁civique 25
▁clic 25
▁clign 25
▁codes 25
▁collaborateurs 25
▁combiné 25
▁complément 25
▁concentrent 25
▁concentrons 25
▁conduisent 25
▁configuration 25
▁connaisse 25
▁connect 25
▁considérée 25
▁continuera 25
▁continuez 25
▁controvers 25
▁corn 25
▁cosmos 25
▁coul 25
▁cre 25
▁creus 25
▁criminels 25
▁croissante 25
▁crème 25
▁cécité 25
▁diffuse 25
▁dig 25
▁domestiques 25
▁dormi 25
▁doses 25
▁débats 25
▁démission 25
▁déposer 25
▁eBay 25
▁empois 25
▁emprunter 25
▁enregistrements 25
▁enter 25
▁entités 25
▁environnemental 25
▁envoyez 25
▁espoirs 25
▁express 25
▁fabriquons 25
▁faisiez 25
▁fascin 25
▁fast 25
▁favorite 25
▁franc 25
▁galeries 25
▁gaspillage 25
▁glaci 25
▁globalement 25
▁grottes 25
▁géo 25
▁géré 25
▁habitu 25
▁high 25
▁hypoth 25
▁icône 25
▁impatient 25
▁inattendues 25
▁instru 25
▁insuff 25
▁isra 25
▁issue 25
▁issus 25
▁jetez 25
▁joy 25
▁jungle 25
▁lente 25
▁législ 25
▁mach 25
▁margin 25
▁mentalement 25
▁mignon 25
▁missions 25
▁modéliser 25
▁montrez 25
▁mortelle 25
▁méditation 25
▁nourr 25
▁néglig 25
▁néocortex 25
▁ombre 25
▁opposée 25
▁palm 25
▁parasites 25
▁parfum 25
▁passagers 25
▁penche 25
▁pilotes 25
▁plancton 25
▁planifier 25
▁plateformes 25
▁polaire 25
▁pollin 25
▁pouvant 25
▁primates 25
▁proph 25
▁prêtes 25
▁racontons 25
▁radiations 25
▁raisonn 25
▁rapporté 25
▁ravi 25
▁recomm 25
▁recommence 25
▁recouv 25
▁refuser 25
▁rencontres 25
▁rendra 25
▁restés 25
▁retire 25
▁retournons 25
▁reven 25
▁réfug 25
▁régul 25
▁réservoir 25
▁scénarios 25
▁solitaire 25
▁souffert 25
▁spaghetti 25
▁spectateurs 25
▁suivons 25
▁supérieures 25
▁synthét 25
▁tambour 25
▁tangible 25
▁tapez 25
▁techn 25
▁tranche 25
▁travailleur 25
▁trente 25
▁trottoir 25
▁troupeau 25
▁ur 25
▁violente 25
▁visc 25
▁volcan 25
▁vétér 25
▁Êtes 25
▁électeurs 25
▁élev 25
▁éloigner 25
▁élémentaire 25
▁émerg 25
▁émeutes 25
▁équ 25
▁éte 25
▁étiquette 25
▁éveillé 25
▁‘ 25
.♫ 24
00, 24
Abraham 24
Everest 24
Himalaya 24
OCDE 24
Organisation 24
Ouganda 24
acent 24
acle 24
activer 24
airer 24
anci 24
andes 24
anxiété 24
arrivera 24
audition 24
aurons 24
cend 24
cevoir 24
col 24
efforts 24
encore 24
enons 24
eth 24
excitation 24
exemples 24
existait 24
expertise 24
fond 24
gent 24
igation 24
illement 24
ineuses 24
ingénieurs 24
instru 24
iosité 24
isa 24
isations 24
itables 24
lus 24
léch 24
mon 24
mons 24
omber 24
onnexion 24
onnées 24
onstru 24
opérations 24
orale 24
oscope 24
oter 24
otique 24
ouch 24
pect 24
pent 24
pir 24
point 24
rey 24
rière 24
réation 24
uillez 24
uissance 24
ulations 24
upp 24
ush 24
verse 24
verti 24
âte 24
èques 24
échapper 24
édies 24
émissions 24
épendance 24
éric 24
▁100.000 24
▁140 24
▁1970, 24
▁1990 24
▁47 24
▁6, 24
▁7, 24
▁97 24
▁Albert 24
▁Arduino 24
▁BL 24
▁Black 24
▁Danny 24
▁Data 24
▁Diff 24
▁Don 24
▁Défense 24
▁Har 24
▁Jet 24
▁Kelly 24
▁Kibera 24
▁Lib 24
▁Linux 24
▁Mah 24
▁Mary 24
▁Norman 24
▁Ouah 24
▁Père 24
▁RW 24
▁Reagan 24
▁Remarquez 24
▁Retour 24
▁Rock 24
▁Rose 24
▁Réfléchissez 24
▁SJ 24
▁Tibet 24
▁Tor 24
▁UV 24
▁Wilson 24
▁Windows 24
▁Zimbabwe 24
▁[" 24
▁abus 24
▁activistes 24
▁adaptés 24
▁affecter 24
▁alliés 24
▁allongé 24
▁amateur 24
▁aminés 24
▁ancêtre 24
▁animation 24
▁annoncer 24
▁apparent 24
▁applique 24
▁appropri 24
▁approuvé 24
▁arriverait 24
▁artificiels 24
▁assises 24
▁attributs 24
▁audio 24
▁automobiles 24
▁ax 24
▁balad 24
▁best 24
▁bibl 24
▁bioluminescence 24
▁bla 24
▁blagues 24
▁bonnement 24
▁bottes 24
▁bâtir 24
▁cabane 24
▁cadres 24
▁calendrier 24
▁caric 24
▁cartographier 24
▁catholique 24
▁chagrin 24
▁chem 24
▁cherchait 24
▁chuté 24
▁chèque 24
▁ciment 24
▁cinquante 24
▁circ 24
▁civiles 24
▁classement 24
▁cog 24
▁collectivement 24
▁collines 24
▁combine 24
▁commençais 24
▁communique 24
▁composant 24
▁composent 24
▁concentrez 24
▁consacré 24
▁contenant 24
▁continuait 24
▁contract 24
▁convictions 24
▁coqu 24
▁coralliens 24
▁coule 24
▁crainte 24
▁cubes 24
▁cybercrimin 24
▁dangers 24
▁demanda 24
▁deme 24
▁diplômé 24
▁disiez 24
▁disponibilité 24
▁distribué 24
▁district 24
▁dixième 24
▁dot 24
▁déclarations 24
▁décoller 24
▁définis 24
▁délicat 24
▁dépl 24
▁déprimé 24
▁dépôt 24
▁désire 24
▁emball 24
▁embrasser 24
▁emport 24
▁ennuis 24
▁entendons 24
▁entendues 24
▁essentielles 24
▁exceptionnel 24
▁exclus 24
▁expliqu 24
▁exprimé 24
▁fabricant 24
▁fabricants 24
▁façade 24
▁ferez 24
▁fermés 24
▁fonctionnelle 24
▁formons 24
▁formée 24
▁fusées 24
▁fût 24
▁grad 24
▁gramme 24
▁grandement 24
▁grenouille 24
▁générique 24
▁habitude 24
▁hackers 24
▁heur 24
▁hostile 24
▁hémisphère 24
▁immenses 24
▁impliquée 24
▁imprimé 24
▁incorpor 24
▁infecté 24
▁internes 24
▁interview 24
▁introduire 24
▁intuit 24
▁inutiles 24
▁juif 24
▁jumeaux 24
▁justes 24
▁lion 24
▁lum 24
▁légers 24
▁mammaire 24
▁management 24
▁maqu 24
▁marchez 24
▁mart 24
▁merc 24
▁millimètre 24
▁mini 24
▁montrait 24
▁monument 24
▁mépr 24
▁mérit 24
▁narration 24
▁nationaux 24
▁nerf 24
▁oblig 24
▁oies 24
▁palais 24
▁panique 24
▁partez 24
▁partition 24
▁passaient 24
▁passerelle 24
▁passionnés 24
▁patiente 24
▁patte 24
▁perm 24
▁permanent 24
▁permette 24
▁pessim 24
▁pharmaceutiques 24
▁photographier 24
▁physi 24
▁pilot 24
▁pirates 24
▁piscine 24
▁pleut 24
▁potentielle 24
▁pourrai 24
▁poursuit 24
▁prenions 24
▁procéder 24
▁produisant 24
▁prosp 24
▁protocellules 24
▁prov 24
▁préc 24
▁préoccupe 24
▁préservatif 24
▁périphérie 24
▁pét 24
▁refroid 24
▁refroidir 24
▁refroidissement 24
▁remplis 24
▁renforce 24
▁repris 24
▁reproduisent 24
▁ressemblaient 24
▁retrouv 24
▁retrouvez 24
▁revenez 24
▁robuste 24
▁ru 24
▁rug 24
▁russes 24
▁réalisons 24
▁réinventer 24
▁répartition 24
▁répertoire 24
▁rétablir 24
▁scientif 24
▁sida 24
▁soirs 24
▁souffler 24
▁soulever 24
▁souple 24
▁sout 24
▁spectateur 24
▁sphères 24
▁stat 24
▁stimulation 24
▁stratégique 24
▁stéréotypes 24
▁suicide 24
▁supérieurs 24
▁surprendre 24
▁sympath 24
▁séduisante 24
▁séjour 24
▁tenons 24
▁terroriste 24
▁tim 24
▁tortues 24
▁touchée 24
▁traduis 24
▁travaill 24
▁tricher 24
▁tristesse 24
▁tropicale 24
▁trouvera 24
▁télécharg 24
▁télés 24
▁témo 24
▁urban 24
▁utilisateur 24
▁vertu 24
▁vibrer 24
▁viend 24
▁vil 24
▁virale 24
▁virtuellement 24
▁visibles 24
▁vital 24
▁vitale 24
▁watts 24
▁week 24
▁éclairage 24
▁économiste 24
▁écoutent 24
▁écrites 24
▁élection 24
▁élites 24
▁élémentaires 24
▁étince 24
▁étiqu 24
'' 23
', 23
'1 23
Dieu 23
ID 23
Ils 23
Indus 23
Ma 23
Mart 23
OMS 23
Parce 23
abes 23
accident 23
accomp 23
acteurs 23
actifs 23
affiche 23
agon 23
aigne 23
ajoute 23
aline 23
amas 23
anth 23
anti 23
appellent 23
apt 23
arde 23
ark 23
arth 23
ascenseur 23
asme 23
assey 23
associer 23
assoir 23
astéroï 23
atie 23
atta 23
atures 23
até 23
auc 23
auriez 23
chet 23
chées 23
ciel 23
dom 23
dou 23
employer 23
ench 23
engin 23
erai 23
estimation 23
existent 23
exister 23
fa 23
graph 23
hyd 23
héroï 23
icale 23
iendra 23
implant 23
implication 23
infect 23
inject 23
inst 23
insuline 23
introduction 23
invent 23
ironie 23
ital 23
ja 23
lables 23
ller 23
lui 23
mand 23
mente 23
more 23
nd 23
ogène 23
onté 23
ordinaire 23
orique 23
osent 23
oïde 23
produ 23
ressez 23
rets 23
rist 23
rivent 23
rètes 23
sur 23
taient 23
ueil 23
ural 23
utes 23
uve 23
violence 23
vo 23
volution 23
École 23
écras 23
écrit 23
édie 23
égation 23
électro 23
émique 23
éon 23
épaisseur 23
épouse 23
épr 23
érieures 23
érir 23
établ 23
étriques 23
évasion 23
êter 23
▁187 23
▁50. 23
▁Ann 23
▁Arthur 23
▁Ber 23
▁Celles 23
▁Champ 23
▁Che 23
▁College 23
▁Darfour 23
▁Dé 23
▁Développement 23
▁Es 23
▁Far 23
▁Fe 23
▁Galapagos 23
▁Ha 23
▁Juifs 23
▁Julia 23
▁Jérusalem 23
▁Kar 23
▁Kh 23
▁Kyoto 23
▁Lee 23
▁Massachusetts 23
▁Mat 23
▁Mor 23
▁Museum 23
▁Ob 23
▁Petit 23
▁Professeur 23
▁Qatar 23
▁Regarde 23
▁Sahara 23
▁Sibérie 23
▁Sony 23
▁Soudain 23
▁Soudan 23
▁Surtout 23
▁Sw 23
▁Système 23
▁TE 23
▁Troisièmement 23
▁Venez 23
▁Youtube 23
▁accompagné 23
▁accroché 23
▁acquérir 23
▁adj 23
▁affreux 23
▁afro 23
▁aidés 23
▁ambitieux 23
▁ampoules 23
▁animés 23
▁anticorps 23
▁août 23
▁apparues 23
▁approcher 23
▁approxim 23
▁artères 23
▁atteintes 23
▁bactéri 23
▁banlieues 23
▁bann 23
▁bapt 23
▁basées 23
▁bilan 23
▁blogue 23
▁boom 23
▁bougie 23
▁brille 23
▁canad 23
▁candidat 23
▁capturé 23
▁catalyseur 23
▁cave 23
▁chargé 23
▁chim 23
▁chèvre 23
▁chèvres 23
▁cic 23
▁civils 23
▁clips 23
▁comité 23
▁comté 23
▁concepteur 23
▁concernent 23
▁conqu 23
▁continuité 23
▁contrôles 23
▁convaincus 23
▁conventionnelle 23
▁coquille 23
▁corré 23
▁couler 23
▁couples 23
▁courent 23
▁crack 23
▁croix 23
▁cœurs 23
▁dominant 23
▁dommage 23
▁doué 23
▁drog 23
▁dynam 23
▁débatt 23
▁débit 23
▁débord 23
▁décharg 23
▁définitivement 23
▁démol 23
▁démén 23
▁déployer 23
▁désertification 23
▁développements 23
▁dôme 23
▁embarrass 23
▁embouteillages 23
▁emplo 23
▁empris 23
▁enferm 23
▁enthousiasm 23
▁entrées 23
▁envelopp 23
▁espagnol 23
▁esthétique 23
▁européenne 23
▁exploré 23
▁extension 23
▁faciliter 23
▁fai 23
▁familières 23
▁fatig 23
▁favor 23
▁finan 23
▁fière 23
▁fièvre 23
▁fleuve 23
▁fluides 23
▁fraîche 23
▁féministe 23
▁gare 23
▁gentiment 23
▁gest 23
▁générateur 23
▁génére 23
▁habitent 23
▁honor 23
▁hygién 23
▁hés 23
▁imaginons 23
▁immédiate 23
▁impliquées 23
▁incapables 23
▁incendie 23
▁indépendantes 23
▁infrar 23
▁inj 23
▁inond 23
▁inquiét 23
▁inquiétez 23
▁insisté 23
▁interact 23
▁interventions 23
▁inégalités 23
▁issues 23
▁ital 23
▁journalisme 23
▁joyeux 23
▁justifier 23
▁labyrinthe 23
▁lame 23
▁latine 23
▁lithium 23
▁légale 23
▁lésions 23
▁mait 23
▁manquait 23
▁mater 23
▁mens 23
▁mett 23
▁mette 23
▁ministres 23
▁monstre 23
▁montrons 23
▁motivations 23
▁moutarde 23
▁musicales 23
▁myth 23
▁nationales 23
▁nerveuse 23
▁nomme 23
▁novembre 23
▁nuis 23
▁négoci 23
▁ob 23
▁offic 23
▁optimistes 23
▁paquets 23
▁paralysie 23
▁passionne 23
▁perce 23
▁perdant 23
▁perdus 23
▁personnalités 23
▁pingouin 23
▁planté 23
▁plie 23
▁poule 23
▁pressions 23
▁primordial 23
▁prière 23
▁projeté 23
▁promets 23
▁prononcé 23
▁proprement 23
▁province 23
▁précédentes 23
▁prévision 23
▁pâ 23
▁pétr 23
▁rab 23
▁racontée 23
▁rapporte 23
▁rationnelle 23
▁recherchons 23
▁recommande 23
▁reconnaissant 23
▁reconnaît 23
▁relative 23
▁relié 23
▁remarquablement 23
▁remontent 23
▁rentrée 23
▁renvoy 23
▁ressentais 23
▁retournés 23
▁retrouvés 23
▁rocher 23
▁roches 23
▁ruban 23
▁répandue 23
▁répliquer 23
▁résum 23
▁sages 23
▁sanguine 23
▁score 23
▁sensorielles 23
▁sentait 23
▁serviettes 23
▁sexuellement 23
▁sincèrement 23
▁song 23
▁sophistiquées 23
▁soucier 23
▁sourd 23
▁souvient 23
▁squelettique 23
▁star 23
▁subtile 23
▁suffisante 23
▁supermarchés 23
▁sympas 23
▁sécur 23
▁tabou 23
▁technolog 23
▁tentatives 23
▁tol 23
▁tou 23
▁tranch 23
▁transc 23
▁transmettent 23
▁triangles 23
▁tromp 23
▁trouv 23
▁télécharge 23
▁téléphoniques 23
▁urbains 23
▁ut 23
▁vaincre 23
▁valise 23
▁valor 23
▁variantes 23
▁verront 23
▁volont 23
▁x 23
▁écoutant 23
▁égards 23
▁émergentes 23
▁éparg 23
▁éradiquer 23
▁éthiques 23
▁étiquettes 23
'. 22
Arctique 22
Israël 22
MA 22
PA 22
Peut 22
Vo 22
accomplir 22
actif 22
adopter 22
adultes 22
agr 22
apport 22
aptitude 22
assembler 22
assent 22
astronomie 22
attraction 22
auteurs 22
auv 22
aver 22
aïque 22
bine 22
ception 22
cha 22
di 22
dis 22
ements 22
emm 22
emmener 22
enfer 22
entrepr 22
entrepreneur 22
espaces 22
essais 22
fr 22
gramme 22
graphe 22
gén 22
ham 22
humilité 22
iantes 22
idents 22
ients 22
ignement 22
illages 22
ince 22
inement 22
ingénieur 22
initiative 22
ink 22
institution 22
iquons 22
iront 22
istance 22
itable 22
ièmes 22
jets 22
ki 22
lic 22
lier 22
loc 22
los 22
mission 22
nements 22
obe 22
observe 22
omique 22
onction 22
oncée 22
oncés 22
onnée 22
otion 22
oublierai 22
oug 22
ouh 22
oureuses 22
quants 22
queur 22
red 22
ulte 22
usions 22
uvres 22
Église 22
èbres 22
égal 22
élarg 22
élection 22
épreuve 22
équateur 22
équité 22
érentes 22
éte 22
étiquette 22
▁100, 22
▁1950 22
▁1950, 22
▁1994, 22
▁2001 22
▁8, 22
▁80. 22
▁Absolument 22
▁And 22
▁Bl 22
▁Bo 22
▁Dame 22
▁Dern 22
▁Dylan 22
▁East 22
▁Espagne 22
▁Exactement 22
▁Fond 22
▁Ham 22
▁Hawking 22
▁Hier 22
▁Higgs 22
▁Jersey 22
▁Jeux 22
▁Joel 22
▁Kiribati 22
▁Lagos 22
▁Matt 22
▁Max 22
▁Milieu 22
▁Mill 22
▁Movember 22
▁Mozart 22
▁News 22
▁Nike 22
▁Normalement 22
▁Parkinson 22
▁Plusieurs 22
▁RISD 22
▁Recherche 22
▁Russes 22
▁Simon 22
▁Supposons 22
▁Thaïlande 22
▁Trans 22
▁Viens 22
▁Zipcar 22
▁aboutir 22
▁accélère 22
▁admis 22
▁adorable 22
▁affirme 22
▁alimenter 22
▁allume 22
▁ambassade 22
▁anonyme 22
▁apparaitre 22
▁apparus 22
▁arrêtée 22
▁articul 22
▁attendait 22
▁baissé 22
▁brillantes 22
▁briller 22
▁brouillard 22
▁bâtons 22
▁cac 22
▁cachées 22
▁cadav 22
▁cadeaux 22
▁calottes 22
▁camarades 22
▁causer 22
▁caver 22
▁chaotique 22
▁chauss 22
▁chimpanzé 22
▁civil 22
▁cocaïne 22
▁commencions 22
▁compr 22
▁comptabilité 22
▁concentrée 22
▁concerts 22
▁concl 22
▁connectent 22
▁contamin 22
▁contracter 22
▁coulisses 22
▁coûterait 22
▁craign 22
▁cris 22
▁cuis 22
▁culpabilité 22
▁demeure 22
▁dessinées 22
▁dirig 22
▁divor 22
▁donn 22
▁dunes 22
▁débrouiller 22
▁découvrent 22
▁déforestation 22
▁dégradation 22
▁dépendre 22
▁désesp 22
▁empir 22
▁entendent 22
▁enthousias 22
▁entrepr 22
▁enveloppe 22
▁envisage 22
▁envoyons 22
▁estimé 22
▁euh 22
▁européens 22
▁exceptions 22
▁exer 22
▁existant 22
▁explose 22
▁exprim 22
▁exprès 22
▁fabuleuse 22
▁falaises 22
▁fasc 22
▁favoriser 22
▁fermée 22
▁fertil 22
▁fiables 22
▁filets 22
▁flottant 22
▁folie 22
▁fon 22
▁foncé 22
▁fondu 22
▁franch 22
▁fusionner 22
▁gadgets 22
▁gagnez 22
▁gardent 22
▁gau 22
▁gecko 22
▁golfe 22
▁gratte 22
▁grossi 22
▁généraux 22
▁icônes 22
▁illustration 22
▁illustre 22
▁illég 22
▁imb 22
▁imprég 22
▁influ 22
▁inhabituelle 22
▁injection 22
▁insister 22
▁instable 22
▁intellig 22
▁inventée 22
▁ironique 22
▁jouais 22
▁lampes 22
▁lier 22
▁limités 22
▁loint 22
▁légit 22
▁maj 22
▁malheur 22
▁marchais 22
▁marié 22
▁maximale 22
▁mentor 22
▁menu 22
▁microbienne 22
▁ministère 22
▁minuit 22
▁missiles 22
▁modifications 22
▁modélisation 22
▁mousse 22
▁multitude 22
▁mythologie 22
▁métaphor 22
▁nan 22
▁natale 22
▁navigateur 22
▁nectar 22
▁notation 22
▁nourri 22
▁nov 22
▁nôtres 22
▁object 22
▁opérer 22
▁orchestre 22
▁organisée 22
▁panier 22
▁paradox 22
▁parvenus 22
▁peintre 22
▁penses 22
▁perc 22
▁pics 22
▁piquer 22
▁plais 22
▁poison 22
▁porcs 22
▁pore 22
▁portons 22
▁possédait 22
▁poursuite 22
▁pous 22
▁prenais 22
▁procédures 22
▁produisait 22
▁produise 22
▁produisons 22
▁préfér 22
▁préjugés 22
▁prélimin 22
▁préoccupations 22
▁préval 22
▁put 22
▁pénurie 22
▁rapidité 22
▁rappellent 22
▁rattraper 22
▁reconnaissante 22
▁reconnaissent 22
▁recréer 22
▁redéc 22
▁refait 22
▁reflet 22
▁regardions 22
▁remplacement 22
▁remplacé 22
▁respecte 22
▁retrouvée 22
▁romp 22
▁roses 22
▁rout 22
▁routine 22
▁rupture 22
▁rurale 22
▁réag 22
▁récepteurs 22
▁régulière 22
▁rétabl 22
▁sains 22
▁saisi 22
▁saisons 22
▁salée 22
▁samedi 22
▁scandale 22
▁secrète 22
▁servant 22
▁sex 22
▁sexualité 22
▁signaler 22
▁simultanément 22
▁sonores 22
▁spectaculaires 22
▁stades 22
▁stimule 22
▁suc 22
▁suggèrent 22
▁supposons 22
▁surprenante 22
▁susp 22
▁séc 22
▁séquoia 22
▁séquoias 22
▁sér 22
▁sévère 22
▁tang 22
▁tapiss 22
▁teint 22
▁terrifiant 22
▁testicules 22
▁text 22
▁touchant 22
▁tournés 22
▁tracé 22
▁tradu 22
▁transistor 22
▁transporte 22
▁tremble 22
▁ty 22
▁usées 22
▁verticale 22
▁veste 22
▁violer 22
▁visiteurs 22
▁vivions 22
▁volumes 22
▁échouent 22
▁écoss 22
▁écriture 22
▁élabor 22
▁élim 22
▁élég 22
▁étroite 22
▁étudiante 22
▁étudions 22
▁éventuellement 22
▁évoquer 22
:" 21
Aut 21
SS 21
TM 21
York 21
accumuler 21
adoles 21
adorais 21
affect 21
ague 21
agées 21
aign 21
aimait 21
aimez 21
aimons 21
aissez 21
allume 21
amé 21
améliore 21
américaine 21
analyser 21
ancer 21
anniversaire 21
ao 21
apit 21
arche 21
ardi 21
atoires 21
atomes 21
atrazine 21
attirer 21
aurez 21
auront 21
bar 21
chev 21
cip 21
cir 21
cour 21
effect 21
empire 21
ensable 21
entendais 21
entour 21
ext 21
ffe 21
gie 21
har 21
ieu 21
igme 21
ignon 21
igram 21
inspirer 21
intégrité 21
issantes 21
istan 21
loy 21
mail 21
mi 21
mères 21
occupation 21
ogée 21
oli 21
ommé 21
onger 21
onnons 21
optique 21
oquer 21
ouche 21
oupe 21
ourir 21
ouses 21
oust 21
quins 21
rol 21
rome 21
rosse 21
rét 21
serv 21
sex 21
traient 21
tt 21
udes 21
uient 21
uro 21
usc 21
uth 21
utilisateurs 21
èvement 21
écr 21
édé 21
élevage 21
élever 21
énom 21
énorme 21
épilepsie 21
étendue 21
évap 21
▁1960. 21
▁2050, 21
▁40% 21
▁5% 21
▁6000 21
▁86 21
▁AV 21
▁Alice 21
▁Allen 21
▁Bay 21
▁Caltech 21
▁Camp 21
▁Carnegie 21
▁Comté 21
▁Cuba 21
▁Dean 21
▁Deuxième 21
▁Désormais 21
▁Fl 21
▁Flickr 21
▁Foundation 21
▁Grèce 21
▁Israel 21
▁Japonais 21
▁Jazeera 21
▁Jobs 21
▁Ke 21
▁LA 21
▁Law 21
▁Leone 21
▁Liban 21
▁Mama 21
▁Mil 21
▁Mort 21
▁Mumbai 21
▁Octobre 21
▁Pardon 21
▁Po 21
▁Pékin 21
▁Rand 21
▁Reine 21
▁SRAS 21
▁Sach 21
▁Saoudite 21
▁Sec 21
▁Sher 21
▁Skype 21
▁Somalie 21
▁Stewart 21
▁Tam 21
▁Trade 21
▁Vers 21
▁Vol 21
▁Warren 21
▁abstraite 21
▁actives 21
▁admir 21
▁agriculture 21
▁aidera 21
▁aidez 21
▁ajoutant 21
▁allure 21
▁amas 21
▁amusantes 21
▁anal 21
▁appartiennent 21
▁apprentissage 21
▁appuyer 21
▁astéroïdes 21
▁attachés 21
▁aventures 21
▁bananes 21
▁barbe 21
▁barrage 21
▁bec 21
▁biscuits 21
▁bonobo 21
▁bonobos 21
▁bougez 21
▁brancher 21
▁brocoli 21
▁bénéficient 21
▁cabine 21
▁caractér 21
▁carn 21
▁charte 21
▁cherchaient 21
▁chou 21
▁chron 21
▁chérie 21
▁cing 21
▁comest 21
▁commission 21
▁comparons 21
▁compose 21
▁compositeur 21
▁comprenne 21
▁compréhensible 21
▁concierge 21
▁conditionné 21
▁connectées 21
▁constituer 21
▁consult 21
▁contag 21
▁contemp 21
▁contemporaine 21
▁controverse 21
▁convergence 21
▁copine 21
▁coude 21
▁couloirs 21
▁crâ 21
▁curseur 21
▁célibataires 21
▁cérébraux 21
▁demandés 21
▁diagrammes 21
▁dialoguer 21
▁diapositives 21
▁dictionnaires 21
▁digitale 21
▁dirigeons 21
▁disposer 21
▁dispute 21
▁dissim 21
▁distributeur 21
▁dite 21
▁diverg 21
▁divergence 21
▁dodo 21
▁domination 21
▁donnais 21
▁douche 21
▁débr 21
▁déclencher 21
▁découle 21
▁découper 21
▁décédé 21
▁dégo 21
▁déguis 21
▁délib 21
▁dépendants 21
▁déplacements 21
▁dépourv 21
▁développées 21
▁embauché 21
▁ennuy 21
▁entité 21
▁erectus 21
▁exig 21
▁existantes 21
▁explore 21
▁expuls 21
▁externes 21
▁extraterrestre 21
▁fans 21
▁favorise 21
▁façonné 21
▁feedback 21
▁figures 21
▁finie 21
▁flammes 21
▁flottent 21
▁focalisés 21
▁fondement 21
▁formations 21
▁fract 21
▁fréquemment 21
▁gardes 21
▁gelé 21
▁goûter 21
▁grammes 21
▁graphe 21
▁greff 21
▁gribouillage 21
▁grotte 21
▁guer 21
▁géographie 21
▁gérons 21
▁handicapés 21
▁heureuses 21
▁hind 21
▁horloge 21
▁idiots 21
▁implic 21
▁impossibles 21
▁impôts 21
▁incompl 21
▁incorp 21
▁indu 21
▁infection 21
▁informé 21
▁innovateurs 21
▁inquiéter 21
▁inspirée 21
▁instantanée 21
▁intensifs 21
▁interviewé 21
▁intuitive 21
▁ion 21
▁lancez 21
▁lue 21
▁manteau 21
▁marines 21
▁marteau 21
▁marées 21
▁matériels 21
▁mazoutés 21
▁mesurée 21
▁mic 21
▁millénaire 21
▁miracles 21
▁modifie 21
▁motivés 21
▁mun 21
▁mythes 21
▁métiers 21
▁navires 21
▁nette 21
▁neuroscient 21
▁neutr 21
▁nitrique 21
▁noe 21
▁numér 21
▁obligatoire 21
▁obsédés 21
▁oeufs 21
▁opère 21
▁orchestres 21
▁our 21
▁pair 21
▁paisible 21
▁paraissent 21
▁partageant 21
▁participe 21
▁perceptions 21
▁persuader 21
▁persév 21
▁pharmac 21
▁photographies 21
▁pionniers 21
▁pique 21
▁piét 21
▁plages 21
▁pompes 21
▁pon 21
▁posait 21
▁posture 21
▁pourcents 21
▁presc 21
▁procédés 21
▁product 21
▁programmés 21
▁propagation 21
▁pros 21
▁prot 21
▁protest 21
▁protocole 21
▁pubs 21
▁purement 21
▁pèlerins 21
▁péri 21
▁races 21
▁rage 21
▁raisin 21
▁rame 21
▁ramp 21
▁ravis 21
▁recensement 21
▁recycler 21
▁remb 21
▁rencontrée 21
▁renoncer 21
▁reportage 21
▁représentée 21
▁retomb 21
▁retrouvons 21
▁revenant 21
▁richesses 21
▁rochers 21
▁rois 21
▁ruche 21
▁réalisés 21
▁réchauffe 21
▁réfléchissant 21
▁réinvent 21
▁réplique 21
▁répété 21
▁résident 21
▁résout 21
▁réunissent 21
▁réveillé 21
▁seins 21
▁serveur 21
▁show 21
▁sien 21
▁sonner 21
▁sophistiqués 21
▁sorties 21
▁souhaitons 21
▁stimulant 21
▁success 21
▁sucré 21
▁supprim 21
▁surplus 21
▁survivants 21
▁suspendu 21
▁syn 21
▁sécheresse 21
▁séparées 21
▁séquençage 21
▁tante 21
▁tendent 21
▁tourisme 21
▁transformations 21
▁transistors 21
▁transplantation 21
▁transportent 21
▁trouvées 21
▁typ 21
▁têt 21
▁vaccination 21
▁variabilité 21
▁verb 21
▁verr 21
▁viable 21
▁visiblement 21
▁votes 21
▁écho 21
▁écrivez 21
▁éditeur 21
▁éditeurs 21
▁élé 21
▁épisode 21
▁équival 21
▁érad 21
▁étend 21
▁étendues 21
▁évalu 21
▁évoque 21
...] 20
Am 20
DA 20
Dans 20
ED 20
Fi 20
Maman 20
Moi 20
Quelle 20
Voici 20
about 20
access 20
accoupler 20
aci 20
agement 20
agner 20
agrandir 20
aile 20
aissent 20
alisent 20
ampoule 20
anne 20
association 20
attitude 20
bert 20
bien 20
cep 20
cience 20
cro 20
cut 20
do 20
ecine 20
effets 20
empreinte 20
enlever 20
enregistrer 20
enveloppe 20
ero 20
erry 20
erson 20
esthétique 20
expérimentation 20
fe 20
fiction 20
gard 20
hors 20
iait 20
icerie 20
icité 20
ifiez 20
illa 20
incendie 20
inflation 20
ini 20
institutions 20
interpréter 20
intestin 20
isible 20
isol 20
issiez 20
issé 20
ituer 20
jou 20
lable 20
ld 20
lements 20
leurs 20
log 20
lys 20
mée 20
nais 20
net 20
oct 20
ogènes 20
oie 20
olement 20
olocauste 20
ologiquement 20
onder 20
oney 20
onome 20
oplan 20
osa 20
othérapie 20
oton 20
oublier 20
oureux 20
outes 20
oué 20
prim 20
resseurs 20
rine 20
riv 20
rive 20
rières 20
roger 20
rén 20
souris 20
str 20
terrestres 20
uits 20
urait 20
uster 20
utile 20
venu 20
ym 20
á 20
èg 20
ènent 20
éen 20
érape 20
érents 20
érieur 20
ôte 20
▁10.000 20
▁2006 20
▁40, 20
▁60% 20
▁74 20
▁Acc 20
▁Alan 20
▁Arctique 20
▁Avoir 20
▁BMW 20
▁Bono 20
▁Bor 20
▁CAPTCHA 20
▁CNN 20
▁Cassini 20
▁Certes 20
▁Chez 20
▁Costa 20
▁Dallas 20
▁Dave 20
▁Emma 20
▁FDA 20
▁FMI 20
▁Fais 20
▁Francis 20
▁Grecs 20
▁Green 20
▁Han 20
▁Hawaï 20
▁Jerry 20
▁Journal 20
▁Kathryn 20
▁Khan 20
▁Las 20
▁Marie 20
▁Moïse 20
▁Nairobi 20
▁Nathan 20
▁Nationale 20
▁Nicole 20
▁Peux 20
▁Philip 20
▁Princeton 20
▁QI 20
▁Simplement 20
▁Spoutnik 20
▁Syrie 20
▁TEDx 20
▁Ter 20
▁Toutefois 20
▁Trop 20
▁Ve 20
▁Vegas 20
▁Ver 20
▁Vénus 20
▁Will 20
▁Young 20
▁Zero 20
▁abordé 20
▁académique 20
▁accompag 20
▁accus 20
▁achetons 20
▁activer 20
▁affirmer 20
▁aiguille 20
▁allem 20
▁allég 20
▁amenée 20
▁animé 20
▁appliquée 20
▁aptitude 20
▁aquatique 20
▁arc 20
▁asseoir 20
▁assim 20
▁associées 20
▁assurance 20
▁atteinte 20
▁avan 20
▁avouer 20
▁bab 20
▁bambou 20
▁banal 20
▁banjo 20
▁banquiers 20
▁baril 20
▁battus 20
▁bol 20
▁bosses 20
▁bruy 20
▁brésil 20
▁cab 20
▁cacahu 20
▁caisse 20
▁carit 20
▁carreau 20
▁carrières 20
▁cauchemar 20
▁chantent 20
▁chanté 20
▁cheminées 20
▁choqué 20
▁choré 20
▁chroniques 20
▁cibler 20
▁cigarette 20
▁citoy 20
▁civiques 20
▁clarté 20
▁clou 20
▁comparant 20
▁compatissant 20
▁compens 20
▁complications 20
▁compté 20
▁condu 20
▁confirmer 20
▁consci 20
▁constate 20
▁coopérer 20
▁coordonnées 20
▁correcte 20
▁couch 20
▁courts 20
▁couverts 20
▁couvrent 20
▁coïncidence 20
▁coûter 20
▁coûteuse 20
▁coûté 20
▁cra 20
▁crabe 20
▁créait 20
▁culte 20
▁cyn 20
▁câbl 20
▁cô 20
▁dames 20
▁descendant 20
▁descendus 20
▁devin 20
▁devrons 20
▁digest 20
▁direz 20
▁distinctes 20
▁distincts 20
▁donnerai 20
▁dossiers 20
▁dram 20
▁droites 20
▁décoration 20
▁défauts 20
▁déficit 20
▁définitive 20
▁démocr 20
▁démontre 20
▁dépendant 20
▁déséquilibre 20
▁détaillée 20
▁détecte 20
▁dévo 20
▁dévoiler 20
▁emprun 20
▁enfermé 20
▁enseignements 20
▁enseignent 20
▁entr 20
▁entrep 20
▁entropie 20
▁ethnique 20
▁excuses 20
▁expérimenté 20
▁facilité 20
▁faillite 20
▁fall 20
▁fascinantes 20
▁fat 20
▁faune 20
▁faîtes 20
▁fid 20
▁financièrement 20
▁finissez 20
▁flor 20
▁flu 20
▁fondateur 20
▁fonte 20
▁food 20
▁formées 20
▁frappant 20
▁gangl 20
▁gouttes 20
▁grec 20
▁griffes 20
▁guid 20
▁géologique 20
▁habituel 20
▁haches 20
▁harmonie 20
▁her 20
▁hyp 20
▁immobile 20
▁impatients 20
▁impressionnante 20
▁imprévisible 20
▁indiqué 20
▁indirecte 20
▁infectieuses 20
▁intensément 20
▁intimement 20
▁intuitif 20
▁intéressent 20
▁irait 20
▁italien 20
▁jalousie 20
▁japonaise 20
▁juges 20
▁jure 20
▁libéré 20
▁limit 20
▁localisation 20
▁logistique 20
▁lourde 20
▁ludique 20
▁lycé 20
▁légend 20
▁législation 20
▁légitime 20
▁létales 20
▁manquent 20
▁matéri 20
▁mensonges 20
▁mentalité 20
▁mentaux 20
▁mesurons 20
▁migraines 20
▁mosquée 20
▁motivé 20
▁multinationales 20
▁music 20
▁mystérieuse 20
▁méditer 20
▁numériser 20
▁nœuds 20
▁obscur 20
▁observent 20
▁océanique 20
▁officielle 20
▁offrent 20
▁optiques 20
▁orth 20
▁pac 20
▁paient 20
▁parap 20
▁parier 20
▁parven 20
▁parvient 20
▁passages 20
▁passionnante 20
▁path 20
▁payez 20
▁pertin 20
▁pieuvre 20
▁pigmentation 20
▁pitch 20
▁plain 20
▁plaisanterie 20
▁possession 20
▁poussant 20
▁projette 20
▁prote 20
▁précéd 20
▁préférences 20
▁préférez 20
▁préparés 20
▁prêtre 20
▁puiss 20
▁punition 20
▁périodique 20
▁quinze 20
▁quotidiennes 20
▁rails 20
▁ralentit 20
▁reconnaissez 20
▁reconnaissons 20
▁recouver 20
▁recouvert 20
▁recr 20
▁redescend 20
▁reliés 20
▁renvoyer 20
▁repartir 20
▁représentait 20
▁représentants 20
▁retenu 20
▁roupies 20
▁réalisateur 20
▁réflexions 20
▁références 20
▁rén 20
▁réparti 20
▁résoud 20
▁savane 20
▁sch 20
▁sections 20
▁seringues 20
▁serveurs 20
▁ski 20
▁sor 20
▁souche 20
▁soucis 20
▁soulevé 20
▁soumet 20
▁soutiennent 20
▁soviétique 20
▁squelettes 20
▁stigmat 20
▁stér 20
▁superfic 20
▁sélectionner 20
▁tab 20
▁taches 20
▁tempér 20
▁tennis 20
▁trag 20
▁traitée 20
▁traumat 20
▁trembl 20
▁tribunal 20
▁trés 20
▁valable 20
▁valve 20
▁vaud 20
▁vecteur 20
▁veille 20
▁vendeurs 20
▁verd 20
▁vess 20
▁virage 20
▁vive 20
▁voisinage 20
▁voiturette 20
▁voyiez 20
▁végétation 20
▁végétaux 20
▁Écoutez 20
▁élaborer 20
▁épinière 20
▁épouvantable 20
▁équitable 20
▁étonné 20
▁évaluation 20
60 19
Bonjour 19
Empire 19
Espagne 19
IC 19
OT 19
PT 19
St 19
abus 19
accidents 19
accum 19
accéder 19
acquisition 19
adapt 19
affir 19
agers 19
aissait 19
ajout 19
aker 19
alphabétisation 19
ambre 19
amin 19
ampl 19
angé 19
anou 19
apa 19
apor 19
appartenance 19
apprécier 19
aqu 19
aquarium 19
articul 19
assemble 19
aster 19
asthme 19
aton 19
auf 19
aul 19
aviation 19
bres 19
ceau 19
cents 19
cial 19
cr 19
ctique 19
die 19
elin 19
emplacement 19
ender 19
eneur 19
enneté 19
entret 19
eraient 19
essay 19
existaient 19
expert 19
exploiter 19
expériment 19
extr 19
extraordinaire 19
fl 19
ford 19
gar 19
gg 19
gs 19
habit 19
horreur 19
icier 19
icul 19
iendront 19
ifiante 19
ilés 19
ima 19
imal 19
imbourg 19
injustice 19
installe 19
institut 19
intérêts 19
inégalité 19
irai 19
isants 19
isseurs 19
lation 19
lect 19
lie 19
lim 19
line 19
lique 19
lées 19
lég 19
merger 19
million 19
mique 19
mont 19
neurs 19
oder 19
olutions 19
onds 19
onstruis 19
orbite 19
organisations 19
osaure 19
ozone 19
quait 19
qui 19
raille 19
ram 19
reg 19
rem 19
riter 19
rivez 19
ross 19
royable 19
rètement 19
sière 19
soci 19
terme 19
texte 19
uable 19
ueuses 19
ulsions 19
uscule 19
utilisez 19
vard 19
vas 19
vée 19
wa 19
yme 19
èrement 19
économiser 19
écoule 19
érieure 19
ésie 19
éteindre 19
éth 19
évoluer 19
▁1,3 19
▁1.000 19
▁186 19
▁2004. 19
▁2007 19
▁2008 19
▁2009 19
▁2020. 19
▁39 19
▁68 19
▁70. 19
▁73 19
▁78 19
▁95% 19
▁99, 19
▁:" 19
▁Abraham 19
▁Ac 19
▁Arrêtez 19
▁Babylone 19
▁Barack 19
▁Barry 19
▁Blue 19
▁Bombay 19
▁Bond 19
▁Boudd 19
▁Cancer 19
▁Central 19
▁Centrale 19
▁Conc 19
▁Copernic 19
▁Cro 19
▁DARPA 19
▁DJ 19
▁Derrière 19
▁Dés 19
▁Elizabeth 19
▁Fred 19
▁Gordon 19
▁Ground 19
▁Her 19
▁Holl 19
▁Hy 19
▁Islam 19
▁Jackson 19
▁Jean 19
▁Katrina 19
▁Kepler 19
▁Magazine 19
▁Maldives 19
▁Margaret 19
▁Math 19
▁Mettez 19
▁Michigan 19
▁Murray 19
▁Népal 19
▁Olympiques 19
▁Panbanisha 19
▁Parad 19
▁Pepsi 19
▁Pier 19
▁Pink 19
▁Portugal 19
▁Pourrions 19
▁Pâques 19
▁Pérou 19
▁RG 19
▁Ram 19
▁Romo 19
▁République 19
▁Sar 19
▁Saviez 19
▁Septembre 19
▁Sida 19
▁Soci 19
▁Sol 19
▁Sri 19
▁Stirling 19
▁Sén 19
▁Ted 19
▁Trav 19
▁Village 19
▁Voulez 19
▁White 19
▁Wil 19
▁Women 19
▁XIX 19
▁Yale 19
▁Zéro 19
▁abandonnés 19
▁abeille 19
▁absorbe 19
▁accessoire 19
▁adaptation 19
▁adhérer 19
▁affectés 19
▁agence 19
▁aiguilles 19
▁aillent 19
▁aimants 19
▁album 19
▁alimente 19
▁alimentée 19
▁améliorations 19
▁anneau 19
▁annuel 19
▁apparition 19
▁architectur 19
▁asseyez 19
▁asso 19
▁assurément 19
▁attent 19
▁attentifs 19
▁audience 19
▁augmentant 19
▁austral 19
▁autorité 19
▁avancés 19
▁aéroports 19
▁aî 19
▁bac 19
▁baiser 19
▁balan 19
▁banqu 19
▁bars 19
▁biologiquement 19
▁biomatéri 19
▁bonhomme 19
▁boulanger 19
▁boulangerie 19
▁brise 19
▁buv 19
▁bêt 19
▁bêtes 19
▁calcaire 19
▁cancére 19
▁carburants 19
▁cast 19
▁cath 19
▁cathédrale 19
▁centrifuge 19
▁chameaux 19
▁changera 19
▁changerait 19
▁chap 19
▁charger 19
▁chargée 19
▁chauffage 19
▁chiff 19
▁chirurgicale 19
▁cieux 19
▁cigarettes 19
▁circulent 19
▁citations 19
▁clar 19
▁clichés 19
▁clôture 19
▁cocktail 19
▁coff 19
▁commandement 19
▁commettre 19
▁compagnon 19
▁complètes 19
▁comptons 19
▁conduisant 19
▁confrontée 19
▁congrès 19
▁conn 19
▁considérés 19
▁conspiration 19
▁const 19
▁conséc 19
▁contempor 19
▁contenait 19
▁correspondre 19
▁coute 19
▁coïnc 19
▁craie 19
▁crimin 19
▁crypt 19
▁crédible 19
▁dansent 19
▁datant 19
▁devenant 19
▁devise 19
▁discutons 19
▁documenter 19
▁donna 19
▁donneur 19
▁dor 19
▁durent 19
▁débutant 19
▁déclarer 19
▁décéd 19
▁démarr 19
▁déplacés 19
▁déploie 19
▁dî 19
▁empires 19
▁emplacement 19
▁employe 19
▁encyclopédie 19
▁engendre 19
▁enregistre 19
▁envoy 19
▁enzymes 19
▁essay 19
▁excit 19
▁excuse 19
▁exigences 19
▁expositions 19
▁expérimental 19
▁extraterrestres 19
▁extrémité 19
▁faille 19
▁favorable 19
▁façonner 19
▁fichiers 19
▁finances 19
▁flotter 19
▁fonctionnalité 19
▁forage 19
▁fortune 19
▁forum 19
▁française 19
▁frontal 19
▁fuir 19
▁fumer 19
▁gain 19
▁gains 19
▁gav 19
▁germes 19
▁gobelets 19
▁gor 19
▁goûts 19
▁graisses 19
▁gratitude 19
▁guise 19
▁généalog 19
▁gêne 19
▁habillé 19
▁heurt 19
▁hyperb 19
▁imaginaire 19
▁impressionné 19
▁impulsions 19
▁inattendu 19
▁inciter 19
▁indigènes 19
▁inexpl 19
▁informés 19
▁ing 19
▁inondations 19
▁inquiète 19
▁inquiétant 19
▁installés 19
▁intact 19
▁intellectuels 19
▁intermédiaires 19
▁interprét 19
▁interrupteur 19
▁intestin 19
▁intimid 19
▁intit 19
▁intègre 19
▁invitation 19
▁inéd 19
▁journées 19
▁ju 19
▁jume 19
▁juvén 19
▁kil 19
▁kit 19
▁lancent 19
▁largeur 19
▁lents 19
▁libertés 19
▁lingu 19
▁lisant 19
▁logements 19
▁maltrait 19
▁manette 19
▁mangeaient 19
▁mangeait 19
▁marcherait 19
▁marionnettes 19
▁marqueur 19
▁mas 19
▁maxim 19
▁mers 19
▁migration 19
▁minimiser 19
▁mobiliser 19
▁modifiée 19
▁modél 19
▁montrerai 19
▁montrés 19
▁moquer 19
▁moyennes 19
▁muse 19
▁musulmane 19
▁mécan 19
▁méduses 19
▁méf 19
▁nanomètres 19
▁nanotechnologie 19
▁narrateur 19
▁neurologiques 19
▁neuroscience 19
▁nigéri 19
▁noble 19
▁noyaux 19
▁négociation 19
▁onde 19
▁opérateurs 19
▁ordures 19
▁originelle 19
▁oubliez 19
▁pacifique 19
▁papillons 19
▁parf 19
▁parfaites 19
▁parles 19
▁parvenu 19
▁parviennent 19
▁payons 19
▁pellicule 19
▁perçoit 19
▁perçu 19
▁photosynthèse 19
▁physiologie 19
▁phénoménal 19
▁pigeon 19
▁piétons 19
▁plac 19
▁planétaires 19
▁poil 19
▁poin 19
▁policier 19
▁portaient 19
▁poussée 19
▁poètes 19
▁primitif 19
▁produira 19
▁progresse 19
▁promote 19
▁propositions 19
▁provenance 19
▁préciser 19
▁précédents 19
▁prélev 19
▁prélevé 19
▁publicitaire 19
▁publiées 19
▁quelquefois 19
▁rajouter 19
▁rall 19
▁ramassé 19
▁rapp 19
▁rebelles 19
▁reconstru 19
▁recrut 19
▁reg 19
▁regrets 19
▁rejo 19
▁relâche 19
▁relâcher 19
▁remplit 19
▁requiert 19
▁restauration 19
▁retours 19
▁rideau 19
▁ruches 19
▁rudiment 19
▁rythmes 19
▁réacteur 19
▁réagit 19
▁réalisez 19
▁récipient 19
▁récoltes 19
▁récompens 19
▁réduits 19
▁résistant 19
▁rétic 19
▁réunies 19
▁réussie 19
▁réussites 19
▁san 19
▁satisfaits 19
▁scolar 19
▁signifient 19
▁silicone 19
▁similar 19
▁solo 19
▁sortait 19
▁sortons 19
▁spect 19
▁sports 19
▁steak 19
▁stric 19
▁suivis 19
▁supposés 19
▁synapses 19
▁synonyme 19
▁séance 19
▁sédiments 19
▁séduis 19
▁sérieuses 19
▁séropos 19
▁sévères 19
▁tailles 19
▁tatouage 19
▁taxes 19
▁temporaire 19
▁tempore 19
▁tempêtes 19
▁tentant 19
▁tenue 19
▁territ 19
▁testés 19
▁tord 19
▁tortue 19
▁toutefois 19
▁traf 19
▁transmise 19
▁transporté 19
▁tre 19
▁tridimension 19
▁trip 19
▁tristes 19
▁trompé 19
▁troupeaux 19
▁trouva 19
▁twe 19
▁témoignage 19
▁usages 19
▁vainc 19
▁variétés 19
▁vitesses 19
▁vocale 19
▁volcans 19
▁vêtement 19
▁weekend 19
▁âges 19
▁écrivait 19
▁éloignées 19
▁élégant 19
▁émis 19
▁épargne 19
▁étal 19
▁étrangement 19
-4 18
.' 18
Ad 18
Agence 18
Att 18
Au 18
BM 18
EP 18
IA 18
Ok 18
Stop 18
UC 18
accélère 18
accélération 18
acées 18
adapte 18
ae 18
agère 18
aiguille 18
aisie 18
aks 18
alie 18
alphabet 18
anches 18
anda 18
appellerais 18
arrêtaient 18
atelier 18
atement 18
bur 18
bure 18
chais 18
change 18
charge 18
chers 18
chir 18
clé 18
cope 18
dig 18
ducteur 18
enseignants 18
enseur 18
enter 18
entrainement 18
envoie 18
erne 18
examiner 18
explo 18
extraction 18
extrémité 18
fin 18
gan 18
hane 18
honnêteté 18
human 18
iaient 18
idement 18
iert 18
iforme 18
improvisation 18
inaison 18
influ 18
init 18
isement 18
ism 18
istant 18
iti 18
léaire 18
mais 18
matiques 18
mentation 18
méd 18
més 18
ocie 18
ogén 18
oint 18
olage 18
olique 18
olive 18
ombrables 18
ombres 18
opie 18
opsie 18
optimisme 18
option 18
orange 18
orcer 18
orté 18
other 18
oulent 18
ourg 18
ourne 18
ouvent 18
ouvoir 18
oyant 18
plus 18
rale 18
reinte 18
reté 18
riment 18
rison 18
sy 18
tru 18
ua 18
ubl 18
umeur 18
umeurs 18
ustr 18
van 18
veill 18
venue 18
yr 18
èdes 18
èlement 18
èses 18
échapp 18
édiction 18
éisme 18
élic 18
émat 18
émiques 18
éol 18
évaluer 18
œur 18
▁1,2 18
▁110 18
▁188 18
▁1960 18
▁1990. 18
▁1995, 18
▁2002. 18
▁2004 18
▁4. 18
▁5.000 18
▁53 18
▁56 18
▁Amsterdam 18
▁Américaine 18
▁Armstrong 18
▁BR 18
▁Ball 18
▁Beethoven 18
▁Bhoutan 18
▁Bruno 18
▁CIA 18
▁CM 18
▁Chap 18
▁Clairement 18
▁Columbia 18
▁Cr 18
▁Demandez 18
▁Droits 18
▁Galilée 18
▁Galois 18
▁Gold 18
▁Had 18
▁Haw 18
▁Huit 18
▁Hyun 18
▁Ja 18
▁Joy 18
▁Julian 18
▁Kab 18
▁Lawrence 18
▁Len 18
▁Mahmoud 18
▁Nevada 18
▁Now 18
▁Os 18
▁PH 18
▁Palestine 18
▁Paulo 18
▁Pentagone 18
▁Personnellement 18
▁Pet 18
▁Reste 18
▁Roger 18
▁Roosevelt 18
▁Sil 18
▁Sook 18
▁Susan 18
▁Sénat 18
▁TS 18
▁Tamiflu 18
▁Tandis 18
▁Techn 18
▁University 18
▁Val 18
▁YR 18
▁Yorker 18
▁Yves 18
▁Ze 18
▁adaptée 18
▁addition 18
▁adhésif 18
▁admet 18
▁administ 18
▁advers 18
▁affirmation 18
▁aides 18
▁aimeraient 18
▁ajust 18
▁ajuster 18
▁alloc 18
▁allong 18
▁ambiante 18
▁ambition 18
▁anesthésie 18
▁anges 18
▁animations 18
▁anom 18
▁anticip 18
▁aqu 18
▁arrivaient 18
▁assemblé 18
▁assi 18
▁assoc 18
▁associations 18
▁astronautes 18
▁athées 18
▁attachée 18
▁attente 18
▁attentif 18
▁attirent 18
▁attr 18
▁audition 18
▁auteur 18
▁autoroutes 18
▁avancez 18
▁avatar 18
▁baguette 18
▁barils 18
▁battant 18
▁bizarrement 18
▁boissons 18
▁boucles 18
▁boum 18
▁bousier 18
▁bri 18
▁brillent 18
▁bâti 18
▁bénéfic 18
▁camarade 18
▁camera 18
▁capit 18
▁carotte 18
▁causée 18
▁caval 18
▁censée 18
▁certes 18
▁certificat 18
▁cha 18
▁chantier 18
▁choquant 18
▁circulaire 18
▁clairs 18
▁coeurs 18
▁collections 18
▁commander 18
▁commencera 18
▁comportemental 18
▁composantes 18
▁comprenais 18
▁compteur 18
▁concret 18
▁conducteurs 18
▁conduisez 18
▁confir 18
▁confirm 18
▁confér 18
▁connaiss 18
▁consol 18
▁consommons 18
▁consulter 18
▁continuum 18
▁coupée 18
▁cous 18
▁coûteuses 18
▁crains 18
▁craint 18
▁crash 18
▁cratère 18
▁critiquer 18
▁croissant 18
▁croûte 18
▁cueill 18
▁cuire 18
▁célibataire 18
▁célébr 18
▁descendants 18
▁devenaient 18
▁diagnostique 18
▁diagnostiquer 18
▁dialog 18
▁diffusé 18
▁diplômes 18
▁dir 18
▁disparait 18
▁dors 18
▁dotés 18
▁dues 18
▁dune 18
▁dures 18
▁déchiffrer 18
▁déchiré 18
▁décida 18
▁décidez 18
▁décollé 18
▁décrivent 18
▁défavor 18
▁définitions 18
▁dégage 18
▁dégrade 18
▁dépassent 18
▁dépistage 18
▁déploiement 18
▁désagré 18
▁détente 18
▁détresse 18
▁développeurs 18
▁effondré 18
▁embryonn 18
▁empr 18
▁empêchent 18
▁encad 18
▁enregistrée 18
▁envahi 18
▁espérance 18
▁excess 18
▁excitée 18
▁exclu 18
▁exemplaires 18
▁existants 18
▁explic 18
▁expliquant 18
▁exploration 18
▁explosions 18
▁expérimentale 18
▁faibl 18
▁faiblesse 18
▁fameux 18
▁fauteuils 18
▁filtrer 18
▁fondateurs 18
▁forcés 18
▁froides 18
▁gants 18
▁geeks 18
▁gir 18
▁glucides 18
▁guéri 18
▁génèrent 18
▁générée 18
▁his 18
▁host 18
▁hu 18
▁humides 18
▁hybride 18
▁i 18
▁idéaux 18
▁ignore 18
▁illust 18
▁imite 18
▁immobil 18
▁inadéqu 18
▁inaug 18
▁incendies 18
▁inconfort 18
▁incré 18
▁inefficace 18
▁interagit 18
▁interc 18
▁intrinsèque 18
▁intéressons 18
▁investissons 18
▁invitée 18
▁iron 18
▁jetée 18
▁jol 18
▁lacs 18
▁laissés 18
▁lancés 18
▁laps 18
▁larves 18
▁lauré 18
▁linguistique 18
▁lisais 18
▁lisse 18
▁loterie 18
▁lumineuse 18
▁légalement 18
▁machinerie 18
▁magnifiquement 18
▁magnitude 18
▁mail 18
▁major 18
▁malheureuse 18
▁manche 18
▁marijuana 18
▁mariés 18
▁marre 18
▁masques 18
▁mente 18
▁menées 18
▁messagerie 18
▁mexic 18
▁mil 18
▁moche 18
▁mond 18
▁montait 18
▁montez 18
▁moustiquaire 18
▁multiplier 18
▁mécaniques 18
▁nano 18
▁nettement 18
▁nourris 18
▁néglige 18
▁obl 18
▁obsolète 18
▁obé 18
▁ombres 18
▁ongles 18
▁orbit 18
▁organisés 18
▁paille 18
▁paralysés 18
▁persist 18
▁pertinente 18
▁photovolt 18
▁placez 18
▁plis 18
▁pneumonie 18
▁pointer 18
▁pompier 18
▁portions 18
▁poursuivi 18
▁prairie 18
▁pres 18
▁prior 18
▁prières 18
▁profs 18
▁projecteur 18
▁promet 18
▁proportions 18
▁protègent 18
▁prouve 18
▁proven 18
▁préal 18
▁précaution 18
▁préconç 18
▁prépare 18
▁présentant 18
▁prévoy 18
▁prévue 18
▁puberté 18
▁publiés 18
▁pôles 18
▁raccourci 18
▁racontait 18
▁racontant 18
▁rafraî 18
▁rangée 18
▁ratio 18
▁recruter 18
▁redesc 18
▁regardée 18
▁rejeté 18
▁relax 18
▁rencontrées 18
▁rende 18
▁renseignements 18
▁reprise 18
▁repère 18
▁restons 18
▁retrans 18
▁royal 18
▁ruines 18
▁réacteurs 18
▁réagissons 18
▁récents 18
▁récip 18
▁réconciliation 18
▁récupération 18
▁réfléchissent 18
▁réglé 18
▁régulier 18
▁réplicateur 18
▁répondaient 18
▁républic 18
▁résistants 18
▁sabbatique 18
▁sables 18
▁sanitaire 18
▁sculp 18
▁sembl 18
▁signifier 18
▁situés 18
▁sms 18
▁socio 18
▁soif 18
▁soja 18
▁sommets 18
▁soucient 18
▁souhaiterais 18
▁souhaits 18
▁soulagement 18
▁souples 18
▁statist 18
▁stocks 18
▁stopp 18
▁stopper 18
▁subst 18
▁subtil 18
▁surpr 18
▁survit 18
▁symb 18
▁systématique 18
▁sédu 18
▁talentueux 18
▁technicien 18
▁temporelle 18
▁tensions 18
▁tom 18
▁torn 18
▁touchez 18
▁touchés 18
▁toxic 18
▁tracer 18
▁tranquillement 18
▁transit 18
▁transportée 18
▁trouviez 18
▁tueur 18
▁télécommande 18
▁témoins 18
▁urgent 18
▁utilisable 18
▁valoir 18
▁variées 18
▁verbes 18
▁verticalement 18
▁vest 18
▁violation 18
▁visites 18
▁vivement 18
▁vocation 18
▁volontiers 18
▁voudront 18
▁zo 18
▁éclaire 18
▁éducatifs 18
▁égard 18
▁électron 18
▁élégante 18
▁épaisse 18
▁épous 18
▁épouse 18
▁équipés 18
▁éternellement 18
▁étouff 18
▁évac 18
▁éve 18
▁évolutive 18
* 17
-1 17
.” 17
ARN 17
Afric 17
Alaska 17
Américain 17
Ap 17
Egypte 17
He 17
IMS 17
Inter 17
LA 17
Merci 17
Ouais 17
abl 17
acles 17
activités 17
add 17
agrand 17
airs 17
aisance 17
alerte 17
aliments 17
alin 17
alles 17
alu 17
amer 17
amine 17
ancé 17
anesthésie 17
ank 17
annonce 17
ano 17
appareils 17
appuyer 17
architectes 17
armement 17
arri 17
arrivait 17
asie 17
attendent 17
atter 17
attrib 17
audace 17
audio 17
aïques 17
ba 17
bal 17
bation 17
belle 17
caux 17
cente 17
chaient 17
comp 17
conflit 17
cont 17
edia 17
embl 17
enant 17
enses 17
envoy 17
errement 17
ersion 17
erver 17
ese 17
estation 17
ettre 17
extension 17
exécution 17
ey 17
ft 17
gram 17
habiller 17
hist 17
hé 17
ications 17
iceberg 17
identification 17
ignor 17
igü 17
imaginable 17
imi 17
immobilier 17
incar 17
inconnu 17
infirmière 17
inger 17
inos 17
intermédiaire 17
inters 17
intr 17
intrigue 17
invisible 17
iotiques 17
iquées 17
ito 17
itons 17
ituels 17
iver 17
jan 17
kin 17
lev 17
mie 17
mo 17
monde 17
ning 17
obi 17
obtiens 17
oins 17
omo 17
oot 17
opt 17
optim 17
orp 17
orth 17
oses 17
oues 17
ouff 17
ourse 17
pet 17
quaient 17
quets 17
rans 17
ressive 17
retours 17
rill 17
rogènes 17
rompt 17
ronom 17
rète 17
ube 17
ueilleurs 17
uleux 17
uranium 17
urt 17
uteur 17
wan 17
yer 17
yeux 17
Écoutez 17
èces 17
èdre 17
èter 17
ètres 17
échantillons 17
écurité 17
éder 17
édia 17
éens 17
émotions 17
énagement 17
épu 17
étrie 17
étés 17
évaluation 17
îtres 17
▁000, 17
▁125 17
▁189 17
▁2010. 17
▁202 17
▁30. 17
▁57 17
▁99% 17
▁AG 17
▁AIMS 17
▁Acumen 17
▁Afin 17
▁Aj 17
▁Bag 17
▁Bank 17
▁Benki 17
▁Bertie 17
▁Bienvenue 17
▁Bretagne 17
▁Bruce 17
▁CE 17
▁CP 17
▁Cam 17
▁Chrét 17
▁Colombie 17
▁Cur 17
▁DG 17
▁Dem 17
▁Déc 17
▁Em 17
▁FOXO 17
▁Freud 17
▁Gard 17
▁Gardez 17
▁Grace 17
▁Géorgie 17
▁IV 17
▁Imaginons 17
▁Inc 17
▁Int 17
▁Islande 17
▁Jac 17
▁Jimmy 17
▁Kamen 17
▁Keith 17
▁Latine 17
▁Libéria 17
▁Lum 17
▁Léonard 17
▁MI 17
▁Madame 17
▁Mai 17
▁Miller 17
▁Moins 17
▁Molas 17
▁Ouest 17
▁Philadelphie 17
▁Point 17
▁Pop 17
▁Post 17
▁Rachel 17
▁Ric 17
▁Rod 17
▁Rom 17
▁Roy 17
▁SDF 17
▁Sciences 17
▁Sergio 17
▁Sortez 17
▁State 17
▁Tennessee 17
▁Télé 17
▁Ven 17
▁Venter 17
▁Wa 17
▁Water 17
▁aborde 17
▁absorber 17
▁abî 17
▁accabl 17
▁act 17
▁actionnaires 17
▁afghan 17
▁agré 17
▁aiderait 17
▁aimant 17
▁aimeriez 17
▁alg 17
▁amies 17
▁amoureuse 17
▁amènent 17
▁analog 17
▁anorm 17
▁anticiper 17
▁anx 17
▁arché 17
▁arg 17
▁assass 17
▁astronomique 17
▁athlètes 17
▁atom 17
▁attén 17
▁autobi 17
▁aérodynam 17
▁bancs 17
▁banquise 17
▁batailles 17
▁bonbons 17
▁bonjour 17
▁botan 17
▁bourses 17
▁bousiers 17
▁branché 17
▁bronze 17
▁brouill 17
▁budg 17
▁bug 17
▁caillou 17
▁candid 17
▁cardiologie 17
▁carnet 17
▁cartographie 17
▁cassettes 17
▁catastrophique 17
▁censure 17
▁centré 17
▁chants 17
▁cherchais 17
▁choisie 17
▁cire 17
▁cités 17
▁cla 17
▁cland 17
▁classer 17
▁cogn 17
▁collisions 17
▁coloss 17
▁comb 17
▁combattants 17
▁comparaisons 17
▁compartiment 17
▁concurrents 17
▁confusion 17
▁congé 17
▁conj 17
▁constructeur 17
▁consultation 17
▁contempler 17
▁copié 17
▁corbe 17
▁cot 17
▁cousin 17
▁couteaux 17
▁coûtait 17
▁crayons 17
▁creux 17
▁croît 17
▁cuisinier 17
▁curieusement 17
▁dan 17
▁dat 17
▁devront 17
▁diff 17
▁diffusée 17
▁dirent 17
▁disproportion 17
▁disting 17
▁distingue 17
▁divisent 17
▁dominer 17
▁dominé 17
▁donneurs 17
▁doubl 17
▁douze 17
▁drogués 17
▁déchir 17
▁défic 17
▁délai 17
▁délég 17
▁démographie 17
▁dépendons 17
▁déposé 17
▁déprimés 17
▁déterminent 17
▁détéri 17
▁embau 17
▁empiler 17
▁emprunté 17
▁enfer 17
▁enje 17
▁ennuyeuse 17
▁enrac 17
▁entendus 17
▁enterré 17
▁entourés 17
▁entretenir 17
▁enver 17
▁envis 17
▁envoyait 17
▁envoyées 17
▁euros 17
▁exécuter 17
▁facilit 17
▁familiar 17
▁favelas 17
▁fesses 17
▁fidèle 17
▁flexibles 17
▁fonder 17
▁forcée 17
▁formuler 17
▁formules 17
▁fournisseur 17
▁fragiles 17
▁frappée 17
▁friction 17
▁frustrés 17
▁furieux 17
▁fél 17
▁félic 17
▁féminisme 17
▁gagnants 17
▁gamma 17
▁gaspiller 17
▁glacée 17
▁gosse 17
▁grandissante 17
▁gratuites 17
▁gribouill 17
▁grimpe 17
▁géniales 17
▁géométrique 17
▁gér 17
▁habitats 17
▁humble 17
▁hélice 17
▁hôte 17
▁id 17
▁immédiat 17
▁improv 17
▁impératif 17
▁incitations 17
▁incontrô 17
▁incul 17
▁indisp 17
▁informer 17
▁innovants 17
▁interrogé 17
▁intervenants 17
▁inventeur 17
▁itin 17
▁joint 17
▁jolies 17
▁jugements 17
▁jury 17
▁langages 17
▁lar 17
▁lex 17
▁lic 17
▁limitées 17
▁linge 17
▁litre 17
▁lueur 17
▁magnétiques 17
▁mam 17
▁manne 17
▁marathon 17
▁mascul 17
▁massacre 17
▁massivement 17
▁menacées 17
▁mess 17
▁mettiez 17
▁migr 17
▁millimètres 17
▁mirac 17
▁modification 17
▁monopole 17
▁monstres 17
▁montés 17
▁morph 17
▁motor 17
▁musculaires 17
▁mystique 17
▁mâ 17
▁naz 17
▁neut 17
▁nocivité 17
▁nutrit 17
▁nœud 17
▁obligations 17
▁oblige 17
▁occupée 17
▁ond 17
▁opéré 17
▁org 17
▁orienté 17
▁osse 17
▁ouh 17
▁pareille 17
▁pareilles 17
▁penché 17
▁percevons 17
▁perles 17
▁perman 17
▁pleuré 17
▁plume 17
▁politicien 17
▁polymère 17
▁posons 17
▁potentiels 17
▁pou 17
▁pourri 17
▁poursu 17
▁prendrais 17
▁prit 17
▁proie 17
▁prospère 17
▁provoc 17
▁précur 17
▁prématur 17
▁préoccupent 17
▁préoccupé 17
▁prétendre 17
▁prêté 17
▁publiquement 17
▁pulvér 17
▁punir 17
▁pèler 17
▁pès 17
▁pédiat 17
▁quotidiens 17
▁rac 17
▁raccour 17
▁raci 17
▁radar 17
▁rajout 17
▁rectangle 17
▁reculer 17
▁reculé 17
▁refer 17
▁reflètent 17
▁refuse 17
▁reins 17
▁rejoignent 17
▁rentrés 17
▁report 17
▁représentatif 17
▁restrictions 17
▁retournent 17
▁retournez 17
▁revenait 17
▁rhume 17
▁ridicul 17
▁rigide 17
▁rive 17
▁robinet 17
▁ronde 17
▁récupère 17
▁réfléchissais 17
▁réguler 17
▁répl 17
▁rétroaction 17
▁saines 17
▁sauc 17
▁saumon 17
▁saurez 17
▁savon 17
▁scarab 17
▁sceptique 17
▁sceptiques 17
▁semences 17
▁sentie 17
▁sessions 17
▁simplifier 17
▁sincère 17
▁sir 17
▁soix 17
▁solennel 17
▁solitude 17
▁soucie 17
▁soupçonne 17
▁spiritualité 17
▁spores 17
▁stationnement 17
▁stop 17
▁strictement 17
▁sty 17
▁subt 17
▁sucres 17
▁suey 17
▁suive 17
▁supermass 17
▁supprimé 17
▁surgit 17
▁survient 17
▁suspendue 17
▁sy 17
▁synesthésie 17
▁sélectionné 17
▁séquencé 17
▁séropositifs 17
▁taire 17
▁tentation 17
▁teste 17
▁testostérone 17
▁tofu 17
▁touristes 17
▁traitées 17
▁transparente 17
▁traumatisme 17
▁traîne 17
▁trentaine 17
▁typographie 17
▁ult 17
▁ved 17
▁vendait 17
▁ventil 17
▁vieillir 17
▁vielle 17
▁vietnam 17
▁villageois 17
▁violences 17
▁violentes 17
▁viser 17
▁visuellement 17
▁volts 17
▁von 17
▁voudra 17
▁vérifié 17
▁écrasé 17
▁élus 17
▁émergents 17
▁éparp 17
▁éthiop 17
▁évolutif 17
,000 16
.". 16
.: 16
500 16
AA 16
Ab 16
Ach 16
Alexand 16
Avez 16
Ed 16
Elle 16
Es 16
Har 16
IP 16
Ile 16
Indonésie 16
NG 16
OP 16
Rouge 16
US 16
acceptation 16
accouplement 16
accumulent 16
acquérir 16
acts 16
aga 16
aibl 16
aimerai 16
ainer 16
aka 16
allaient 16
allumer 16
alogue 16
ambul 16
ames 16
amuse 16
améliorent 16
anch 16
anche 16
ancée 16
anson 16
apartheid 16
aron 16
arte 16
asc 16
athan 16
atterrissage 16
atur 16
auté 16
aveug 16
avid 16
awatts 16
azz 16
aîtront 16
confus 16
connect 16
cture 16
ctures 16
eaux 16
ela 16
elins 16
embr 16
ener 16
enrich 16
ensuite 16
envergure 16
envoler 16
esc 16
estes 16
estimer 16
ettez 16
expérimenter 16
finance 16
ga 16
gypt 16
habite 16
hal 16
historique 16
ho 16
hyp 16
iculaire 16
idences 16
ight 16
igé 16
ilà 16
imètre 16
incroy 16
insectes 16
inspir 16
instructions 16
instruments 16
interromp 16
intègre 16
intégralité 16
inventeur 16
ior 16
iphan 16
issance 16
itative 16
itor 16
itres 16
izz 16
jet 16
kins 16
lave 16
liquer 16
llez 16
mal 16
mod 16
mun 16
mure 16
nal 16
ocratique 16
ographies 16
olie 16
omes 16
ool 16
opposition 16
organise 16
orgasme 16
oris 16
phab 16
pied 16
pourquoi 16
pse 16
quettes 16
raf 16
rect 16
resses 16
retour 16
riche 16
rolog 16
run 16
ruption 16
rès 16
tenant 16
tend 16
ti 16
uables 16
unt 16
urbanisation 16
ustrie 16
utation 16
utilité 16
viend 16
xe 16
xt 16
zaine 16
Â 16
èches 16
écan 16
échanger 16
écout 16
éduquer 16
éliens 16
émerveillement 16
éraire 16
éraux 16
érol 16
étudiais 16
éty 16
événements 16
ême 16
êtons 16
êté 16
ü 16
▁$. 16
▁( 16
▁0. 16
▁15% 16
▁2050. 16
▁3,5 16
▁41 16
▁58 16
▁89 16
▁Aidez 16
▁Alexander 16
▁Allem 16
▁Amanda 16
▁Apparemment 16
▁Assez 16
▁Batman 16
▁Bi 16
▁Bol 16
▁Bureau 16
▁CL 16
▁Conn 16
▁Constru 16
▁Cont 16
▁DDT 16
▁Deep 16
▁Dimitri 16
▁Dis 16
▁Doha 16
▁Dépression 16
▁ET 16
▁Ethiopie 16
▁Européens 16
▁Excellent 16
▁FBI 16
▁Faucon 16
▁Fondament 16
▁Fox 16
▁Fro 16
▁Garçon 16
▁Great 16
▁IBM 16
▁III 16
▁Kim 16
▁Lama 16
▁Langley 16
▁Lui 16
▁Luke 16
▁MA 16
▁Mahatma 16
▁Marshall 16
▁Maslow 16
▁NA 16
▁NM 16
▁Nollywood 16
▁Nouveau 16
▁Observez 16
▁Pap 16
▁Philippines 16
▁Prize 16
▁Présent 16
▁RD 16
▁Radio 16
▁Reed 16
▁Research 16
▁Rub 16
▁SLA 16
▁ST 16
▁Sobule 16
▁Stat 16
▁Stockholm 16
▁Stone 16
▁Sub 16
▁Sudhir 16
▁Superman 16
▁Sérieusement 16
▁Temp 16
▁Titanic 16
▁Tro 16
▁Type 16
▁Union 16
▁Venezuela 16
▁Vermeer 16
▁Verte 16
▁Vi 16
▁Virgin 16
▁Williams 16
▁Worldchanging 16
▁Zo 16
▁abattre 16
▁abondante 16
▁abordables 16
▁absence 16
▁accueillir 16
▁adaptées 16
▁affir 16
▁aire 16
▁ais 16
▁ajoutée 16
▁alerte 16
▁alpinistes 16
▁altern 16
▁alternatif 16
▁animales 16
▁annon 16
▁antenne 16
▁antiangiogén 16
▁apercevoir 16
▁aperçus 16
▁apportons 16
▁apprenant 16
▁appét 16
▁aps 16
▁arrang 16
▁arriverons 16
▁ascend 16
▁asiatique 16
▁assistant 16
▁astr 16
▁astuce 16
▁athl 16
▁attirés 16
▁audacieux 16
▁augmentée 16
▁aurais 16
▁autiste 16
▁autoritaire 16
▁avancent 16
▁avertissement 16
▁balader 16
▁ballet 16
▁bassins 16
▁berger 16
▁bouff 16
▁braconn 16
▁brand 16
▁bron 16
▁broy 16
▁brus 16
▁brûlent 16
▁bénév 16
▁cailloux 16
▁calib 16
▁calmer 16
▁cant 16
▁carbonate 16
▁carc 16
▁ceint 16
▁cellulaires 16
▁celà 16
▁champion 16
▁charme 16
▁chevau 16
▁chop 16
▁collectivités 16
▁coloré 16
▁colorés 16
▁coma 16
▁combustion 16
▁commandé 16
▁complétement 16
▁composer 16
▁comprenaient 16
▁compreniez 16
▁computation 16
▁concer 16
▁concrètement 16
▁confus 16
▁conjug 16
▁conservé 16
▁consommé 16
▁contrainte 16
▁coordonner 16
▁correspondant 16
▁coupables 16
▁couver 16
▁craindre 16
▁criminalité 16
▁cristal 16
▁cruel 16
▁créd 16
▁cymatique 16
▁cél 16
▁céléb 16
▁célébration 16
▁céram 16
▁darwin 16
▁dentaire 16
▁desquelles 16
▁destinés 16
▁deviendront 16
▁diab 16
▁diagnostiqué 16
▁dirigez 16
▁dirigée 16
▁disput 16
▁dizaine 16
▁doul 16
▁doutes 16
▁drones 16
▁dysfonction 16
▁décideurs 16
▁déclenché 16
▁défenses 16
▁défenseurs 16
▁défie 16
▁délibérément 16
▁déliv 16
▁démo 16
▁démographiques 16
▁dépendait 16
▁dérivé 16
▁désespérée 16
▁déterminée 16
▁efface 16
▁effrayante 16
▁effrayantes 16
▁embarqué 16
▁emblém 16
▁encourageant 16
▁endorm 16
▁endormi 16
▁enl 16
▁enlevez 16
▁enqu 16
▁ensole 16
▁entrait 16
▁erron 16
▁escaliers 16
▁estomac 16
▁examinons 16
▁exemplaire 16
▁explicite 16
▁explorateurs 16
▁exécut 16
▁fa 16
▁fabriquant 16
▁faci 16
▁facture 16
▁fameuse 16
▁fascinée 16
▁favorables 16
▁fe 16
▁finis 16
▁fluctuations 16
▁formulaire 16
▁foulée 16
▁fournissant 16
▁fuites 16
▁gag 16
▁gelée 16
▁gent 16
▁ger 16
▁glor 16
▁goudron 16
▁gouvernementaux 16
▁gren 16
▁gâchis 16
▁génies 16
▁honnêtes 16
▁humeur 16
▁hutte 16
▁hydrocarb 16
▁hétéro 16
▁hôtels 16
▁ignoré 16
▁illustr 16
▁imagine 16
▁immorte 16
▁impar 16
▁impuissant 16
▁inacceptable 16
▁incident 16
▁inconnues 16
▁inconsci 16
▁indicateurs 16
▁innovantes 16
▁instinctivement 16
▁interess 16
▁introvertis 16
▁intrus 16
▁irrégul 16
▁isolée 16
▁jambon 16
▁job 16
▁jongler 16
▁jurid 16
▁juxtap 16
▁kios 16
▁lab 16
▁laissée 16
▁larg 16
▁laïque 16
▁lenteur 16
▁librairie 16
▁liné 16
▁lisses 16
▁littéraire 16
▁louer 16
▁loup 16
▁lux 16
▁lâche 16
▁lèvent 16
▁maladro 16
▁mall 16
▁marchandise 16
▁maris 16
▁mast 16
▁matérielles 16
▁maux 16
▁meurtre 16
▁microproces 16
▁microscopique 16
▁mignons 16
▁migraine 16
▁minière 16
▁minut 16
▁missile 16
▁modest 16
▁montrées 16
▁moralement 16
▁mord 16
▁mu 16
▁multip 16
▁multipliez 16
▁multitâche 16
▁méfiance 16
▁mémoriser 16
▁ménage 16
▁mépris 16
▁nanom 16
▁naît 16
▁nids 16
▁noté 16
▁numériquement 16
▁obèse 16
▁occidentales 16
▁oct 16
▁ode 16
▁officiel 16
▁officiellement 16
▁olympiques 16
▁opposées 16
▁opèrent 16
▁opérationnel 16
▁pancréas 16
▁pand 16
▁parabole 16
▁paraitre 16
▁paresse 16
▁partagées 16
▁passais 16
▁pathogène 16
▁pathologies 16
▁peluche 16
▁pert 16
▁perçoivent 16
▁perçus 16
▁philanthrop 16
▁phénoménale 16
▁piloter 16
▁pinceau 16
▁pionnier 16
▁piratage 16
▁pist 16
▁pistes 16
▁piég 16
▁placebo 16
▁placée 16
▁plaisirs 16
▁plongeurs 16
▁poign 16
▁por 16
▁portefeuille 16
▁portion 16
▁postul 16
▁posées 16
▁poules 16
▁pouls 16
▁poupées 16
▁pratiqué 16
▁prime 16
▁priv 16
▁problématiques 16
▁produisaient 16
▁progressé 16
▁projections 16
▁prol 16
▁propagent 16
▁proposent 16
▁protons 16
▁proverbe 16
▁prédis 16
▁préparez 16
▁prévis 16
▁publicitaires 16
▁pulmonaire 16
▁périph 16
▁qualifié 16
▁qualifiés 16
▁racisme 16
▁recevons 16
▁records 16
▁recule 16
▁redout 16
▁registre 16
▁rejeter 16
▁relev 16
▁rencontrons 16
▁rendaient 16
▁rentrez 16
▁replier 16
▁reproduit 16
▁respiratoire 16
▁respiratoires 16
▁ride 16
▁risquent 16
▁risquer 16
▁rivage 16
▁roy 16
▁ruisse 16
▁réalisateurs 16
▁réalistes 16
▁réalisées 16
▁réclam 16
▁réflexe 16
▁réfléchissiez 16
▁réfrig 16
▁répandent 16
▁réparation 16
▁répétée 16
▁saint 16
▁saisit 16
▁salut 16
▁save 16
▁scanners 16
▁schizophr 16
▁secrétaire 16
▁selle 16
▁sensoriel 16
▁sentier 16
▁signifierait 16
▁silencieuse 16
▁simplifié 16
▁sinc 16
▁singul 16
▁soigne 16
▁soll 16
▁souffrait 16
▁soupçon 16
▁sourcils 16
▁spatiaux 16
▁spir 16
▁spécialisation 16
▁stables 16
▁stand 16
▁stratég 16
▁stérile 16
▁subl 16
▁substant 16
▁suivaient 16
▁suivait 16
▁suivie 16
▁superficie 16
▁sympathie 16
▁séd 16
▁sérotonine 16
▁sûres 16
▁tapé 16
▁tatouages 16
▁tendu 16
▁terrifiés 16
▁textile 16
▁théière 16
▁théâtr 16
▁tigres 16
▁tirant 16
▁touchées 16
▁trah 16
▁traversant 16
▁trim 16
▁tropiques 16
▁tru 16
▁tén 16
▁unis 16
▁urgence 16
▁util 16
▁utiliserons 16
▁utilité 16
▁vacciner 16
▁vapor 16
▁vari 16
▁varie 16
▁verser 16
▁veuille 16
▁vicieux 16
▁viendront 16
▁viole 16
▁violée 16
▁visant 16
▁volcanique 16
▁vou 16
▁voulant 16
▁zoo 16
▁écoutons 16
▁éduqués 16
▁élab 16
▁émerve 16
▁époustoufl 16
▁épuisé 16
▁éternelle 16
▁éto 16
▁étonnants 16
▁étroit 16
▁évent 16
▁évoqué 16
▁̈ 16
,] 15
0.000 15
Albert 15
El 15
Espace 15
IS 15
IT 15
Par 15
Quoi 15
SIDA 15
Sh 15
Vidéo 15
Zélande 15
abandonner 15
accep 15
accroissement 15
achète 15
acon 15
activation 15
adis 15
admiration 15
adorer 15
agricul 15
aha 15
ails 15
aissaient 15
aitre 15
algorithme 15
algues 15
alternative 15
ambassade 15
analogie 15
analys 15
anciers 15
angers 15
angez 15
angél 15
antenne 15
anthrop 15
anthropologie 15
apl 15
appart 15
aras 15
archie 15
astr 15
astuce 15
atre 15
attaques 15
attendait 15
audible 15
audit 15
auditorium 15
aume 15
automobile 15
autrui 15
auvais 15
avoc 15
avènement 15
bum 15
bury 15
ciemment 15
comment 15
consomm 15
ctrice 15
ctus 15
da 15
dimension 15
dimensionnel 15
din 15
dy 15
effond 15
elinat 15
enberg 15
encourage 15
enda 15
entraî 15
entraîner 15
envisager 15
err 15
ervation 15
ervent 15
escalade 15
esprits 15
essayons 15
estin 15
esté 15
expédition 15
fort 15
geant 15
go 15
head 15
hect 15
hh 15
histor 15
hos 15
hypertension 15
ialement 15
iane 15
icides 15
icip 15
idés 15
ieurs 15
ignait 15
ignorance 15
ignore 15
ii 15
ij 15
ilier 15
immig 15
inauguration 15
inent 15
ingle 15
innovations 15
iquants 15
irrigation 15
isans 15
iscipl 15
itoy 15
ius 15
ivez 15
jacente 15
ken 15
kh 15
lace 15
merg 15
neries 15
obten 15
occident 15
odor 15
olets 15
ommun 15
omètre 15
onnexions 15
opl 15
ork 15
ormal 15
orsion 15
ouchement 15
oujours 15
ouse 15
outer 15
pain 15
pire 15
ptique 15
rain 15
redi 15
rel 15
rich 15
rick 15
ril 15
rise 15
rix 15
sel 15
sis 15
sold 15
stitution 15
stru 15
techn 15
tements 15
terr 15
tour 15
tout 15
uan 15
udi 15
uils 15
ulité 15
ulter 15
ulture 15
upt 15
utilisais 15
utérus 15
venus 15
version 15
vertis 15
veu 15
vie 15
vision 15
volants 15
vêtements 15
ya 15
èche 15
ègrent 15
écoutais 15
élev 15
énagé 15
épuis 15
érences 15
érente 15
érielle 15
éronef 15
érosion 15
étud 15
évent 15
êtement 15
ö 15
œufs 15
▁1,4 15
▁13, 15
▁175 15
▁1945, 15
▁1950. 15
▁1980 15
▁1996, 15
▁1998, 15
▁2.0 15
▁2005. 15
▁2020, 15
▁90. 15
▁Academy 15
▁Aff 15
▁Afghan 15
▁Arabes 15
▁Arr 15
▁Austral 15
▁Avons 15
▁Ay 15
▁BP 15
▁Bab 15
▁Barbara 15
▁Barbie 15
▁Bibl 15
▁Blanc 15
▁Bleu 15
▁Britanniques 15
▁Bulgarie 15
▁But 15
▁Cochrane 15
▁Colorado 15
▁Compr 15
▁Créer 15
▁Dalaï 15
▁Detroit 15
▁Di 15
▁Diana 15
▁Emily 15
▁Env 15
▁Essentiellement 15
▁Euh 15
▁Evan 15
▁Faut 15
▁Friedman 15
▁Gary 15
▁General 15
▁Glenn 15
▁Graham 15
▁Hab 15
▁Hubble 15
▁Is 15
▁Isra 15
▁Ivan 15
▁JC 15
▁Jason 15
▁Jo 15
▁Joey 15
▁Jud 15
▁KS 15
▁Khmers 15
▁Kir 15
▁Lu 15
▁Maitreya 15
▁Manifestement 15
▁Map 15
▁Maryland 15
▁Mas 15
▁McC 15
▁Miami 15
▁Minnesota 15
▁Mississippi 15
▁Mola 15
▁Mond 15
▁Moscou 15
▁Neumann 15
▁Oubliez 15
▁Pan 15
▁Panth 15
▁Part 15
▁Photoshop 15
▁Plan 15
▁Pourriez 15
▁PowerPoint 15
▁Prince 15
▁Project 15
▁Quant 15
▁Rica 15
▁Ron 15
▁Ronald 15
▁Rouges 15
▁SB 15
▁Saddam 15
▁Sand 15
▁Seigneur 15
▁Shoots 15
▁Side 15
▁Sm 15
▁Supp 15
▁Tal 15
▁Tch 15
▁Tiers 15
▁Tod 15
▁Toyota 15
▁Tric 15
▁Tunisie 15
▁Univers 15
▁Von 15
▁Walmart 15
▁Walter 15
▁Wide 15
▁Witness 15
▁ZK 15
▁absol 15
▁acad 15
▁acceptée 15
▁accueille 15
▁accueilli 15
▁accusé 15
▁ache 15
▁activiste 15
▁adorer 15
▁adorons 15
▁affiché 15
▁affl 15
▁affre 15
▁agressif 15
▁aj 15
▁alarme 15
▁alignés 15
▁alimenté 15
▁allers 15
▁ambigu 15
▁analyses 15
▁analyt 15
▁antip 15
▁appli 15
▁appuyez 15
▁architectural 15
▁arrond 15
▁artific 15
▁artificielles 15
▁asym 15
▁atmosph 15
▁atout 15
▁atrocités 15
▁attendaient 15
▁attentats 15
▁attray 15
▁audac 15
▁audit 15
▁auditif 15
▁automne 15
▁autoroute 15
▁aériennes 15
▁aéroport 15
▁baign 15
▁balade 15
▁band 15
▁bang 15
▁bascule 15
▁battait 15
▁bienfaits 15
▁bioc 15
▁biochim 15
▁biomim 15
▁bioénergie 15
▁bless 15
▁blind 15
▁boeuf 15
▁boisson 15
▁bouclier 15
▁brutes 15
▁bulletin 15
▁cafét 15
▁calamar 15
▁caravane 15
▁catég 15
▁cauchem 15
▁causent 15
▁cend 15
▁centrée 15
▁cessez 15
▁challenge 15
▁chanteur 15
▁chauve 15
▁chlor 15
▁chutes 15
▁cicatrices 15
▁circon 15
▁circons 15
▁ciseaux 15
▁claires 15
▁clique 15
▁cliquez 15
▁clubs 15
▁cohérente 15
▁collé 15
▁communisme 15
▁comparée 15
▁comprenant 15
▁comprendrez 15
▁comprenions 15
▁comprise 15
▁comète 15
▁coméd 15
▁concern 15
▁conduisait 15
▁conseillers 15
▁consomment 15
▁constructeurs 15
▁contam 15
▁contes 15
▁contest 15
▁contour 15
▁contrats 15
▁contreplaqué 15
▁contribute 15
▁copain 15
▁correspondait 15
▁cosmologie 15
▁costumes 15
▁couché 15
▁coulé 15
▁coupez 15
▁courriel 15
▁crie 15
▁croisent 15
▁crédits 15
▁cub 15
▁culturellement 15
▁daf 15
▁demandera 15
▁demandée 15
▁desquels 15
▁dessinateur 15
▁diap 15
▁digital 15
▁diplomate 15
▁discrimination 15
▁distraction 15
▁distrait 15
▁divine 15
▁documenté 15
▁dorment 15
▁douloureuse 15
▁douter 15
▁drapeaux 15
▁dyslex 15
▁débrouill 15
▁décalage 15
▁décidons 15
▁déclen 15
▁décollage 15
▁découlent 15
▁découverts 15
▁dédu 15
▁défaire 15
▁défaite 15
▁dégén 15
▁délicates 15
▁démonter 15
▁déni 15
▁dépê 15
▁désigner 15
▁désirez 15
▁détaillé 15
▁déter 15
▁déterminant 15
▁détester 15
▁embaucher 15
▁empire 15
▁employons 15
▁endommagé 15
▁engr 15
▁enregistrent 15
▁entraient 15
▁esqu 15
▁esthétiques 15
▁européennes 15
▁exag 15
▁exalt 15
▁except 15
▁exclusivement 15
▁excès 15
▁exercices 15
▁expéditions 15
▁fabriquée 15
▁faciales 15
▁familière 15
▁farine 15
▁fatigue 15
▁fatigués 15
▁fert 15
▁fertile 15
▁fiabilité 15
▁financ 15
▁financés 15
▁fissures 15
▁fla 15
▁fli 15
▁flûtes 15
▁focalis 15
▁fondements 15
▁fondées 15
▁fontaine 15
▁fractales 15
▁fragilité 15
▁froids 15
▁fêter 15
▁garantie 15
▁gigantesques 15
▁gout 15
▁gouverner 15
▁gramm 15
▁grat 15
▁guitare 15
▁guér 15
▁géniaux 15
▁gênant 15
▁habitué 15
▁hache 15
▁hacker 15
▁hip 15
▁humor 15
▁hydro 15
▁illimité 15
▁illum 15
▁illégale 15
▁imagerie 15
▁immig 15
▁implants 15
▁improviser 15
▁inch 15
▁industrielles 15
▁indéfiniment 15
▁influencent 15
▁ingrédient 15
▁ingénierie 15
▁inhib 15
▁initialement 15
▁initiatives 15
▁initié 15
▁inn 15
▁inorgan 15
▁inspect 15
▁inspire 15
▁instincts 15
▁intacte 15
▁intangible 15
▁interactive 15
▁intergalactique 15
▁intermédiaire 15
▁invasive 15
▁inventeurs 15
▁it 15
▁jetables 15
▁joues 15
▁judiciaire 15
▁juive 15
▁labos 15
▁laissait 15
▁language 15
▁latin 15
▁littér 15
▁livraison 15
▁location 15
▁logarithmique 15
▁lointaine 15
▁loyauté 15
▁lucioles 15
▁léopards 15
▁machin 15
▁macro 15
▁mals 15
▁manusc 15
▁marais 15
▁marchaient 15
▁marionnette 15
▁maturité 15
▁mecs 15
▁media 15
▁menacés 15
▁menant 15
▁mesurable 15
▁mettaient 15
▁meute 15
▁microscopiques 15
▁mineurs 15
▁minimale 15
▁monarchie 15
▁montrée 15
▁monétaire 15
▁mourut 15
▁multim 15
▁mâch 15
▁médium 15
▁mélangés 15
▁navette 15
▁neuro 15
▁neuve 15
▁norm 15
▁nour 15
▁nue 15
▁néc 15
▁nécess 15
▁néerlandais 15
▁oncles 15
▁opéra 15
▁orages 15
▁ordonn 15
▁ot 15
▁ouvrent 15
▁paiement 15
▁palette 15
▁pantalon 15
▁paraissait 15
▁pari 15
▁parlera 15
▁partagés 15
▁partait 15
▁paru 15
▁passa 15
▁passager 15
▁passionnée 15
▁pathologie 15
▁personnaliser 15
▁perç 15
▁phon 15
▁pianiste 15
▁pir 15
▁pivoter 15
▁pizza 15
▁placard 15
▁plancher 15
▁plumes 15
▁plur 15
▁pne 15
▁poiv 15
▁prest 15
▁prient 15
▁prier 15
▁primitifs 15
▁productifs 15
▁programmé 15
▁proies 15
▁prototy 15
▁préoccupation 15
▁préoccupés 15
▁préparais 15
▁prêtent 15
▁pull 15
▁pétroliers 15
▁pétrolière 15
▁quarante 15
▁quarks 15
▁quo 15
▁ra 15
▁rareté 15
▁rationnels 15
▁recommencé 15
▁reconstituer 15
▁rein 15
▁rejetée 15
▁remettent 15
▁renaissance 15
▁rendais 15
▁rendrait 15
▁rendues 15
▁renv 15
▁res 15
▁rip 15
▁robust 15
▁romans 15
▁roulé 15
▁routière 15
▁ruisseau 15
▁ruée 15
▁règlement 15
▁réalisable 15
▁réappar 15
▁réfléchis 15
▁réformer 15
▁réfrigérateur 15
▁réfrigération 15
▁répartis 15
▁répercussions 15
▁réservé 15
▁résistantes 15
▁résulte 15
▁révèlent 15
▁saisie 15
▁saisonn 15
▁sanction 15
▁sapiens 15
▁sensorielle 15
▁septième 15
▁sermon 15
▁sim 15
▁sondages 15
▁sophistiquée 15
▁sortais 15
▁soucions 15
▁souffrant 15
▁soup 15
▁soutenue 15
▁soutiens 15
▁souverain 15
▁sph 15
▁spécialisés 15
▁start 15
▁statistiquement 15
▁statu 15
▁strat 15
▁suggestion 15
▁superbes 15
▁supposition 15
▁suppression 15
▁suspend 15
▁sympt 15
▁sénateur 15
▁séparément 15
▁séqu 15
▁tache 15
▁talons 15
▁ticket 15
▁tickets 15
▁tigre 15
▁tolérer 15
▁tourbillon 15
▁tournage 15
▁tournez 15
▁traductrice 15
▁traitait 15
▁tranqu 15
▁transactions 15
▁transe 15
▁transformés 15
▁traversons 15
▁traîner 15
▁triang 15
▁tricherie 15
▁triomphe 15
▁triplé 15
▁trompent 15
▁troupe 15
▁tueurs 15
▁tuée 15
▁téléphon 15
▁téléphonie 15
▁unicell 15
▁vase 15
▁veines 15
▁ventilateur 15
▁vertébrale 15
▁vise 15
▁voud 15
▁vétérans 15
▁â 15
▁échapp 15
▁échappé 15
▁écologistes 15
▁écr 15
▁égoï 15
▁éject 15
▁émettre 15
▁ému 15
▁énerg 15
▁éol 15
▁éolienne 15
▁épanou 15
▁épidém 15
▁épidémies 15
▁épineux 15
▁équivalente 15
▁érotique 15
▁étagère 15
▁évo 15
10 14
70 14
?» 14
Académie 14
Africains 14
Air 14
Allez 14
At 14
Ceci 14
ER 14
Hey 14
Homo 14
Italie 14
Maintenant 14
Obama 14
Ou 14
Qaïda 14
RI 14
SA 14
aband 14
abiliser 14
accomplissement 14
accorde 14
acoust 14
adaire 14
adap 14
addition 14
ado 14
afficher 14
agie 14
aignent 14
aisser 14
aki 14
algèbre 14
allonge 14
altruisme 14
ambition 14
amines 14
angoisse 14
apes 14
appropri 14
apprête 14
appuyant 14
araignées 14
ariens 14
arin 14
artes 14
articles 14
artisanat 14
assant 14
astases 14
astie 14
atan 14
atar 14
athl 14
atisf 14
atops 14
auff 14
auparavant 14
avate 14
ayons 14
aïsme 14
berge 14
bi 14
bie 14
bou 14
cie 14
cond 14
conde 14
cop 14
copes 14
cy 14
dam 14
elas 14
emballage 14
emporte 14
encier 14
encourager 14
encé 14
endo 14
enr 14
ensibles 14
entoure 14
eny 14
ermin 14
erts 14
espérais 14
essions 14
etera 14
eu 14
experts 14
export 14
exposer 14
fi 14
former 14
hip 14
horm 14
hygi 14
hôte 14
iac 14
iaires 14
iales 14
ibri 14
icitations 14
icots 14
idemment 14
idi 14
ifiable 14
ih 14
illis 14
illum 14
illées 14
ilées 14
imet 14
imitation 14
imité 14
immenses 14
imméd 14
ineux 14
ingréd 14
ingues 14
insecte 14
install 14
instinct 14
instrument 14
interactions 14
intuit 14
inviter 14
inées 14
ipe 14
iron 14
isance 14
isoler 14
itisme 14
itivité 14
ject 14
lait 14
levez 14
lications 14
nès 14
occur 14
ocent 14
ocratie 14
odie 14
ody 14
oids 14
old 14
ologne 14
olu 14
oman 14
ommunications 14
ommée 14
omn 14
onale 14
opsies 14
options 14
orig 14
oublie 14
oupes 14
oureusement 14
ouvernement 14
ouvrez 14
ozoï 14
page 14
perform 14
quelle 14
rase 14
reries 14
ria 14
rirez 14
rivé 14
roir 14
rose 14
row 14
uation 14
ueille 14
uh 14
ula 14
unisson 14
ups 14
urage 14
urbanisme 14
urine 14
usez 14
utu 14
veurs 14
veux 14
vit 14
voir 14
volant 14
voy 14
wood 14
ynth 14
yt 14
çais 14
çoit 14
èce 14
échafaudage 14
écoulement 14
écriv 14
édez 14
éenne 14
éfini 14
élan 14
éléphant 14
éparg 14
épend 14
épendant 14
équip 14
érative 14
éronautique 14
étal 14
éteint 14
ït 14
▁..." 14
▁100. 14
▁12. 14
▁15, 14
▁1968, 14
▁1997, 14
▁1998 14
▁1999 14
▁2% 14
▁20. 14
▁2010 14
▁2011, 14
▁360 14
▁64 14
▁650 14
▁?", 14
▁ABC 14
▁Ach 14
▁Af 14
▁Alexandre 14
▁Andy 14
▁Arabie 14
▁Aur 14
▁BBC 14
▁BC 14
▁Bali 14
▁Balkans 14
▁Band 14
▁Beatles 14
▁Bel 14
▁Bientôt 14
▁Birmanie 14
▁Ble 14
▁British 14
▁Business 14
▁Cameron 14
▁Carter 14
▁Celsius 14
▁Chef 14
▁Cher 14
▁Christian 14
▁Comprenez 14
▁Conf 14
▁Connecticut 14
▁Considérez 14
▁Cooper 14
▁Creative 14
▁Croix 14
▁DP 14
▁Dor 14
▁Déjà 14
▁ES 14
▁Eames 14
▁Encelade 14
▁Enf 14
▁Er 14
▁Excuse 14
▁FA 14
▁FM 14
▁Full 14
▁GPHIN 14
▁Gar 14
▁Ger 14
▁Global 14
▁Gre 14
▁Grey 14
▁Gro 14
▁Hill 14
▁Hind 14
▁Hitler 14
▁IDEO 14
▁Incroyable 14
▁Indonésie 14
▁Indus 14
▁Intel 14
▁Inter 14
▁Inté 14
▁Jamie 14
▁Jonas 14
▁Juan 14
▁Justice 14
▁Kanzi 14
▁Kap 14
▁Kay 14
▁Lanka 14
▁Lord 14
▁Lév 14
▁Maj 14
▁Maria 14
▁Mau 14
▁Maur 14
▁Michel 14
▁Mongolie 14
▁Mot 14
▁Méditerran 14
▁Nation 14
▁Netra 14
▁PCB 14
▁PIPA 14
▁Pakistanais 14
▁Parc 14
▁Parlez 14
▁Petite 14
▁Philippe 14
▁Platon 14
▁Rest 14
▁Ret 14
▁Rich 14
▁Rift 14
▁Riverside 14
▁Rosling 14
▁Règle 14
▁Républicain 14
▁SOPA 14
▁Sarajevo 14
▁Satan 14
▁Society 14
▁Sont 14
▁Starbucks 14
▁Studio 14
▁Suprême 14
▁TTF 14
▁Tel 14
▁Texte 14
▁Trib 14
▁Troisième 14
▁Uni 14
▁Vo 14
▁Vole 14
▁Walker 14
▁Warner 14
▁Watt 14
▁Wh 14
▁Whit 14
▁Zélande 14
▁abandon 14
▁abandonnent 14
▁abs 14
▁absorbent 14
▁absorbé 14
▁accepte 14
▁accomp 14
▁accr 14
▁accélérée 14
▁achar 14
▁activée 14
▁actual 14
▁adoptée 14
▁adéquat 14
▁adéquate 14
▁affront 14
▁agissons 14
▁agnostique 14
▁alcool 14
▁align 14
▁alliance 14
▁allusion 14
▁aluminium 14
▁ambul 14
▁amenant 14
▁amende 14
▁anonymes 14
▁antérieure 14
▁apiculteurs 14
▁appartenir 14
▁apportée 14
▁approchez 14
▁approché 14
▁appréciez 14
▁aquatiques 14
▁arbitr 14
▁arri 14
▁assassiné 14
▁assemblées 14
▁assemblés 14
▁astuc 14
▁ateliers 14
▁attachement 14
▁attends 14
▁aur 14
▁autom 14
▁automat 14
▁autoritaires 14
▁aveug 14
▁aérien 14
▁bactérienne 14
▁balcon 14
▁bancaires 14
▁bandeau 14
▁bazar 14
▁beign 14
▁berceau 14
▁beurre 14
▁bicycl 14
▁bienvenue 14
▁biodé 14
▁biscuit 14
▁bitume 14
▁bizar 14
▁blah 14
▁blogosphère 14
▁bloqué 14
▁boit 14
▁bor 14
▁borne 14
▁botter 14
▁bouddhiste 14
▁bougé 14
▁boules 14
▁boutiques 14
▁box 14
▁brebis 14
▁brique 14
▁brève 14
▁brûlant 14
▁buvez 14
▁béqu 14
▁bœuf 14
▁cahier 14
▁calculatrices 14
▁camb 14
▁cancérigènes 14
▁capsule 14
▁caractérise 14
▁cav 14
▁cellulose 14
▁championnat 14
▁chantait 14
▁chantant 14
▁chau 14
▁chauffe 14
▁cherch 14
▁cherchions 14
▁chimistes 14
▁château 14
▁cintres 14
▁clôt 14
▁cobra 14
▁collaborateur 14
▁collent 14
▁coloniser 14
▁coléoptères 14
▁communaut 14
▁complé 14
▁compression 14
▁comprimé 14
▁compétitions 14
▁concentrations 14
▁concerné 14
▁concevez 14
▁concrét 14
▁confortables 14
▁conjoint 14
▁considérables 14
▁consistant 14
▁contacter 14
▁contred 14
▁controversée 14
▁contrôlant 14
▁convaincant 14
▁converti 14
▁conçoit 14
▁coque 14
▁cord 14
▁courb 14
▁couvertes 14
▁crev 14
▁cristaux 14
▁crocodile 14
▁croisement 14
▁croyants 14
▁cruci 14
▁créatrice 14
▁crép 14
▁cur 14
▁dentiste 14
▁deviendrait 14
▁deviné 14
▁devrez 14
▁diag 14
▁diam 14
▁diamant 14
▁diffèrent 14
▁différencier 14
▁digérer 14
▁directrice 14
▁dirigeaient 14
▁dirigeait 14
▁discute 14
▁disparaitre 14
▁distant 14
▁distribuée 14
▁distribués 14
▁dog 14
▁dominée 14
▁dresse 14
▁dresser 14
▁débute 14
▁déclench 14
▁découvrant 14
▁déduire 14
▁défect 14
▁défiler 14
▁déjeun 14
▁délivrer 14
▁dénominateur 14
▁dépassés 14
▁dépe 14
▁déplacez 14
▁déplacées 14
▁déserts 14
▁désord 14
▁détourner 14
▁détriment 14
▁développant 14
▁déçu 14
▁dîtes 14
▁effacer 14
▁emballages 14
▁enchères 14
▁encomb 14
▁engrais 14
▁enquêtes 14
▁enregistrées 14
▁enregistrés 14
▁enseignait 14
▁enseignons 14
▁entendait 14
▁entrai 14
▁entrainé 14
▁envoyant 14
▁enzyme 14
▁er 14
▁escargots 14
▁essayions 14
▁etre 14
▁exagéré 14
▁examine 14
▁excessive 14
▁excusez 14
▁exotique 14
▁exposer 14
▁exposées 14
▁extinctions 14
▁fabule 14
▁factures 14
▁fauss 14
▁favela 14
▁fax 14
▁festival 14
▁feuill 14
▁filaments 14
▁flam 14
▁flots 14
▁floue 14
▁fonctionnerait 14
▁fore 14
▁fouiller 14
▁foules 14
▁fourrure 14
▁fécond 14
▁gagnante 14
▁galvan 14
▁gant 14
▁gardant 14
▁gardien 14
▁geek 14
▁gh 14
▁glaciaires 14
▁gouffre 14
▁grecque 14
▁grimpeurs 14
▁group 14
▁guerrier 14
▁guê 14
▁gymn 14
▁générales 14
▁génét 14
▁habitable 14
▁habits 14
▁hallucin 14
▁he 14
▁hiérarch 14
▁holistique 14
▁hon 14
▁hong 14
▁honoré 14
▁huile 14
▁humanitaires 14
▁humide 14
▁hybrides 14
▁iPad 14
▁iceberg 14
▁impatience 14
▁implication 14
▁inattendue 14
▁incluent 14
▁incompréh 14
▁inconvénients 14
▁indicateur 14
▁indiff 14
▁individual 14
▁induit 14
▁industrialisés 14
▁inerte 14
▁inex 14
▁infin 14
▁infinités 14
▁inhi 14
▁injecter 14
▁innovant 14
▁inquiétude 14
▁interdits 14
▁intern 14
▁interrompu 14
▁intim 14
▁intra 14
▁intuitions 14
▁inté 14
▁intégrées 14
▁involont 14
▁inégal 14
▁iraient 14
▁iran 14
▁irr 14
▁ja 14
▁jargon 14
▁lacrym 14
▁latitude 14
▁leurre 14
▁libérée 14
▁licences 14
▁lig 14
▁lignée 14
▁liquides 14
▁lisait 14
▁littéral 14
▁lobby 14
▁localiser 14
▁loisirs 14
▁longueurs 14
▁loyer 14
▁ly 14
▁lymph 14
▁légende 14
▁lét 14
▁maintenu 14
▁maintiennent 14
▁mandat 14
▁manifester 14
▁maquettes 14
▁masculine 14
▁matins 14
▁matinée 14
▁maîtr 14
▁menacer 14
▁microbien 14
▁micros 14
▁migrations 14
▁minces 14
▁miniatur 14
▁moine 14
▁mol 14
▁mécont 14
▁médaille 14
▁mû 14
▁mûr 14
▁nageoires 14
▁nagé 14
▁nappe 14
▁naturaliste 14
▁nav 14
▁nettoie 14
▁nettoyage 14
▁neurologique 14
▁neurotransm 14
▁neuvième 14
▁nigérian 14
▁nocturne 14
▁nourrissons 14
▁nécessitent 14
▁nécessiter 14
▁obséd 14
▁obèses 14
▁océaniques 14
▁optimal 14
▁orang 14
▁organise 14
▁oublions 14
▁ouvrière 14
▁paléont 14
▁pans 14
▁parachut 14
▁paralys 14
▁param 14
▁paran 14
▁parcelle 14
▁parkings 14
▁partiellement 14
▁partons 14
▁patrimoine 14
▁paume 14
▁payent 14
▁penseriez 14
▁perro 14
▁persiste 14
▁persuad 14
▁persuadé 14
▁pertinence 14
▁perçue 14
▁photocop 14
▁pirate 14
▁pistolet 14
▁placées 14
▁plongées 14
▁pollinisateurs 14
▁polystyrène 14
▁pornographie 14
▁portail 14
▁postales 14
▁posté 14
▁pote 14
▁pouces 14
▁primitives 14
▁prince 14
▁princesse 14
▁proces 14
▁profitent 14
▁profité 14
▁progén 14
▁prolifération 14
▁promène 14
▁prophète 14
▁prostitu 14
▁protestation 14
▁préjugé 14
▁prélève 14
▁préparent 14
▁présentait 14
▁psychiatrique 14
▁pucer 14
▁puls 14
▁py 14
▁péage 14
▁pédagog 14
▁pénicilline 14
▁pénètre 14
▁pép 14
▁pétales 14
▁questionner 14
▁rabat 14
▁ramènent 14
▁randonnée 14
▁rassemblées 14
▁rattrap 14
▁recueilli 14
▁recycl 14
▁recyclés 14
▁regards 14
▁regrouper 14
▁rele 14
▁renvoyé 14
▁repli 14
▁représentaient 14
▁ressortent 14
▁resterait 14
▁rhét 14
▁rides 14
▁récipro 14
▁récurrent 14
▁réduisez 14
▁réglementation 14
▁répug 14
▁résidence 14
▁résult 14
▁rétin 14
▁réverb 14
▁sab 14
▁sachions 14
▁sacrifice 14
▁saig 14
▁sanctu 14
▁saura 14
▁saurait 14
▁sautent 14
▁sauvegard 14
▁sauvent 14
▁sauvées 14
▁savour 14
▁scol 14
▁scotch 14
▁sculpteur 14
▁sensibilisation 14
▁serré 14
▁sinistre 14
▁skient 14
▁sociologues 14
▁sortaient 14
▁soufre 14
▁souhaitent 14
▁soum 14
▁sourds 14
▁sourit 14
▁soustr 14
▁sphinx 14
▁spirit 14
▁spécialisé 14
▁stabiliser 14
▁stars 14
▁stratosphère 14
▁stupéfiante 14
▁styles 14
▁subsistance 14
▁subtils 14
▁sueur 14
▁supernova 14
▁superst 14
▁superv 14
▁supposer 14
▁surm 14
▁surprises 14
▁surve 14
▁suédois 14
▁symphonie 14
▁synth 14
▁synthétiser 14
▁sécher 14
▁tal 14
▁talon 14
▁tape 14
▁tch 14
▁tectoniques 14
▁tenaient 14
▁testées 14
▁timbre 14
▁tonnerre 14
▁tournons 14
▁trad 14
▁traducteur 14
▁tran 14
▁transluc 14
▁transmises 14
▁transplant 14
▁transplanter 14
▁transversale 14
▁trillions 14
▁trompés 14
▁trott 14
▁trouveront 14
▁trouvions 14
▁tuons 14
▁tur 14
▁vagins 14
▁vant 14
▁variés 14
▁vendant 14
▁vendez 14
▁vendue 14
▁vibrations 14
▁vieillesse 14
▁vierges 14
▁vig 14
▁violet 14
▁violées 14
▁viral 14
▁virt 14
▁volante 14
▁volée 14
▁vot 14
▁votent 14
▁éblou 14
▁écraser 14
▁écrivons 14
▁églises 14
▁éloignée 14
▁émotionnelles 14
▁épouser 14
▁éruption 14
▁étagères 14
▁éter 14
▁éval 14
▁évidents 14
12 13
40 13
Age 13
Amaz 13
App 13
Arab 13
ES 13
Inc 13
OM 13
RA 13
Wow 13
absorption 13
accompl 13
aches 13
acid 13
acy 13
adie 13
afe 13
agen 13
agos 13
ainement 13
aint 13
akistan 13
aku 13
alg 13
aly 13
amen 13
aminer 13
amélior 13
anz 13
apeaux 13
apper 13
arb 13
arith 13
asm 13
attendu 13
aude 13
aus 13
aye 13
bler 13
chance 13
chi 13
cif 13
cker 13
culture 13
emment 13
endrez 13
engr 13
enregist 13
enseign 13
ensions 13
ensité 13
ensive 13
erman 13
erte 13
esseur 13
etter 13
extrém 13
four 13
gramm 13
hop 13
hydro 13
ibrill 13
idation 13
ignée 13
ila 13
ild 13
ilent 13
ilib 13
inal 13
infin 13
infirm 13
ingén 13
interpr 13
ioth 13
irurg 13
isco 13
isp 13
ista 13
istoire 13
itr 13
ivores 13
ji 13
kel 13
key 13
leine 13
lyn 13
mbre 13
mond 13
olog 13
oms 13
ondance 13
onia 13
ops 13
orama 13
original 13
osn 13
otent 13
ouches 13
oules 13
ouvons 13
ova 13
owe 13
pen 13
phone 13
pic 13
pla 13
ple 13
ports 13
ppe 13
regon 13
ropol 13
sible 13
sociation 13
ting 13
uba 13
ulse 13
uner 13
unis 13
uptions 13
urons 13
ustriel 13
va 13
vant 13
vergure 13
viol 13
ward 13
yle 13
zy 13
èt 13
électron 13
élicopt 13
érad 13
évrier 13
ïque 13
ôtres 13
⁄ 13
▁12, 13
▁1985, 13
▁2002, 13
▁2003 13
▁2003. 13
▁49 13
▁76 13
▁83 13
▁= 13
▁AS 13
▁Ali 13
▁Ass 13
▁Att 13
▁Attention 13
▁Ban 13
▁Belle 13
▁Botswana 13
▁Buff 13
▁Canal 13
▁Cape 13
▁Capit 13
▁Cat 13
▁Cit 13
▁Clay 13
▁Club 13
▁Colomb 13
▁Commerce 13
▁Commons 13
▁Coupe 13
▁Crit 13
▁Cy 13
▁DE 13
▁Denis 13
▁Dublin 13
▁Dém 13
▁EB 13
▁Economist 13
▁Egypt 13
▁Everest 13
▁Face 13
▁Fait 13
▁Fem 13
▁Food 13
▁Gaza 13
▁Gehry 13
▁Git 13
▁Gl 13
▁God 13
▁Greg 13
▁Hal 13
▁Hay 13
▁High 13
▁Hiroshima 13
▁Hol 13
▁Honduras 13
▁Hussein 13
▁IP 13
▁Internationale 13
▁Iraq 13
▁Isaac 13
▁Istanbul 13
▁Jacques 13
▁Jan 13
▁Jesse 13
▁Jon 13
▁Julie 13
▁Kiva 13
▁Li 13
▁Madagascar 13
▁Malt 13
▁Marine 13
▁Marines 13
▁Mathematica 13
▁Maya 13
▁Monologues 13
▁Mos 13
▁Neil 13
▁Nic 13
▁Noir 13
▁Norm 13
▁PR 13
▁Pens 13
▁Picasso 13
▁Place 13
▁Play 13
▁Potter 13
▁Pri 13
▁Prin 13
▁Prof 13
▁Prot 13
▁Renaissance 13
▁Rouge 13
▁Royal 13
▁SA 13
▁SM 13
▁Samuel 13
▁Shah 13
▁Sk 13
▁Space 13
▁Stanley 13
▁Stuxnet 13
▁Susie 13
▁Sweeney 13
▁Sy 13
▁TBP 13
▁TM 13
▁TR 13
▁Tar 13
▁Tarahumara 13
▁Thula 13
▁Transition 13
▁Tso 13
▁Tyrann 13
▁Ushahidi 13
▁Word 13
▁Yém 13
▁adolescence 13
▁adv 13
▁agenda 13
▁algorithm 13
▁appart 13
▁aspire 13
▁assistance 13
▁astronom 13
▁astu 13
▁att 13
▁attitudes 13
▁authent 13
▁badge 13
▁balancer 13
▁ball 13
▁basket 13
▁berg 13
▁brev 13
▁canc 13
▁cases 13
▁coca 13
▁commiss 13
▁communic 13
▁compatible 13
▁conceptions 13
▁conserve 13
▁consum 13
▁contin 13
▁contours 13
▁conventions 13
▁crowdsourcing 13
▁croy 13
▁câ 13
▁dengue 13
▁descriptions 13
▁det 13
▁deviend 13
▁diale 13
▁digit 13
▁dilem 13
▁doctor 13
▁domest 13
▁déchiff 13
▁déplac 13
▁ego 13
▁el 13
▁entourage 13
▁entra 13
▁expéd 13
▁facult 13
▁faill 13
▁fam 13
▁fill 13
▁fission 13
▁flo 13
▁focal 13
▁fonctionn 13
▁fracture 13
▁franchise 13
▁frig 13
▁furt 13
▁gla 13
▁grandiose 13
▁grim 13
▁grin 13
▁hamburgers 13
▁holl 13
▁horizontal 13
▁horr 13
▁humili 13
▁impr 13
▁impu 13
▁index 13
▁indig 13
▁indépend 13
▁insist 13
▁interm 13
▁interromp 13
▁interv 13
▁interviewer 13
▁intr 13
▁intro 13
▁issu 13
▁jets 13
▁kilo 13
▁lament 13
▁limb 13
▁limitations 13
▁mails 13
▁mammif 13
▁massac 13
▁membranes 13
▁minim 13
▁mm 13
▁multicell 13
▁nouve 13
▁olymp 13
▁pantal 13
▁paras 13
▁particular 13
▁partisans 13
▁parts 13
▁perplex 13
▁phil 13
▁photons 13
▁pig 13
▁pince 13
▁pirat 13
▁piv 13
▁plaint 13
▁plantation 13
▁plastic 13
▁plu 13
▁porn 13
▁posters 13
▁poup 13
▁prag 13
▁primordiale 13
▁prolif 13
▁prudent 13
▁pseudo 13
▁quad 13
▁quar 13
▁quarts 13
▁rabbin 13
▁raf 13
▁recharg 13
▁recharge 13
▁recycle 13
▁redéfin 13
▁requis 13
▁rhinovirus 13
▁rit 13
▁robes 13
▁romant 13
▁roug 13
▁rub 13
▁rur 13
▁script 13
▁sensorie 13
▁simulations 13
▁simult 13
▁sinus 13
▁slide 13
▁souver 13
▁stimulus 13
▁subcons 13
▁suggestions 13
▁temporal 13
▁traine 13
▁transm 13
▁transpar 13
▁trier 13
▁turb 13
▁uni 13
▁unif 13
▁vel 13
▁ventilation 13
▁vern 13
▁video 13
▁voc 13
▁véc 13
▁élan 13
/3 12
99 12
Av 12
CC 12
Human 12
Ir 12
Iraq 12
SE 12
Se 12
Super 12
Tr 12
abandon 12
aco 12
actique 12
ador 12
agin 12
agnol 12
agram 12
agu 12
aharienne 12
alan 12
alent 12
alys 12
arge 12
aro 12
asions 12
astiques 12
aticien 12
atom 12
aya 12
bee 12
bras 12
burg 12
clamation 12
clavage 12
contr 12
dad 12
diction 12
erce 12
ering 12
ertain 12
ertes 12
etto 12
ging 12
grad 12
hier 12
horn 12
houette 12
icit 12
iconque 12
ida 12
iere 12
iforn 12
igu 12
igure 12
ike 12
iliation 12
impl 12
inform 12
ingue 12
inked 12
intellect 12
intelligent 12
intes 12
introdu 12
ioc 12
ipse 12
issage 12
itime 12
itra 12
jo 12
lla 12
lot 12
mbererana 12
mite 12
novation 12
object 12
ocaly 12
odies 12
oko 12
olf 12
olith 12
oncert 12
ood 12
ophil 12
ophone 12
opin 12
opolit 12
orr 12
oscop 12
osh 12
osoph 12
ouges 12
owitz 12
oxy 12
pat 12
pecte 12
prof 12
ption 12
rade 12
ronter 12
rétaire 12
scient 12
teau 12
tein 12
tit 12
uds 12
uille 12
una 12
undi 12
unte 12
urn 12
uyer 12
zu 12
Ét 12
çoivent 12
èdent 12
èvre 12
éli 12
émisph 12
éria 12
étaire 12
étiqu 12
êcher 12
ûte 12
▁1,7 12
▁170 12
▁183 12
▁1930, 12
▁1970 12
▁1980. 12
▁2015, 12
▁24, 12
▁5. 12
▁54 12
▁750 12
▁82 12
▁91 12
▁93 12
▁Ahmed 12
▁Apollo 12
▁Archie 12
▁Arts 12
▁BA 12
▁Bilbao 12
▁Billy 12
▁Blair 12
▁Bonnet 12
▁Brand 12
▁Bravo 12
▁Brigades 12
▁Brook 12
▁Browne 12
▁Bu 12
▁Cant 12
▁Carol 12
▁Cas 12
▁Cath 12
▁Cla 12
▁Clark 12
▁Cohen 12
▁Cond 12
▁Constitution 12
▁Davis 12
▁Dawkins 12
▁Day 12
▁Dere 12
▁Diplomat 12
▁Domin 12
▁Ell 12
▁Essay 12
▁Expl 12
▁Georgetown 12
▁Goldman 12
▁Gra 12
▁Guatemala 12
▁Harlem 12
▁Health 12
▁Hel 12
▁Herbie 12
▁Hopkins 12
▁Hu 12
▁Hudson 12
▁Ig 12
▁Impossible 12
▁It 12
▁JE 12
▁Jennifer 12
▁Juli 12
▁June 12
▁Karl 12
▁Kr 12
▁Kur 12
▁Ky 12
▁LEDs 12
▁LHC 12
▁London 12
▁Lor 12
▁Lou 12
▁Macintosh 12
▁Manchester 12
▁Mand 12
▁Mao 12
▁Marc 12
▁Matthew 12
▁McK 12
▁Mexic 12
▁Mich 12
▁Midwest 12
▁Mik 12
▁Mons 12
▁Nat 12
▁Natalie 12
▁Negroponte 12
▁Nicholas 12
▁Not 12
▁Object 12
▁Ooh 12
▁Pascal 12
▁Power 12
▁Rac 12
▁River 12
▁Rockett 12
▁Rép 12
▁SS 12
▁Sally 12
▁Service 12
▁Sim 12
▁Sing 12
▁Skycar 12
▁Slo 12
▁Sn 12
▁Sold 12
▁Taylor 12
▁Telescope 12
▁To 12
▁Town 12
▁Ty 12
▁Ur 12
▁Viking 12
▁Wired 12
▁Wisconsin 12
▁Zamb 12
▁absent 12
▁accompagn 12
▁apprent 12
▁architectures 12
▁ard 12
▁astrol 12
▁axes 12
▁barbecue 12
▁biotechn 12
▁boug 12
▁briquettes 12
▁buff 12
▁cape 12
▁cardiovas 12
▁cassette 12
▁catalog 12
▁catastroph 12
▁centen 12
▁champagne 12
▁cir 12
▁coalition 12
▁commod 12
▁complex 12
▁compost 12
▁concurrent 12
▁conject 12
▁contradictions 12
▁convergent 12
▁coop 12
▁cost 12
▁cran 12
▁curs 12
▁cylind 12
▁dissi 12
▁divid 12
▁divisions 12
▁divorce 12
▁doubles 12
▁ec 12
▁embry 12
▁ennu 12
▁excl 12
▁extinction 12
▁fascination 12
▁filament 12
▁fonde 12
▁forc 12
▁franche 12
▁fruct 12
▁gratif 12
▁géom 12
▁hex 12
▁hydrother 12
▁ic 12
▁illumin 12
▁impose 12
▁incap 12
▁inclu 12
▁incont 12
▁incor 12
▁incub 12
▁indication 12
▁indisc 12
▁insign 12
▁interp 12
▁irrig 12
▁jur 12
▁labe 12
▁labor 12
▁lamp 12
▁ling 12
▁lo 12
▁lobes 12
▁look 12
▁mathém 12
▁matérie 12
▁med 12
▁meur 12
▁mile 12
▁miniature 12
▁mitochond 12
▁modules 12
▁monot 12
▁multivers 12
▁municipal 12
▁méc 12
▁nanot 12
▁narciss 12
▁new 12
▁nuances 12
▁nuclé 12
▁obscure 12
▁occident 12
▁oe 12
▁oranges 12
▁orb 12
▁orthop 12
▁pH 12
▁pag 12
▁parall 12
▁perf 12
▁person 12
▁philosoph 12
▁pigeons 12
▁prim 12
▁primate 12
▁process 12
▁protoc 12
▁provisions 12
▁psycho 12
▁rate 12
▁rebell 12
▁recomb 12
▁reconst 12
▁reliant 12
▁remar 12
▁repar 12
▁reprogram 12
▁resc 12
▁restriction 12
▁rid 12
▁rival 12
▁romance 12
▁réglement 12
▁rétr 12
▁sacrifices 12
▁sales 12
▁salons 12
▁scann 12
▁sci 12
▁simil 12
▁sit 12
▁snob 12
▁spin 12
▁statues 12
▁str 12
▁studios 12
▁subjective 12
▁submersibles 12
▁supers 12
▁supports 12
▁surfer 12
▁survive 12
▁symph 12
▁synd 12
▁syner 12
▁tamp 12
▁temples 12
▁toil 12
▁trach 12
▁transaction 12
▁tyrann 12
▁télécomm 12
▁témoign 12
▁ultraviolet 12
▁valves 12
▁venge 12
▁versa 12
▁vib 12
▁visit 12
▁volat 12
▁voul 12
▁élè 12
▁étro 12
♪ 12
/1 11
15 11
24 11
Me 11
PC 11
Prince 11
Star 11
USC 11
abad 11
abama 11
abb 11
aisseur 11
alm 11
ambo 11
anderth 11
anga 11
aphe 11
arti 11
ases 11
astes 11
athe 11
atts 11
aucon 11
awatt 11
aît 11
bat 11
belles 11
bot 11
bus 11
cas 11
ciation 11
circ 11
cis 11
cles 11
dre 11
enir 11
enue 11
estru 11
exéc 11
formation 11
grand 11
hambra 11
has 11
hil 11
iaire 11
iation 11
icide 11
icon 11
igr 11
iki 11
ilit 11
ilitation 11
imat 11
imprimer 11
inctions 11
ineuse 11
infrastru 11
inois 11
irement 11
isit 11
isive 11
itablement 11
itha 11
ivers 11
jour 11
kansas 11
leton 11
liqué 11
mails 11
mets 11
mim 11
mine 11
minist 11
ministration 11
obilier 11
occ 11
ocy 11
odel 11
oglo 11
olent 11
omen 11
omper 11
ompréh 11
onfort 11
onges 11
ophob 11
ordin 11
orge 11
oslav 11
oster 11
otype 11
ouilles 11
pa 11
pol 11
pre 11
pris 11
rence 11
ressions 11
reton 11
rex 11
rib 11
rible 11
ricité 11
rip 11
rizona 11
ror 11
rure 11
rév 11
sec 11
stitut 11
tar 11
temp 11
tenir 11
thiopie 11
ty 11
uggets 11
ulsive 11
urb 11
utives 11
uyant 11
ysi 11
za 11
zer 11
Î 11
âche 11
çus 11
élicoptère 11
énerg 11
éries 11
éroï 11
évé 11
▁--" 11
▁10,000 11
▁14, 11
▁1800 11
▁184 11
▁1900 11
▁1970. 11
▁1991, 11
▁1999. 11
▁2002 11
▁2006. 11
▁2007. 11
▁240 11
▁62 11
▁66 11
▁84 11
▁94 11
▁AM 11
▁Abe 11
▁Alabama 11
▁Alaska 11
▁Alfred 11
▁American 11
▁Angel 11
▁Anthony 11
▁Ap 11
▁Appro 11
▁Ash 11
▁Ast 11
▁Austin 11
▁Bess 11
▁Blackberry 11
▁Boeing 11
▁Bollywood 11
▁Brothers 11
▁Budapest 11
▁Building 11
▁Burn 11
▁CERN 11
▁Char 11
▁Chuck 11
▁Cis 11
▁Cleveland 11
▁DA 11
▁DL 11
▁Dalai 11
▁Diam 11
▁Dig 11
▁Dubai 11
▁Duke 11
▁Dum 11
▁Développ 11
▁Eb 11
▁Effect 11
▁Emb 11
▁Emmanuel 11
▁Extr 11
▁Fant 11
▁FedEx 11
▁Fire 11
▁Franklin 11
▁Fund 11
▁Gallery 11
▁Giussani 11
▁Gould 11
▁Grove 11
▁Guardian 11
▁HC 11
▁Hein 11
▁Hil 11
▁Hillary 11
▁Ital 11
▁JO 11
▁JPL 11
▁Jur 11
▁Kal 11
▁Kate 11
▁Kentucky 11
▁Kid 11
▁Kismet 11
▁Labor 11
▁Lake 11
▁Leah 11
▁Leo 11
▁Lis 11
▁MBA 11
▁MM 11
▁Malawi 11
▁Maps 11
▁March 11
▁Matthieu 11
▁Mellon 11
▁Meyer 11
▁Milan 11
▁Milli 11
▁Mir 11
▁Mission 11
▁Moh 11
▁Mull 11
▁Najmuddin 11
▁Nano 11
▁Nashville 11
▁Netflix 11
▁Nik 11
▁Nirvana 11
▁Ny 11
▁Open 11
▁Oprah 11
▁PS 11
▁Page 11
▁Palm 11
▁Phil 11
▁Prop 11
▁RHex 11
▁Rad 11
▁Ralph 11
▁Robicsek 11
▁Réf 11
▁Réfléch 11
▁Républic 11
▁SP 11
▁Sachs 11
▁Sant 11
▁Sao 11
▁Sel 11
▁Stop 11
▁Sue 11
▁Sys 11
▁TD 11
▁TEDGlobal 11
▁TEDTalk 11
▁Tahrir 11
▁Thanksgiving 11
▁Theater 11
▁Valent 11
▁Victoria 11
▁Vinci 11
▁Vivian 11
▁Woody 11
▁WorldWide 11
▁Wy 11
▁[... 11
▁acoust 11
▁acron 11
▁agricul 11
▁alarm 11
▁ambit 11
▁amphib 11
▁angl 11
▁append 11
▁appré 11
▁appréc 11
▁ascension 11
▁assign 11
▁ast 11
▁bifur 11
▁big 11
▁boudd 11
▁bur 11
▁bénéf 11
▁captiv 11
▁cardi 11
▁chale 11
▁chol 11
▁classification 11
▁cockpit 11
▁colonial 11
▁compagn 11
▁confection 11
▁confrontation 11
▁connection 11
▁contex 11
▁contrain 11
▁convulsions 11
▁corros 11
▁cort 11
▁coupons 11
▁crat 11
▁cup 11
▁den 11
▁designs 11
▁deven 11
▁din 11
▁distinct 11
▁doctrine 11
▁dom 11
▁dus 11
▁déplo 11
▁enne 11
▁erg 11
▁exporter 11
▁expéri 11
▁fals 11
▁fatal 11
▁fatigu 11
▁fi 11
▁fib 11
▁fluorescent 11
▁folk 11
▁forg 11
▁gen 11
▁glucose 11
▁go 11
▁grapp 11
▁gre 11
▁griff 11
▁hard 11
▁has 11
▁hippie 11
▁hockey 11
▁horizons 11
▁hormonal 11
▁hél 11
▁hô 11
▁improb 11
▁impér 11
▁incidents 11
▁incompat 11
▁init 11
▁innoc 11
▁interrup 11
▁intest 11
▁jeans 11
▁jud 11
▁judici 11
▁lasers 11
▁less 11
▁lumines 11
▁maint 11
▁mantra 11
▁marchand 11
▁millise 11
▁module 11
▁multipl 11
▁mutant 11
▁méch 11
▁nap 11
▁nic 11
▁nylon 11
▁ol 11
▁orch 11
▁ore 11
▁ost 11
▁out 11
▁ox 11
▁parade 11
▁paradig 11
▁paraph 11
▁phosph 11
▁pieuv 11
▁pill 11
▁pins 11
▁plane 11
▁polym 11
▁pomm 11
▁pomp 11
▁popular 11
▁poss 11
▁potassium 11
▁potent 11
▁poul 11
▁pren 11
▁priori 11
▁prospect 11
▁proton 11
▁provinces 11
▁pup 11
▁purs 11
▁quadrill 11
▁reconfig 11
▁recyc 11
▁refuge 11
▁reptiles 11
▁revers 11
▁rhinoc 11
▁rée 11
▁saints 11
▁sauces 11
▁scand 11
▁scores 11
▁scén 11
▁shopping 11
▁sig 11
▁signif 11
▁sin 11
▁sod 11
▁sond 11
▁spong 11
▁squ 11
▁suicid 11
▁summ 11
▁suspect 11
▁synagogue 11
▁synapse 11
▁tag 11
▁terminal 11
▁tourb 11
▁triple 11
▁trivial 11
▁troph 11
▁tun 11
▁tunnels 11
▁urg 11
▁versus 11
▁victor 11
▁water 11
▁yo 11
▁yoga 11
▁échantill 11
"] 10
'" 10
-3 10
100 10
= 10
BC 10
Be 10
Bl 10
DE 10
Day 10
EG 10
HA 10
Iv 10
OS 10
Pr 10
Pro 10
abol 10
acas 10
accept 10
acter 10
ads 10
agnes 10
ago 10
agua 10
aiser 10
alies 10
alth 10
andertal 10
andise 10
areil 10
assic 10
astic 10
aticiens 10
atin 10
attre 10
atéri 10
ause 10
ava 10
aïda 10
back 10
ban 10
bec 10
bone 10
celer 10
cembre 10
cepteurs 10
chauff 10
cit 10
civ 10
cor 10
ctes 10
ctor 10
ducation 10
encour 10
ency 10
enstein 10
estine 10
etz 10
extra 10
glise 10
gypte 10
hen 10
hique 10
iable 10
iais 10
iam 10
iate 10
icha 10
iciper 10
ieber 10
igh 10
ilo 10
iltr 10
imens 10
individ 10
inet 10
infl 10
inj 10
insey 10
insky 10
iro 10
ishna 10
ission 10
itan 10
itesse 10
lets 10
lley 10
machine 10
mill 10
no 10
nov 10
ocation 10
ocke 10
odka 10
odore 10
odox 10
ogen 10
ogn 10
ollo 10
olt 10
omac 10
onies 10
ook 10
oots 10
open 10
ophys 10
ords 10
ormément 10
osex 10
otyp 10
oufl 10
ough 10
ound 10
ouvé 10
own 10
ows 10
pop 10
regist 10
rian 10
rospect 10
rui 10
sem 10
sens 10
the 10
ublique 10
ulement 10
uments 10
umin 10
ump 10
umé 10
unal 10
urable 10
viennent 10
ving 10
wick 10
yll 10
âteau 10
çage 10
èbre 10
èler 10
œuf 10
– 10
€ 10
▁11, 10
▁1600 10
▁1800, 10
▁1969, 10
▁1976, 10
▁1984 10
▁2009. 10
▁2015. 10
▁59 10
▁7. 10
▁77 10
▁9, 10
▁Abu 10
▁Admin 10
▁Age 10
▁Agnes 10
▁Amaz 10
▁America 10
▁Anne 10
▁Argentine 10
▁Arnold 10
▁Association 10
▁Ath 10
▁Aud 10
▁BD 10
▁Bach 10
▁Bart 10
▁Beat 10
▁Beau 10
▁Best 10
▁Betty 10
▁Bowl 10
▁Boy 10
▁Boyle 10
▁Britannica 10
▁Buckminster 10
▁CC 10
▁Camer 10
▁Cargill 10
▁Cart 10
▁Casey 10
▁Cent 10
▁Chin 10
▁Christopher 10
▁Cir 10
▁Cloud 10
▁Commun 10
▁Conservation 10
▁Contr 10
▁Cook 10
▁Corporation 10
▁Creek 10
▁Crick 10
▁Del 10
▁Dewey 10
▁Diego 10
[...]
