, 183756
. 155651
▁the 123314
' 78312
▁to 76411
▁of 71745
▁a 64597
▁and 62822
▁that 55648
▁I 50857
▁in 46158
▁is 41036
▁you 41006
s 40299
▁it 38579
▁we 33628
▁And 30318
▁this 26667
▁-- 19425
▁was 18817
▁for 17352
▁have 16973
▁are 16850
▁they 16308
▁on 16150
▁with 14948
▁can 14768
t 14459
▁So 14355
▁what 13961
- 13692
▁about 13274
▁be 12573
? 12047
▁at 11615
▁all 11356
re 11336
▁as 11200
▁do 11167
▁" 11045
▁not 10937
▁there 10929
▁It 10090
▁one 10063
▁like 9706
▁people 9622
▁so 9549
▁from 9431
▁my 9305
▁an 8624
▁just 8347
: 8246
▁but 8224
▁very 8102
▁or 7892
▁these 7839
▁But 7832
▁out 7818
▁We 7806
▁if 7778
▁know 7749
▁going 7563
▁our 7457
▁up 7285
▁The 7283
▁me 7121
▁them 7115
▁by 6889
▁he 6606
▁because 6604
▁see 6588
▁which 6533
▁when 6526
▁had 6511
▁think 6460
▁more 6312
m 6306
▁really 6242
." 6118
ve 6100
▁get 6053
▁your 5897
▁would 5882
▁who 5861
▁were 5847
▁here 5840
▁how 5837
▁their 5636
▁then 5549
▁This 5538
▁You 5269
▁time 5251
▁actually 5220
▁world 5209
▁has 5171
▁us 5058
▁into 5048
▁some 5044
▁don 5013
▁things 5011
▁way 4875
▁now 4739
▁years 4723
▁go 4610
▁where 4606
▁want 4592
▁will 4580
▁other 4473
▁Now 4372
▁They 4319
▁make 4264
▁could 4255
▁said 4195
▁been 4188
▁something 3994
▁♫ 3860
▁little 3787
▁right 3750
▁thing 3729
▁two 3721
▁got 3697
▁no 3660
▁much 3617
▁first 3580
▁than 3480
▁back 3477
▁look 3452
▁those 3422
▁say 3401
▁over 3371
▁That 3360
ing 3343
▁also 3338
▁kind 3190
▁work 3144
ll 3041
▁his 3032
▁life 3031
▁only 2976
▁she 2967
▁need 2948
▁lot 2946
▁take 2939
d 2924
; 2920
▁most 2918
ed 2865
▁In 2855
▁did 2831
▁There 2825
▁around 2774
▁good 2753
▁down 2737
▁even 2709
▁many 2704
▁different 2698
▁new 2621
▁What 2605
▁through 2474
▁doing 2447
▁He 2431
▁same 2425
▁come 2419
▁put 2392
▁her 2366
▁use 2358
▁every 2335
▁being 2310
▁three 2306
▁If 2277
▁called 2176
▁well 2148
▁any 2058
▁made 2050
▁day 2037
▁percent 2015
▁Well 2006
▁tell 1927
▁fact 1914
▁year 1901
▁human 1886
▁talk 1858
▁why 1857
▁great 1853
▁find 1843
?" 1823
▁idea 1806
▁didn 1785
▁last 1781
▁went 1764
▁thought 1763
▁big 1746
▁today 1744
▁after 1733
▁change 1733
▁off 1712
▁its 1711
▁course 1709
▁own 1708
▁A 1707
▁started 1706
▁should 1687
▁another 1681
▁give 1664
▁show 1663
▁before 1653
▁important 1643
▁let 1635
▁able 1603
▁start 1603
▁problem 1589
▁bit 1574
▁never 1570
▁better 1555
▁mean 1553
▁story 1552
▁ago 1540
▁part 1540
▁brain 1538
▁system 1537
▁long 1535
▁might 1528
▁again 1519
▁sort 1517
▁came 1502
▁does 1499
▁him 1496
▁together 1479
▁next 1477
▁water 1476
▁still 1467
▁place 1453
▁Thank 1427
▁few 1425
ers 1421
▁Because 1418
▁technology 1417
▁each 1411
▁used 1398
▁done 1392
▁between 1377
," 1372
▁end 1366
▁whole 1363
y 1356
▁looking 1355
▁point 1346
▁too 1333
▁example 1319
▁doesn 1312
▁understand 1309
▁question 1304
▁When 1300
▁real 1269
▁love 1263
▁million 1263
▁wanted 1243
▁call 1242
▁found 1242
▁try 1232
▁children 1230
▁four 1227
▁away 1205
▁trying 1205
" 1197
▁always 1197
er 1195
▁data 1191
▁working 1190
▁person 1184
▁ever 1177
▁feel 1155
▁believe 1154
▁may 1134
▁school 1132
▁live 1131
▁space 1125
al 1122
ly 1120
▁power 1117
▁five 1109
▁stuff 1108
▁took 1104
▁everything 1102
▁kids 1092
▁thinking 1088
▁design 1087
▁money 1084
▁10 1081
▁using 1081
▁women 1074
▁high 1071
▁How 1066
▁maybe 1066
▁One 1065
▁means 1063
▁left 1061
▁information 1051
▁light 1051
▁country 1049
▁getting 1044
▁quite 1043
▁create 1039
▁old 1036
▁small 1031
▁sense 1030
I 1029
▁These 1027
▁enough 1025
▁comes 1022
▁help 1012
▁second 1008
▁happened 1007
▁probably 1007
▁food 1000
▁interesting 999
▁building 998
▁future 996
▁Here 994
▁become 993
▁number 993
▁energy 989
ic 983
▁talking 978
▁play 977
▁best 975
▁man 969
▁making 964
▁dollars 956
▁Africa 954
▁times 948
▁She 945
! 944
▁coming 944
▁home 943
o 925
▁less 925
▁says 925
▁anything 922
▁pretty 915
a 910
▁hand 910
▁body 907
▁am 901
▁side 898
▁20 897
▁without 897
▁My 894
▁goes 893
S 879
▁saw 877
▁build 874
▁hard 874
▁ask 873
▁else 871
▁half 871
▁simple 869
▁happen 868
ated 866
▁room 865
▁basically 864
▁picture 864
▁car 863
▁seen 862
▁told 861
▁happens 860
▁across 855
▁social 852
▁countries 851
▁science 847
▁such 845
▁computer 837
▁moment 835
es 832
▁move 832
▁bad 823
▁makes 820
▁having 814
▁problems 814
ate 812
▁Let 808
▁living 803
▁care 801
▁Earth 800
▁book 800
▁days 799
▁ideas 799
▁mind 798
▁experience 795
▁case 793
th 790
▁lives 790
▁ways 790
▁later 788
▁planet 785
▁OK 784
▁under 784
▁learn 783
▁project 783
▁B 781
▁open 779
▁reason 778
▁All 777
▁asked 777
▁process 776
’ 774
▁For 773
▁top 773
▁far 771
▁six 771
▁family 766
▁saying 763
▁single 763
▁As 761
in 758
▁guy 756
▁child 755
▁U 754
▁inside 750
▁billion 740
▁looks 737
▁both 736
▁health 731
▁set 731
▁yet 730
or 729
▁within 729
▁wrong 728
▁possible 726
▁almost 725
▁New 723
▁business 721
▁cells 721
▁read 720
▁matter 717
▁once 716
▁No 714
▁form 714
▁history 714
▁looked 714
ating 712
▁music 712
▁whether 707
▁keep 705
▁young 704
▁bring 700
▁head 698
▁already 695
▁couple 693
▁true 693
▁heard 692
▁while 692
▁beautiful 687
▁imagine 687
▁nothing 687
▁answer 686
▁self 685
▁everybody 683
▁months 679
▁hope 673
▁turn 672
▁community 671
▁group 670
▁universe 669
▁amazing 666
▁line 665
▁often 665
▁India 664
▁piece 664
▁C 663
▁T 663
able 662
▁global 661
▁video 661
▁remember 660
▁built 659
▁God 657
▁Why 657
▁sure 657
ity 653
▁places 653
▁species 652
▁United 649
▁cancer 649
▁works 647
▁run 646
▁nature 643
▁language 640
▁must 640
▁myself 640
▁order 639
on 634
▁[ 634
▁somebody 634
▁face 632
▁P 631
▁control 629
▁someone 629
▁heart 627
▁until 625
▁age 624
▁per 624
▁words 624
▁kinds 621
▁... 620
i 619
▁taking 619
▁happening 617
▁men 617
▁city 615
▁large 614
▁itself 613
▁S 610
▁completely 610
▁gets 608
▁isn 607
▁minutes 607
▁decided 605
▁exactly 605
▁Then 603
▁level 603
▁public 603
▁M 602
▁research 602
▁wasn 601
▁job 600
▁States 599
▁education 599
▁students 598
ar 595
▁though 595
▁war 590
an 588
▁government 588
▁woman 587
▁model 586
▁word 586
en 585
▁disease 585
ation 583
▁became 583
▁front 583
▁D 582
et 580
▁game 580
▁huge 580
▁since 580
▁particular 579
▁stories 578
▁Internet 577
▁TED 577
▁mother 576
▁guys 575
▁news 575
b 574
▁name 574
▁animals 572
▁turns 572
▁figure 571
▁Or 570
▁company 570
▁stop 569
▁air 568
▁hear 568
▁un 568
▁won 568
h 566
▁ourselves 566
e 565
▁learned 565
▁rather 565
ist 562
▁share 562
▁America 561
▁ones 560
p 558
▁study 558
▁along 556
▁night 554
▁least 553
▁G 550
▁50 549
▁oil 549
▁lots 546
▁themselves 546
▁couldn 545
▁knew 544
▁past 544
▁art 543
▁environment 541
▁created 539
est 538
▁happy 538
▁sound 537
▁hours 536
▁F 535
▁early 533
▁worked 533
▁area 531
▁machine 530
▁wonderful 530
▁L 529
▁society 529
▁systems 529
le 528
▁friends 528
▁gave 528
l 527
f 526
▁land 526
▁difference 525
▁30 522
▁China 522
▁outside 522
▁taken 522
▁terms 522
▁market 521
▁against 520
▁questions 520
▁natural 518
▁seven 518
▁sometimes 518
ized 514
▁American 514
▁everyone 513
▁house 512
▁learning 512
▁moving 512
▁free 511
▁Okay 510
▁third 510
▁state 509
▁thousands 509
▁entire 507
▁black 505
Well 504
us 504
▁H 504
▁ocean 503
▁cell 501
▁century 499
▁rest 495
it 494
▁beginning 493
▁others 492
n 491
▁100 491
▁takes 491
▁view 491
▁instead 489
c 488
▁full 488
The 487
as 487
▁close 487
▁seeing 483
▁re 482
▁K 481
▁eyes 480
at 479
k 479
▁finally 478
▁needs 478
▁certain 477
▁leave 477
▁deal 475
▁York 474
▁parts 474
▁perhaps 474
▁difficult 472
▁whatever 472
▁eight 470
▁middle 470
▁population 470
▁cost 468
ies 467
▁amount 466
▁R 464
▁cannot 462
▁easy 461
▁turned 461
] 460
ates 460
▁culture 460
▁changed 459
▁grow 459
▁image 458
▁buy 456
▁size 455
▁longer 453
w 452
▁hands 451
▁test 451
▁15 450
▁walk 449
▁feet 448
▁given 448
ian 447
▁gone 447
▁interested 447
▁short 446
D 443
g 443
▁At 443
▁common 442
▁tried 440
▁yourself 440
▁met 439
▁surface 439
▁behind 438
▁began 437
▁during 437
▁low 435
old 434
▁scale 434
▁ability 431
▁spend 431
▁powerful 430
▁quickly 430
▁green 428
▁non 426
▁needed 425
▁behavior 424
▁local 424
▁Is 423
▁complex 423
▁realized 423
year 422
▁father 422
▁fun 422
▁paper 421
os 420
▁shows 420
▁Do 419
▁pay 419
▁simply 419
▁incredible 418
▁media 416
▁week 416
▁People 415
▁Some 415
is 414
▁E 414
You 412
▁sitting 411
What 410
ia 410
▁known 410
▁Right 409
▁parents 408
▁structure 408
C 407
▁red 405
st 404
▁fish 404
ted 403
▁write 403
▁economic 402
▁phone 401
▁spent 401
▁Just 400
▁areas 400
▁b 400
▁fly 400
▁team 400
ally 399
▁humans 399
▁either 398
ine 397
ness 397
▁economy 397
▁felt 396
▁weeks 396
▁brought 395
▁eat 395
▁lost 394
▁feeling 393
▁DNA 392
▁force 392
▁poor 392
r 391
▁film 390
▁W 389
▁bottom 389
▁changes 389
▁field 389
▁opportunity 389
▁program 389
▁animal 387
▁blue 387
▁cut 387
ical 386
▁step 383
▁based 382
▁companies 382
▁knowledge 382
▁technologies 382
▁CA 381
▁wrote 381
ically 380
▁growth 380
▁reality 380
▁ground 379
▁starting 379
▁blood 378
▁morning 377
▁average 376
▁nice 376
▁cities 375
▁individual 375
▁material 375
▁theory 375
▁value 375
▁watch 375
up 374
▁Yeah 374
▁books 374
▁center 373
▁developed 373
▁friend 372
▁guess 372
▁literally 371
▁speak 371
▁death 370
▁miles 370
▁Not 369
▁political 369
▁' 368
and 367
ize 367
▁To 367
▁forward 367
▁thank 367
il 366
ism 366
ment 366
▁wouldn 366
ics 365
▁scientists 365
▁sun 365
▁growing 364
▁English 363
▁physical 363
led 362
▁World 362
▁cool 362
▁On 361
▁giving 361
▁tools 361
▁personal 360
▁shape 360
▁deep 359
▁girl 359
▁playing 358
▁born 357
▁40 356
▁dark 356
▁die 356
▁white 356
▁ice 355
▁experiment 354
▁gives 354
▁result 354
▁Can 353
▁absolutely 353
▁images 353
▁running 352
▁audience 351
▁challenge 351
▁knows 351
▁seems 351
▁showed 351
▁attention 350
▁access 349
▁climate 349
▁developing 349
▁map 348
▁fast 347
▁realize 347
▁computers 346
ists 345
▁Chinese 345
▁understanding 345
▁talked 344
ant 343
▁relationship 342
▁incredibly 341
▁numbers 341
▁sh 341
am 340
▁color 340
▁discovered 340
▁stage 340
ings 339
▁kid 339
A 338
el 338
▁evolution 338
▁hold 338
▁patient 338
▁produce 337
▁w 337
▁clear 336
▁focus 336
▁available 335
▁begin 335
▁product 335
man 334
▁allow 334
▁movement 334
▁telling 333
▁key 332
▁major 332
ary 331
id 331
▁anyone 331
▁millions 331
▁dead 330
▁sea 330
▁modern 329
▁patients 329
▁haven 328
▁hundreds 328
▁pictures 328
▁stand 327
ous 326
▁South 326
▁involved 325
▁situation 325
▁f 324
▁reasons 324
▁seem 324
u 323
▁becomes 323
▁type 323
,000 322
▁Europe 322
▁Our 321
▁effect 321
▁h 321
▁industry 321
▁normal 321
N 320
ent 320
▁de 320
▁object 320
▁rate 320
Oh 319
ion 319
▁alone 319
▁p 319
▁present 319
▁putting 319
ations 318
▁baby 318
▁support 318
▁recently 317
▁act 316
▁r 315
2 313
ive 313
▁N 313
▁cars 313
▁wind 313
▁towards 312
ets 311
▁issue 311
▁rules 311
▁st 311
B 310
less 310
▁creating 310
▁special 310
▁tiny 310
P 309
▁device 309
▁aren 308
▁drive 308
▁lab 308
▁meet 308
to 307
▁anybody 307
▁box 307
▁bigger 306
▁groups 306
▁compassion 305
▁development 305
▁died 304
▁solution 304
▁teach 304
▁girls 303
▁explain 302
▁pattern 302
▁save 302
op 301
▁chance 301
▁lived 301
▁robot 301
▁general 300
▁hundred 300
▁risk 300
▁similar 300
ting 299
▁schools 299
▁writing 299
ot 298
▁happiness 298
ors 297
▁designed 297
▁materials 297
▁pick 297
▁resources 297
▁wall 297
▁class 296
▁eye 296
▁movie 296
▁network 296
▁solve 296
ad 295
om 295
▁action 295
▁generation 295
▁impact 295
▁games 294
▁nobody 294
▁wants 294
▁especially 293
▁period 293
▁soon 293
▁fear 292
▁showing 292
▁perfect 291
ch 290
▁12 290
▁obviously 290
▁yes 290
▁J 289
▁Oh 289
▁certainly 289
▁truth 289
als 288
▁asking 288
▁basic 288
▁changing 288
age 287
▁evidence 287
▁issues 287
K 286
ol 286
▁further 286
▁starts 286
ling 285
▁Google 285
▁fall 285
▁worth 285
▁message 284
▁skin 284
▁software 284
ator 283
ig 283
▁By 283
▁pre 283
▁projects 283
▁wish 283
▁Yes 282
▁digital 282
▁examples 282
▁exciting 282
▁mass 282
um 281
▁moved 281
▁scientific 281
▁solar 281
▁table 281
▁beyond 280
▁month 280
▁potential 280
▁several 280
▁totally 280
▁First 279
▁innovation 279
▁measure 279
▁25 278
▁fire 278
▁send 278
ry 277
▁carbon 277
▁office 277
▁break 276
▁develop 276
▁village 276
▁onto 275
▁sit 275
T 274
ter 274
▁Maybe 274
▁Of 274
▁particularly 274
▁street 274
▁approach 273
▁choice 273
▁hit 273
▁nine 273
▁plants 273
▁Most 272
▁d 272
▁everywhere 272
▁named 272
▁student 272
▁camera 271
▁thousand 271
▁follow 270
▁hour 270
▁quality 270
▁Al 269
▁reach 269
▁voice 269
▁walking 269
ish 268
▁add 268
▁extremely 267
▁notice 266
▁nuclear 266
un 265
▁18 265
▁Every 265
▁bunch 265
▁medical 265
▁song 265
▁West 264
▁online 264
M 263
▁activity 263
▁speed 263
▁HIV 262
▁success 262
▁teachers 262
▁visual 262
▁door 261
▁road 261
▁likely 260
▁screen 260
▁sorts 260
ur 259
▁African 258
▁biggest 258
▁extraordinary 258
▁revolution 258
▁source 258
▁teacher 258
ans 257
ial 257
ro 257
▁supposed 257
▁mine 256
▁strong 256
▁tool 256
▁trees 256
▁expect 255
▁objects 255
▁sent 255
▁serious 255
▁sounds 255
▁East 254
▁allowed 254
▁listen 254
▁lose 254
▁essentially 253
▁goal 253
▁list 253
▁smart 253
▁son 253
▁waste 253
ens 252
▁faster 252
▁genes 251
▁higher 251
▁positive 251
▁spread 251
▁wait 251
▁arm 250
▁connected 250
▁content 250
▁favorite 250
▁grew 250
▁journey 250
▁main 250
▁minute 250
▁plan 250
▁somewhere 250
▁stay 250
▁suddenly 250
▁V 249
▁gas 249
▁led 249
▁results 249
▁tend 249
▁eventually 248
▁pain 248
▁ready 248
▁sp 248
▁co 247
▁site 247
▁wife 247
▁drug 246
▁ended 246
▁moral 246
▁O 245
▁among 245
▁drugs 245
▁excited 245
▁hot 245
▁position 245
▁price 245
▁vision 245
▁Chris 244
▁cr 244
▁lead 244
les 243
5 242
ators 242
▁buildings 242
▁g 242
▁impossible 242
▁law 242
▁shown 242
▁points 241
▁record 241
▁tree 241
▁version 241
ance 240
▁Which 240
▁continue 240
▁series 240
We 239
▁After 239
▁national 239
▁sell 239
ful 238
ie 238
▁above 238
▁complicated 238
▁democracy 238
▁hospital 238
▁meant 238
▁somehow 238
▁watching 238
▁late 237
▁200 236
▁biology 236
▁fundamental 236
▁killed 236
▁larger 236
▁role 236
▁upon 236
▁concept 235
▁forms 235
▁m 235
▁okay 235
▁pieces 235
▁post 235
▁60 234
▁Even 234
▁Sh 234
▁brains 234
▁leaders 234
ay 233
ization 233
▁individuals 233
▁interest 233
▁peace 233
▁please 233
▁tells 233
▁touch 233
., 232
No 232
▁code 232
▁crazy 232
▁fine 232
▁indeed 232
▁models 232
▁progress 232
ard 231
▁cause 231
▁military 231
▁poverty 231
▁stars 231
!" 230
izing 230
▁conditions 230
▁medicine 230
▁products 230
im 229
▁forth 229
▁lower 229
▁security 229
▁sub 229
▁trust 229
▁yeah 229
E 228
ts 228
▁North 228
▁TV 228
▁Where 228
▁bed 228
▁electricity 228
▁plant 228
▁smaller 228
its 227
▁context 227
▁decision 227
▁meaning 227
▁page 227
▁perspective 227
▁response 227
▁safe 227
▁taught 227
▁alive 226
▁anywhere 226
▁dis 226
▁s 226
▁studies 226
▁An 225
▁Don 225
▁boy 225
▁Who 224
▁architecture 224
▁except 224
▁sky 224
▁t 224
v 223
▁beings 223
▁machines 223
▁sex 223
▁successful 223
▁Look 222
▁bacteria 222
▁college 222
▁l 222
▁path 222
▁worse 222
▁Like 221
▁kill 221
▁largest 221
▁standing 221
▁usually 221
▁written 221
▁Those 220
▁actual 220
▁allows 220
▁beauty 220
▁himself 220
▁plastic 220
R 219
▁communities 219
▁kept 219
▁reading 219
▁rich 219
▁treat 219
L 218
ars 218
▁crisis 218
▁service 218
▁slow 218
▁truly 218
▁direction 217
▁doctor 217
▁earlier 217
▁seconds 217
▁sl 217
▁zero 217
▁Another 216
▁dream 216
▁genetic 216
▁legs 216
▁pull 216
▁cold 215
▁expensive 215
▁fantastic 215
▁finding 215
▁policy 215
▁skills 215
▁virus 215
ks 214
▁Americans 214
▁physics 214
▁robots 214
▁80 213
▁critical 213
▁lines 213
▁cases 212
▁creative 212
▁foot 212
▁listening 212
▁oh 212
▁recognize 212
▁store 212
▁temperature 212
▁traditional 212
▁c 211
▁including 211
▁subject 211
▁capital 210
▁dog 210
▁draw 210
▁exist 210
▁greater 210
▁n 210
▁solutions 210
z 209
▁anymore 209
▁character 209
▁choose 209
▁consider 209
▁patterns 209
▁training 209
one 208
▁X 208
▁jobs 208
▁older 208
▁rise 208
▁sc 208
▁shot 208
▁treatment 208
▁website 208
F 207
the 207
▁Mars 207
▁anyway 207
▁decisions 207
▁increase 207
▁slide 207
▁clean 206
▁famous 206
▁healthy 206
▁math 206
▁therefore 206
▁families 205
▁photograph 205
▁production 205
▁range 205
▁travel 205
▁wonder 205
ain 204
▁various 204
▁clearly 203
▁invented 203
▁television 203
1 202
▁dangerous 202
▁familiar 202
▁organization 202
▁provide 202
▁town 202
▁train 202
▁3 201
▁driving 201
▁press 201
▁region 201
▁walked 201
ments 200
▁Two 200
▁teaching 200
7 199
ul 199
▁With 199
▁aid 199
▁board 199
▁cl 199
▁connect 199
▁final 199
▁floor 199
▁following 199
▁oxygen 199
▁protect 199
▁star 199
▁urban 199
▁earth 198
▁near 198
▁engineering 197
▁mental 197
▁sat 197
▁weren 197
out 196
▁costs 196
▁dance 196
▁heat 196
▁levels 196
▁magic 196
ak 195
▁21 195
▁90 195
▁ch 195
▁fuel 195
▁immediately 195
▁sign 195
▁specific 195
▁super 195
▁throughout 195
ut 194
▁Ch 194
▁enormous 194
▁neurons 194
▁strange 194
H 193
se 193
▁11 193
▁Man 193
▁current 193
▁environmental 193
▁flying 193
▁types 193
▁understood 193
ence 192
od 192
▁University 192
▁ahead 192
▁although 192
▁etc 192
▁feed 192
▁meeting 192
▁performance 192
▁decade 191
▁instance 191
▁task 191
ab 190
ative 190
▁Are 190
▁War 190
▁international 190
▁quick 190
▁remarkable 190
▁terrible 190
▁violence 190
▁weight 190
▁— 190
king 189
▁flow 189
▁minds 189
▁sand 189
▁London 188
▁conference 188
▁conversation 188
▁evolved 188
▁memory 188
▁sleep 188
▁survive 188
▁trade 188
▁values 188
ow 187
▁becoming 187
▁directly 187
▁event 187
▁hole 187
▁obvious 187
▁uses 187
▁waiting 187
ap 186
he 186
ure 186
▁bodies 186
▁function 186
▁track 186
▁useful 186
ag 185
ious 185
▁National 185
▁connection 185
▁flu 185
▁produced 185
▁rule 185
ge 184
like 184
▁causes 184
▁designers 184
▁income 184
▁nation 184
▁practice 184
▁stick 184
end 183
▁Web 183
▁Y 183
▁loved 183
How 182
▁Dr 182
▁below 182
▁extra 182
▁humanity 182
▁original 182
▁raise 182
▁straight 182
▁summer 182
▁supply 182
▁trouble 182
sh 181
▁City 181
▁Imagine 181
▁Western 181
▁artist 181
▁mom 181
▁res 181
▁square 181
▁tr 181
8 180
all 180
▁Afghanistan 180
▁Re 180
▁bought 180
▁creativity 180
▁push 180
▁ran 180
G 179
▁forces 179
▁hair 179
▁institutions 179
▁played 179
▁possibly 179
▁purpose 179
ology 178
▁17 178
▁500 178
▁birds 178
▁closer 178
▁decide 178
▁drop 178
▁intelligence 178
▁organisms 178
▁private 178
▁rights 178
▁search 178
▁sick 178
▁surgery 178
▁trial 178
▁complexity 177
▁freedom 177
▁glass 177
▁notion 177
▁politics 177
▁published 177
▁respect 177
▁web 177
▁atmosphere 176
▁fit 176
▁governments 176
▁twice 176
▁willing 176
▁CO 175
▁Today 175
▁bar 175
▁bl 175
▁boys 175
▁carry 175
▁effects 175
▁experiments 175
▁secret 175
▁states 175
▁whose 175
ri 174
▁Z 174
It 173
Why 173
og 173
▁Iraq 173
▁Your 173
▁active 173
▁ball 173
▁diseases 173
▁e 173
▁financial 173
▁greatest 173
▁popular 173
ah 172
▁10,000 172
▁basis 172
▁capacity 172
▁fight 172
▁genome 172
▁mostly 172
▁pressure 172
3 171
ac 171
ill 171
▁Again 171
▁Middle 171
▁Think 171
▁cultural 171
▁degrees 171
▁discover 171
time 170
▁Indian 170
▁aware 170
▁race 170
▁California 169
▁apart 169
▁biological 169
▁birth 169
▁corner 169
▁emotional 169
▁k 169
▁paid 169
▁speaking 169
▁win 169
9 168
ities 168
▁ad 168
▁babies 168
▁blind 168
▁complete 168
▁fl 168
▁gene 168
▁interact 168
▁massive 168
▁pass 168
▁shared 168
▁16 167
▁forget 167
▁imp 167
▁la 167
▁rock 167
▁slightly 167
▁tremendous 167
ited 166
▁bread 166
▁chemical 166
▁conflict 166
▁cover 166
▁doctors 166
▁effort 166
▁infrastructure 166
▁molecules 166
▁stem 166
▁effective 165
▁micro 165
▁significant 165
▁standard 165
▁total 165
▁wild 165
ack 164
me 164
oc 164
▁14 164
▁gotten 164
▁networks 164
▁o 164
▁police 164
▁window 164
▁bringing 163
▁challenges 163
▁coffee 163
▁eating 163
▁fix 163
▁funny 163
▁hearing 163
▁worry 163
be 162
ner 162
▁communication 162
▁fairly 162
▁forest 162
▁mobile 162
▁mountain 162
▁services 162
▁sustainable 162
6 161
ged 161
ified 161
▁John 161
▁charge 161
▁disc 161
▁elements 161
▁explore 161
▁seemed 161
ash 160
▁achieve 160
▁central 160
▁check 160
▁cross 160
▁focused 160
▁join 160
▁planets 160
▁religion 160
▁responsibility 160
▁scientist 160
▁sold 160
▁stopped 160
▁term 160
ice 159
ra 159
term 159
▁career 159
▁differences 159
▁none 159
▁workers 159
ably 158
amp 158
▁Many 158
▁Second 158
▁afford 158
▁broken 158
▁choices 158
▁creates 158
▁easily 158
▁farmers 158
▁gr 158
▁inspired 158
▁passion 158
▁possibility 158
▁recent 158
▁throw 158
▁unique 158
ast 157
ick 157
ite 157
▁David 157
▁bridge 157
▁dad 157
▁helped 157
▁lights 157
▁noticed 157
▁programs 157
▁yellow 157
ions 156
▁Le 156
▁answers 156
▁artists 156
▁creatures 156
▁sw 156
▁worst 156
aw 155
line 155
of 155
▁His 155
▁Japan 155
▁condition 155
▁devices 155
▁helping 155
▁predict 155
▁From 154
▁attack 154
▁commercial 154
▁dying 154
▁radio 154
▁spending 154
▁streets 154
ck 153
▁300 153
▁address 153
▁ancient 153
▁consciousness 153
▁graph 153
▁text 153
ability 152
▁70 152
▁Asia 152
▁diversity 152
▁fashion 152
▁markets 152
▁particles 152
▁sorry 152
▁studying 152
▁Instead 151
▁San 151
4 150
based 150
dimensional 150
ver 150
way 150
▁St 150
▁agree 150
▁bird 150
▁daughter 150
▁fully 150
▁imagination 150
▁members 150
▁necessarily 150
▁societies 150
ach 149
▁Very 149
▁br 149
▁cheap 149
▁colleagues 149
▁feels 149
▁missing 149
▁mission 149
ake 148
ct 148
j 148
▁Go 148
▁communicate 148
▁differently 148
▁flight 148
▁highly 148
▁negative 148
▁rain 148
▁reduce 148
▁related 148
▁sequence 148
te 147
▁Good 147
▁Great 147
▁Sun 147
▁background 147
▁block 147
▁breast 147
▁competition 147
▁decades 147
▁dollar 147
▁passed 147
▁sharing 147
▁shift 147
ual 146
ys 146
▁1,000 146
▁Be 146
▁Life 146
▁Richard 146
▁benefits 146
▁mis 146
▁pe 146
▁return 146
▁se 146
ier 145
ins 145
ning 145
▁figured 145
▁forever 145
▁inf 145
▁landscape 145
▁slowly 145
▁structures 145
▁v 145
com 144
▁balance 144
▁electric 144
▁ha 144
▁opened 144
▁organizations 144
act 143
ass 143
ce 143
ir 143
▁British 143
▁brand 143
▁civilization 143
▁definition 143
▁hell 143
▁knowing 143
▁opportunities 143
▁painting 143
▁photo 143
▁pl 143
▁prevent 143
▁relationships 143
W 142
ving 142
we 142
x 142
▁AIDS 142
▁French 142
▁engine 142
▁events 142
▁letter 142
▁seat 142
▁turning 142
ians 141
ile 141
ons 141
▁Big 141
▁Everybody 141
▁See 141
▁brilliant 141
▁enjoy 141
▁holding 141
▁importantly 141
▁molecule 141
▁moon 141
▁necessary 141
▁religious 141
▁transform 141
ering 140
ide 140
istic 140
▁Actually 140
▁afraid 140
▁al 140
▁brings 140
▁civil 140
▁ex 140
▁jump 140
▁moments 140
▁tissue 140
O 139
aking 139
ites 139
▁19 139
▁base 139
▁billions 139
▁boat 139
▁labor 139
▁lucky 139
▁pages 139
▁quote 139
▁separate 139
▁vast 139
ang 138
de 138
ids 138
ives 138
▁apply 138
▁creation 138
▁j 138
▁male 138
▁mouse 138
▁phenomenon 138
▁rec 138
▁spot 138
▁virtual 138
▁visit 138
This 137
em 137
ne 137
▁Thanks 137
▁calls 137
▁caught 137
▁citizens 137
▁entirely 137
▁influence 137
▁loss 137
▁moves 137
▁trick 137
▁versus 137
ai 136
ps 136
▁Mr 136
▁affect 136
▁bomb 136
▁concerned 136
▁def 136
▁degree 136
▁describe 136
▁double 136
▁emotions 136
▁engage 136
▁engineers 136
▁finished 136
▁galaxies 136
▁grand 136
▁improve 136
▁laws 136
▁trained 136
▁weird 136
ber 135
hip 135
ight 135
ory 135
▁airplane 135
▁card 135
▁collect 135
▁cur 135
▁distance 135
▁foreign 135
▁giant 135
▁inter 135
▁noise 135
▁speech 135
▁sudden 135
▁suffering 135
▁wh 135
art 134
av 134
ess 134
iv 134
▁female 134
▁industrial 134
▁le 134
▁leading 134
▁mouth 134
▁party 134
▁ship 134
▁spirit 134
▁statistics 134
▁trip 134
ats 133
ose 133
▁advantage 133
▁catch 133
▁compared 133
▁fresh 133
▁joy 133
▁mid 133
▁opposite 133
▁stuck 133
ble 132
▁Me 132
▁Sometimes 132
▁childhood 132
▁circle 132
▁count 132
▁heads 132
▁lack 132
▁languages 132
▁leaving 132
▁meat 132
▁nearly 132
▁signal 132
acy 131
ational 131
ise 131
ust 131
▁benefit 131
▁bi 131
▁despite 131
▁easier 131
▁investment 131
▁sector 131
▁talks 131
▁warming 131
ants 130
ered 130
ler 130
▁article 130
▁breath 130
▁capable 130
▁colors 130
▁cycle 130
▁faces 130
▁intelligent 130
▁leads 130
▁organic 130
▁professional 130
▁responsible 130
▁studied 130
▁walls 130
ality 129
ore 129
▁MIT 129
▁More 129
▁account 129
▁bright 129
▁dimensions 129
▁dreams 129
▁helps 129
▁mathematics 129
▁operating 129
▁plane 129
▁random 129
▁reward 129
▁rid 129
▁threat 129
▁400 128
▁Einstein 128
▁core 128
▁desire 128
▁factory 128
▁failed 128
▁insects 128
▁matters 128
▁neighborhood 128
▁report 128
▁sister 128
▁theater 128
▁tough 128
▁weapons 128
▁wisdom 128
ively 127
ma 127
tr 127
▁Take 127
▁avoid 127
▁bone 127
▁brother 127
▁closed 127
▁discovery 127
▁equivalent 127
▁fighting 127
▁finger 127
▁galaxy 127
▁meters 127
▁respond 127
▁24 126
▁Each 126
▁chair 126
▁oceans 126
▁perfectly 126
▁phones 126
▁proud 126
▁represent 126
▁roll 126
▁shoes 126
▁te 126
▁thinks 126
▁unfortunately 126
▁wealth 126
ible 125
▁Anyway 125
▁Audience 125
▁Once 125
▁Washington 125
▁ab 125
▁bank 125
▁deeply 125
▁direct 125
▁faith 125
▁hate 125
▁identity 125
▁lesson 125
▁movies 125
▁museum 125
▁principle 125
▁principles 125
▁profound 125
▁raised 125
▁spaces 125
▁steps 125
▁wearing 125
bl 124
ip 124
▁Facebook 124
▁Iran 124
▁bits 124
▁drawing 124
▁dry 124
▁failure 124
▁harder 124
▁layer 124
▁pounds 124
▁soil 124
▁tail 124
▁typical 124
▁ultimately 124
▁vehicle 124
ages 123
by 123
ches 123
▁Th 123
▁adults 123
▁arms 123
▁battery 123
▁contact 123
▁copy 123
▁efficient 123
▁era 123
▁held 123
▁invest 123
▁lunch 123
▁mentioned 123
▁muscle 123
▁offer 123
▁whom 123
▁da 122
▁dec 122
▁designing 122
▁distribution 122
▁fascinating 122
▁gl 122
▁grown 122
▁managed 122
▁master 122
▁organ 122
▁otherwise 122
▁pack 122
▁park 122
▁rural 122
▁scene 122
▁strength 122
▁tens 122
Hey 121
▁13 121
▁Over 121
▁ant 121
▁argument 121
▁edge 121
▁flat 121
▁hopefully 121
▁leg 121
▁metaphor 121
▁names 121
▁yesterday 121
ots 120
▁artificial 120
▁believed 120
▁continent 120
▁described 120
▁detail 120
▁exists 120
▁experiences 120
▁highest 120
▁legal 120
▁magazine 120
▁multiple 120
▁normally 120
▁north 120
▁soldiers 120
▁stupid 120
ines 119
ink 119
ored 119
ug 119
ying 119
▁Bill 119
▁bees 119
▁begins 119
▁campaign 119
▁everyday 119
▁fields 119
▁island 119
▁protein 119
▁seriously 119
▁shouldn 119
▁worried 119
If 118
hand 118
ub 118
▁However 118
▁ants 118
▁compare 118
▁curious 118
▁deliver 118
▁engineer 118
▁holes 118
▁inner 118
▁invited 118
▁mon 118
▁motion 118
▁motor 118
▁planning 118
▁prison 118
▁resource 118
▁river 118
▁station 118
af 117
ished 117
ong 117
▁2,000 117
▁Three 117
▁classroom 117
▁cognitive 117
▁constantly 117
▁demand 117
▁desert 117
▁designer 117
▁economics 117
▁electrical 117
▁email 117
▁express 117
▁farm 117
▁finish 117
▁husband 117
▁justice 117
▁pro 117
are 116
ency 116
lo 116
ton 116
ures 116
▁European 116
▁Her 116
▁Mexico 116
▁Times 116
▁appear 116
▁beat 116
▁chemistry 116
▁counter 116
▁currently 116
▁debate 116
▁followed 116
▁letters 116
▁link 116
▁net 116
▁property 116
▁round 116
▁shapes 116
▁trials 116
▁weather 116
Yes 115
ath 115
ition 115
ms 115
▁100,000 115
▁Britain 115
▁Everything 115
▁argue 115
▁click 115
▁collective 115
▁crime 115
▁dinner 115
▁empty 115
▁hadn 115
▁intellectual 115
▁medium 115
▁nervous 115
▁ordinary 115
▁paying 115
▁remote 115
▁saving 115
▁signals 115
▁sugar 115
▁surprise 115
▁toward 115
▁wear 115
▁Darwin 114
▁Islam 114
▁addition 114
▁bus 114
▁coast 114
▁damage 114
▁fat 114
▁fourth 114
▁malaria 114
▁producing 114
▁represents 114
▁vote 114
ify 113
ric 113
▁150 113
▁Harvard 113
▁Ph 113
▁arts 113
▁covered 113
▁dinosaurs 113
▁dots 113
▁folks 113
▁suggest 113
▁th 113
cent 112
ium 112
ten 112
▁Their 112
▁bear 112
▁businesses 112
▁camp 112
▁coal 112
▁coral 112
▁emotion 112
▁equal 112
▁evolutionary 112
▁feedback 112
▁feelings 112
▁fell 112
▁fellow 112
▁filled 112
▁ge 112
▁grade 112
▁hydrogen 112
▁interaction 112
▁losing 112
▁players 112
▁strategy 112
▁surprising 112
▁survival 112
▁teeth 112
▁treated 112
▁viruses 112
▁wave 112
▁England 111
▁Japanese 111
▁May 111
▁accept 111
▁agriculture 111
▁arrived 111
▁cloud 111
▁dynamic 111
▁fr 111
▁generations 111
▁grandmother 111
▁importance 111
▁independent 111
▁invisible 111
▁launched 111
▁leader 111
▁leaves 111
▁lie 111
▁match 111
▁mortality 111
▁mothers 111
▁sentence 111
▁sharks 111
▁tomorrow 111
▁universal 111
/ 110
ale 110
fully 110
ied 110
ke 110
off 110
qu 110
red 110
ress 110
▁Charles 110
▁George 110
▁adult 110
▁clinical 110
▁dealing 110
▁details 110
▁entrepreneurs 110
▁extreme 110
▁hasn 110
▁li 110
▁limited 110
▁majority 110
▁pop 110
▁roughly 110
▁traffic 110
▁university 110
ud 109
▁Have 109
▁Kenya 109
▁NASA 109
▁Nigeria 109
▁characters 109
▁effectively 109
▁enter 109
▁equipment 109
▁generate 109
▁honest 109
▁instrument 109
▁keeping 109
▁married 109
▁note 109
▁opening 109
▁pleasure 109
▁restaurant 109
▁sn 109
▁stress 109
▁testing 109
▁unless 109
ening 108
ob 108
ography 108
▁caused 108
▁consequences 108
▁emerging 108
▁gun 108
▁kilometers 108
▁lady 108
▁photos 108
▁player 108
▁possibilities 108
▁solid 108
▁tumor 108
That 107
V 107
ca 107
ction 107
ologists 107
▁Anderson 107
▁Did 107
▁Paul 107
▁Twitter 107
▁absolute 107
▁alternative 107
▁cat 107
▁date 107
▁drink 107
▁evil 107
▁experts 107
▁flies 107
▁heavy 107
▁horse 107
▁increasingly 107
▁picked 107
▁sites 107
0 106
ase 106
ep 106
pping 106
▁Brazil 106
▁anti 106
▁associated 106
▁awful 106
▁chemicals 106
▁consumer 106
▁ends 106
▁essential 106
▁interface 106
▁lay 106
▁metal 106
▁method 106
▁technical 106
▁variety 106
▁warm 106
ace 105
ese 105
▁2 105
▁Francisco 105
▁Institute 105
▁construction 105
▁detect 105
▁display 105
▁due 105
▁killing 105
▁liked 105
▁spoke 105
▁tax 105
▁transformation 105
▁underneath 105
els 104
ere 104
ok 104
olds 104
ty 104
▁ 104
▁according 104
▁affected 104
▁bottle 104
▁chain 104
▁cutting 104
▁daily 104
▁depression 104
▁harm 104
▁lo 104
▁president 104
▁processes 104
▁reaction 104
▁sad 104
▁saved 104
▁silk 104
U 103
etic 103
ging 103
land 103
min 103
pe 103
ue 103
▁Se 103
▁belief 103
▁budget 103
▁buying 103
▁components 103
▁computing 103
▁considered 103
▁convince 103
▁define 103
▁factor 103
▁gap 103
▁generally 103
▁manage 103
▁platform 103
▁ro 103
▁row 103
▁serve 103
▁smile 103
▁spectrum 103
▁stood 103
2. 102
ils 102
▁Michael 102
▁Pakistan 102
▁bet 102
▁carefully 102
▁consumption 102
▁diet 102
▁exercise 102
▁fill 102
▁identify 102
▁mention 102
▁newspaper 102
▁partner 102
▁rapidly 102
▁rates 102
▁requires 102
▁ret 102
▁south 102
▁wine 102
ane 101
aring 101
ologist 101
▁President 101
▁accident 101
▁driver 101
▁increasing 101
▁introduced 101
▁nations 101
▁paint 101
▁pen 101
▁prepared 101
▁primary 101
▁protection 101
▁satellite 101
▁selling 101
▁sing 101
▁sources 101
▁specifically 101
▁sweet 101
▁ten 101
▁videos 101
aps 100
ave 100
day 100
▁analysis 100
▁calling 100
▁climb 100
▁clip 100
▁cultures 100
▁disaster 100
▁fair 100
▁fossil 100
▁location 100
▁perception 100
▁photographs 100
▁presentation 100
▁smell 100
▁steel 100
▁switch 100
▁theme 100
aged 99
cks 99
ov 99
▁School 99
▁Street 99
▁broke 99
▁burn 99
▁cameras 99
▁dev 99
▁emissions 99
▁en 99
▁facing 99
▁gold 99
▁grid 99
▁invention 99
▁puts 99
▁relatively 99
▁ride 99
▁shop 99
▁situations 99
▁status 99
▁stream 99
▁surprised 99
▁winter 99
Look 98
mer 98
oo 98
oring 98
ously 98
ves 98
▁45 98
▁Bank 98
▁Israel 98
▁Last 98
▁atoms 98
▁cards 98
▁crash 98
▁exchange 98
▁expression 98
▁hidden 98
▁lifetime 98
▁liquid 98
▁print 98
▁regular 98
▁solved 98
▁string 98
▁sum 98
▁target 98
▁thoughts 98
▁tons 98
ced 97
ces 97
ene 97
lling 97
pl 97
▁Br 97
▁Pacific 97
▁YouTube 97
▁clever 97
▁convinced 97
▁definitely 97
▁expected 97
▁grain 97
▁hits 97
▁homes 97
▁leadership 97
▁mathematical 97
▁neighbors 97
▁ought 97
▁practical 97
▁received 97
▁safety 97
▁valuable 97
▁wake 97
▁watched 97
▁waves 97
▁y 97
2, 96
ade 96
ending 96
ert 96
if 96
ort 96
ush 96
▁Center 96
▁aging 96
▁correct 96
▁cortex 96
▁cow 96
▁environments 96
▁existence 96
▁forced 96
▁gravity 96
▁introduce 96
▁marketing 96
▁movements 96
▁organized 96
▁perform 96
▁previous 96
▁promise 96
▁pulled 96
▁radiation 96
▁rare 96
▁researchers 96
▁roof 96
▁shoot 96
▁squ 96
▁suppose 96
▁user 96
▁wondering 96
int 95
▁$ 95
▁35 95
▁Would 95
▁ar 95
▁blocks 95
▁chicken 95
▁comfortable 95
▁cooking 95
▁fail 95
▁fake 95
▁mirror 95
▁mistakes 95
▁organs 95
▁prove 95
▁release 95
▁replace 95
▁require 95
▁shark 95
▁struggle 95
▁sunlight 95
▁users 95
▁wide 95
ents 94
ifying 94
ind 94
ome 94
ven 94
▁Ad 94
▁GDP 94
▁Mar 94
▁Ne 94
▁advanced 94
▁applied 94
▁connections 94
▁cook 94
▁curve 94
▁depend 94
▁efficiency 94
▁element 94
▁epidemic 94
▁experienced 94
▁framework 94
▁infected 94
▁length 94
▁mess 94
▁molecular 94
▁personally 94
▁quiet 94
▁rocket 94
▁sending 94
▁singing 94
▁soft 94
▁techniques 94
ined 93
io 93
ute 93
▁Also 93
▁Arab 93
▁Women 93
▁attempt 93
▁centers 93
▁creature 93
▁credit 93
▁discussion 93
▁election 93
▁gang 93
▁graduate 93
▁opinion 93
▁politicians 93
▁sides 93
▁str 93
▁studio 93
▁ultimate 93
▁vaccine 93
▁worlds 93
atory 92
scale 92
ured 92
▁Does 92
▁Wikipedia 92
▁behaviors 92
▁carrying 92
▁comfort 92
▁deeper 92
▁driven 92
▁ecosystem 92
▁gain 92
▁honor 92
▁hoping 92
▁interests 92
▁kitchen 92
▁med 92
▁microbes 92
▁mountains 92
▁occur 92
▁organism 92
▁properties 92
▁radical 92
▁recorded 92
▁required 92
▁sample 92
▁stone 92
▁unusual 92
▁worldwide 92
Do 91
J 91
ung 91
▁75 91
▁Am 91
▁Germany 91
▁acting 91
▁admit 91
▁bag 91
▁claim 91
▁combination 91
▁crowd 91
▁destruction 91
▁dropped 91
▁employees 91
▁encourage 91
▁fewer 91
▁fingers 91
▁houses 91
▁joke 91
▁keeps 91
▁laptop 91
▁marriage 91
▁naturally 91
▁occurred 91
▁processing 91
▁productive 91
▁quantum 91
▁rep 91
▁reverse 91
▁risks 91
▁split 91
▁swim 91
▁victims 91
atic 90
cl 90
ination 90
men 90
▁5,000 90
▁600 90
▁added 90
▁blow 90
▁corruption 90
▁depends 90
▁goods 90
▁hurt 90
▁invent 90
▁lies 90
▁mile 90
▁operation 90
▁penguins 90
▁poetry 90
▁ref 90
▁runs 90
▁setting 90
▁sexual 90
▁taste 90
▁thin 90
▁tradition 90
▁traveling 90
▁upper 90
▁voices 90
▁whenever 90
Yeah 89
ank 89
ased 89
ern 89
gr 89
her 89
itting 89
la 89
ular 89
work 89
▁Canada 89
▁Chicago 89
▁Muslim 89
▁Red 89
▁activities 89
▁aspect 89
▁band 89
▁capture 89
▁democratic 89
▁eggs 89
▁factors 89
▁figures 89
▁fundamentally 89
▁gentlemen 89
▁goals 89
▁inc 89
▁king 89
▁launch 89
▁maps 89
▁measured 89
▁percentage 89
▁plus 89
▁polio 89
▁proteins 89
▁relative 89
▁shut 89
▁sm 89
▁technological 89
▁thanks 89
▁transition 89
▁Australia 88
▁Basically 88
▁Bush 88
▁Come 88
▁II 88
▁Project 88
▁architect 88
▁battle 88
▁burning 88
▁el 88
▁explanation 88
▁facts 88
▁foundation 88
▁gift 88
▁hero 88
▁ins 88
▁lessons 88
▁mistake 88
▁mix 88
▁pair 88
▁quarter 88
▁reform 88
▁snow 88
▁tape 88
▁thick 88
▁unit 88
Okay 87
board 87
dy 87
foot 87
hing 87
ider 87
ik 87
ray 87
▁3,000 87
▁afternoon 87
▁bo 87
▁collapse 87
▁defined 87
▁du 87
▁exact 87
▁formed 87
▁garden 87
▁host 87
▁institution 87
▁messages 87
▁nose 87
▁origin 87
▁pig 87
▁pollen 87
▁psychology 87
▁pump 87
▁relevant 87
▁rem 87
▁remains 87
▁sees 87
▁selection 87
▁skill 87
▁sphere 87
▁spring 87
▁vulnerable 87
▁weak 87
▁wood 87
ron 86
▁4 86
▁Day 86
▁abstract 86
▁ancestors 86
▁behavioral 86
▁boring 86
▁boxes 86
▁contract 86
▁entertainment 86
▁fishing 86
▁literature 86
▁management 86
▁meaningful 86
▁novel 86
▁par 86
▁peak 86
▁reached 86
▁title 86
▁visible 86
aving 85
ock 85
▁De 85
▁Woman 85
▁appropriate 85
▁cents 85
▁circumstances 85
▁concepts 85
▁continued 85
▁decline 85
▁dogs 85
▁dress 85
▁enc 85
▁error 85
▁functions 85
▁grass 85
▁include 85
▁laugh 85
▁manufacturing 85
▁member 85
▁paradigm 85
▁participate 85
▁rational 85
▁reference 85
▁remain 85
▁signs 85
▁sophisticated 85
▁symbol 85
▁trillion 85
▁typically 85
▁wire 85
che 84
ci 84
iness 84
ony 84
per 84
▁197 84
▁Boston 84
▁Five 84
▁Gulf 84
▁Nobody 84
▁controlled 84
▁ears 84
▁explained 84
▁falling 84
▁feature 84
▁features 84
▁flowers 84
▁ideal 84
▁input 84
▁internal 84
▁notes 84
▁parent 84
▁po 84
▁polar 84
▁professor 84
▁regions 84
▁relate 84
▁remind 84
▁shame 84
▁staff 84
▁tests 84
▁und 84
▁wars 84
0, 83
being 83
ened 83
ibility 83
ich 83
ops 83
ries 83
uck 83
▁Congress 83
▁James 83
▁King 83
▁Science 83
▁September 83
▁Since 83
▁Unfortunately 83
▁Yet 83
▁balloon 83
▁birthday 83
▁deaths 83
▁dramatic 83
▁drives 83
▁em 83
▁engaged 83
▁fe 83
▁films 83
▁golf 83
▁hang 83
▁however 83
▁increased 83
▁nest 83
▁operate 83
▁poem 83
▁protected 83
▁seed 83
▁soul 83
▁stock 83
▁swimming 83
▁unknown 83
▁volume 83
▁wireless 83
5, 82
ains 82
bling 82
ord 82
res 82
use 82
ved 82
▁99 82
▁Any 82
▁Apple 82
▁Art 82
▁Thomas 82
▁ass 82
▁bee 82
▁dancing 82
▁dep 82
▁dot 82
▁flew 82
▁fold 82
▁former 82
▁handle 82
▁library 82
▁papers 82
▁passionate 82
▁pollution 82
▁sal 82
▁spiritual 82
▁tall 82
▁trend 82
ha 81
ky 81
ole 81
pt 81
row 81
ulation 81
vers 81
ze 81
▁Car 81
▁Four 81
▁Korea 81
▁Valley 81
▁blog 81
▁breathe 81
▁determine 81
▁economists 81
▁electronic 81
▁equation 81
▁falls 81
▁finance 81
▁fore 81
▁fund 81
▁hide 81
▁hospitals 81
▁innovative 81
▁instruments 81
▁plug 81
▁presence 81
▁reg 81
▁rooms 81
▁script 81
▁sets 81
▁shall 81
▁sol 81
▁therapy 81
▁unlike 81
My 80
ately 80
oid 80
our 80
uses 80
▁Air 80
▁Could 80
▁Gr 80
▁Please 80
▁Robert 80
▁Sp 80
▁Un 80
▁Union 80
▁awareness 80
▁beach 80
▁challenging 80
▁clock 80
▁closely 80
▁command 80
▁director 80
▁distributed 80
▁evening 80
▁miss 80
▁monkeys 80
▁musical 80
▁mystery 80
▁overall 80
▁prototype 80
▁senses 80
▁somewhat 80
▁stronger 80
▁succeed 80
▁van 80
▁wherever 80
▁zoom 80
In 79
ification 79
ph 79
pp 79
▁Bang 79
▁France 79
▁Never 79
▁accurate 79
▁church 79
▁combine 79
▁conclusion 79
▁evolve 79
▁frame 79
▁funding 79
▁god 79
▁horrible 79
▁inspiration 79
▁kn 79
▁linked 79
▁outcome 79
▁pill 79
▁pure 79
▁records 79
▁reflect 79
▁released 79
▁tea 79
▁terrorism 79
▁unc 79
▁villages 79
▁wing 79
aries 78
making 78
own 78
uring 78
▁10, 78
▁Ar 78
▁DH 78
▁German 78
▁La 78
▁Number 78
▁Something 78
▁Steve 78
▁automatically 78
▁bike 78
▁brief 78
▁clothes 78
▁corn 78
▁dense 78
▁dist 78
▁doubt 78
▁educational 78
▁ev 78
▁existing 78
▁exploration 78
▁gu 78
▁hotel 78
▁identical 78
▁insight 78
▁measuring 78
▁obsessed 78
▁option 78
▁partners 78
▁plate 78
▁repair 78
▁shock 78
▁topic 78
▁vehicles 78
▁vessels 78
▁whales 78
bs 77
ends 77
ently 77
ily 77
ina 77
iting 77
ological 77
ret 77
unclear 77
▁About 77
▁Africans 77
▁Christmas 77
▁adapt 77
▁advice 77
▁appreciate 77
▁bones 77
▁collaboration 77
▁dimension 77
▁false 77
▁iPhone 77
▁lets 77
▁liver 77
▁magnetic 77
▁marine 77
▁multi 77
▁ne 77
▁odd 77
▁prices 77
▁qu 77
▁roads 77
▁truck 77
▁violent 77
ained 76
eness 76
ient 76
over 76
rit 76
▁198 76
▁7 76
▁Island 76
▁Museum 76
▁Russia 76
▁State 76
▁amounts 76
▁app 76
▁busy 76
▁chart 76
▁comp 76
▁component 76
▁conscious 76
▁desk 76
▁er 76
▁extent 76
▁frankly 76
▁loud 76
▁mechanism 76
▁monkey 76
▁options 76
▁parallel 76
▁physically 76
▁piano 76
▁plans 76
▁potentially 76
▁remove 76
▁root 76
▁spider 76
▁spin 76
▁technique 76
▁wondered 76
▁z 76
ail 75
ised 75
ox 75
sum 75
urs 75
▁BF 75
▁El 75
▁Other 75
▁Perhaps 75
▁applications 75
▁army 75
▁cartoon 75
▁causing 75
▁che 75
▁classes 75
▁combined 75
▁confidence 75
▁controlling 75
▁disorders 75
▁enemy 75
▁ep 75
▁fabric 75
▁flower 75
▁gray 75
▁hall 75
▁infinite 75
▁joined 75
▁laboratory 75
▁lying 75
▁meetings 75
▁prefer 75
▁puzzle 75
▁sensitive 75
▁silence 75
▁solving 75
▁suit 75
▁symmetry 75
▁symptoms 75
▁telephone 75
▁till 75
▁toxic 75
▁translate 75
▁wheel 75
ams 74
back 74
house 74
light 74
orn 74
ually 74
ulating 74
▁196 74
▁27 74
▁Everyone 74
▁Gu 74
▁Los 74
▁Paris 74
▁Uganda 74
▁architects 74
▁authority 74
▁collected 74
▁consumers 74
▁depending 74
▁disorder 74
▁dramatically 74
▁equally 74
▁expand 74
▁expert 74
▁interview 74
▁load 74
▁log 74
▁loop 74
▁milk 74
▁narrow 74
▁origami 74
▁output 74
▁poorest 74
▁provides 74
▁ring 74
▁scan 74
▁scared 74
▁songs 74
▁statement 74
▁style 74
▁subjects 74
▁swe 74
▁tag 74
▁tap 74
▁tube 74
▁zone 74
But 73
br 73
down 73
ds 73
ib 73
ides 73
ign 73
iz 73
ont 73
ost 73
oth 73
oy 73
uted 73
▁Bible 73
▁Com 73
▁Ed 73
▁Haiti 73
▁Par 73
▁Remember 73
▁Sweden 73
▁actions 73
▁algorithms 73
▁angle 73
▁appears 73
▁attacks 73
▁bubble 73
▁careful 73
▁carried 73
▁concern 73
▁constant 73
▁cure 73
▁directions 73
▁divided 73
▁economies 73
▁feeding 73
▁grab 73
▁height 73
▁hunger 73
▁incentives 73
▁increases 73
▁largely 73
▁mechanical 73
▁philosophy 73
▁pile 73
▁prize 73
▁productivity 73
▁rising 73
▁sculpture 73
▁standards 73
▁surgeon 73
▁survey 73
▁tour 73
▁transportation 73
▁younger 73
Is 72
ances 72
dollar 72
ett 72
ft 72
ley 72
ool 72
ou 72
side 72
▁6 72
▁AB 72
▁Egypt 72
▁Finally 72
▁acts 72
▁afterwards 72
▁agreed 72
▁aspects 72
▁assume 72
▁celebrate 72
▁centuries 72
▁dem 72
▁designs 72
▁disappear 72
▁exam 72
▁exhibition 72
▁extinct 72
▁fan 72
▁flash 72
▁floating 72
▁implications 72
▁performing 72
▁presented 72
▁printing 72
▁profit 72
▁season 72
▁sensors 72
▁slides 72
▁spreading 72
▁suggests 72
▁tries 72
▁whale 72
▁windows 72
50 71
ared 71
atch 71
ays 71
ivity 71
▁22 71
▁Dan 71
▁Eastern 71
▁Green 71
▁Latin 71
▁Obama 71
▁Only 71
▁Stanford 71
▁advance 71
▁aim 71
▁ate 71
▁breathing 71
▁circuit 71
▁classic 71
▁commitment 71
▁conventional 71
▁cry 71
▁des 71
▁destroy 71
▁dioxide 71
▁filter 71
▁furniture 71
▁harvest 71
▁hom 71
▁hyper 71
▁ladies 71
▁license 71
▁logic 71
▁paintings 71
▁parking 71
▁plot 71
▁shoulder 71
▁skull 71
▁tank 71
▁toy 71
▁transformed 71
az 70
called 70
oh 70
pped 70
ren 70
▁23 70
▁Islamic 70
▁Pl 70
▁Tom 70
▁allowing 70
▁attract 70
▁bio 70
▁density 70
▁disappeared 70
▁ear 70
▁embedded 70
▁enable 70
▁existed 70
▁exploring 70
▁hardware 70
▁intense 70
▁lighting 70
▁limb 70
▁limit 70
▁limits 70
▁lovely 70
▁myth 70
▁nor 70
▁placed 70
▁resistance 70
▁review 70
▁samples 70
▁severe 70
▁speakers 70
▁stands 70
▁surfaces 70
▁tested 70
▁toilet 70
▁uns 70
▁wanting 70
.' 69
ades 69
ards 69
au 69
ended 69
ests 69
eter 69
izes 69
let 69
▁1990 69
▁Ben 69
▁En 69
▁Foundation 69
▁Microsoft 69
▁Muslims 69
▁Narrator 69
▁Park 69
▁While 69
▁White 69
▁academic 69
▁achieved 69
▁advertising 69
▁aircraft 69
▁appeared 69
▁button 69
▁chest 69
▁connecting 69
▁danger 69
▁destroyed 69
▁empathy 69
▁faced 69
▁fixed 69
▁int 69
▁interactive 69
▁iron 69
▁legacy 69
▁lens 69
▁links 69
▁microscope 69
▁narrative 69
▁neuron 69
▁nowhere 69
▁opposed 69
▁orbit 69
▁pitch 69
▁pocket 69
▁poll 69
▁refer 69
▁sales 69
▁sight 69
▁simplicity 69
▁smallpox 69
▁spoken 69
▁stayed 69
▁surrounded 69
▁tonight 69
ari 68
ax 68
ger 68
source 68
▁'60 68
▁32 68
▁Hey 68
▁Will 68
▁acid 68
▁anger 68
▁application 68
▁boom 68
▁channel 68
▁chose 68
▁conservation 68
▁dignity 68
▁dozen 68
▁drinking 68
▁entered 68
▁gender 68
▁globe 68
▁grows 68
▁nets 68
▁pin 68
▁pr 68
▁precisely 68
▁properly 68
▁provided 68
▁raw 68
▁reb 68
▁repeat 68
▁seats 68
▁seeds 68
▁smoke 68
▁smooth 68
▁touched 68
▁transfer 68
▁underwater 68
▁vertical 68
▁vital 68
do 67
ica 67
iling 67
ote 67
ring 67
ru 67
ways 67
▁8 67
▁9 67
▁Act 67
▁June 67
▁Nothing 67
▁Video 67
▁architectural 67
▁behave 67
▁brothers 67
▁chocolate 67
▁dirty 67
▁distant 67
▁dynamics 67
▁extract 67
▁fla 67
▁frozen 67
▁healthcare 67
▁immune 67
▁inv 67
▁lung 67
▁muscles 67
▁proportion 67
▁pyramid 67
▁repl 67
▁rev 67
▁salt 67
▁scary 67
▁spe 67
▁teams 67
▁tracking 67
▁wings 67
1, 66
alism 66
alt 66
ame 66
aster 66
att 66
hour 66
matic 66
mon 66
ulate 66
▁Boy 66
▁Health 66
▁Hollywood 66
▁Revolution 66
▁Sc 66
▁Sch 66
▁calculate 66
▁contain 66
▁contrast 66
▁corporate 66
▁crack 66
▁deb 66
▁den 66
▁department 66
▁dish 66
▁divide 66
▁document 66
▁embrace 66
▁facial 66
▁facility 66
▁fed 66
▁initial 66
▁interacting 66
▁laser 66
▁latest 66
▁neat 66
▁offered 66
▁ours 66
▁particle 66
▁providing 66
▁pushing 66
▁recognized 66
▁recording 66
▁rot 66
▁score 66
▁spr 66
▁supp 66
▁writer 66
1. 65
8, 65
ery 65
fish 65
ire 65
met 65
oms 65
ook 65
▁20,000 65
▁Alzheimer 65
▁Before 65
▁Frank 65
▁Ghana 65
▁January 65
▁Mark 65
▁RB 65
▁Really 65
▁Te 65
▁angry 65
▁axis 65
▁backwards 65
▁bat 65
▁borders 65
▁broad 65
▁brown 65
▁charity 65
▁chip 65
▁collection 65
▁comment 65
▁fluid 65
▁granted 65
▁ingredients 65
▁kick 65
▁maintain 65
▁overcome 65
▁passing 65
▁pat 65
▁plenty 65
▁removed 65
▁romantic 65
▁select 65
▁sheep 65
▁thrown 65
▁tragedy 65
▁upset 65
▁virtually 65
00 64
20 64
box 64
cies 64
gg 64
ith 64
lled 64
ned 64
osing 64
ows 64
ult 64
▁199 64
▁Ah 64
▁House 64
▁Oxford 64
▁alien 64
▁aside 64
▁bicycle 64
▁contains 64
▁cup 64
▁dedicated 64
▁emergency 64
▁estimate 64
▁exposed 64
▁governance 64
▁heaven 64
▁heroes 64
▁hey 64
▁involves 64
▁layers 64
▁mat 64
▁neither 64
▁neur 64
▁oldest 64
▁painful 64
▁pet 64
▁produces 64
▁rescue 64
▁rocks 64
▁savings 64
▁spots 64
▁stable 64
▁su 64
▁suicide 64
▁transplant 64
▁transport 64
▁unexpected 64
▁unf 64
8. 63
ired 63
iss 63
oll 63
oon 63
reat 63
reg 63
▁1960 63
▁KB 63
▁Long 63
▁Pole 63
▁Space 63
▁ages 63
▁attached 63
▁author 63
▁conclude 63
▁contribute 63
▁curiosity 63
▁darkness 63
▁demonstrate 63
▁diagram 63
▁dive 63
▁drag 63
▁dust 63
▁escape 63
▁exc 63
▁fruit 63
▁grandfather 63
▁jail 63
▁laid 63
▁lift 63
▁mad 63
▁northern 63
▁opens 63
▁organize 63
▁probability 63
▁psychological 63
▁publish 63
▁pulling 63
▁recognition 63
▁recovery 63
▁sustainability 63
▁tired 63
▁trends 63
ases 62
cted 62
ec 62
my 62
oe 62
oes 62
su 62
▁194 62
▁Law 62
▁Next 62
▁Nobel 62
▁Rome 62
▁Tr 62
▁agricultural 62
▁artistic 62
▁briefly 62
▁chosen 62
▁clinic 62
▁diverse 62
▁elsewhere 62
▁fiber 62
▁football 62
▁gotta 62
▁greenhouse 62
▁herself 62
▁hire 62
▁housing 62
▁illegal 62
▁imagined 62
▁inspiring 62
▁interactions 62
▁landed 62
▁lecture 62
▁likes 62
▁mark 62
▁neighbor 62
▁orange 62
▁outcomes 62
▁personality 62
▁pilot 62
▁populations 62
▁reduction 62
▁rely 62
▁resolution 62
▁session 62
▁sheet 62
▁traveled 62
▁ugly 62
▁worker 62
arily 61
ater 61
ature 61
der 61
imp 61
ips 61
lls 61
ls 61
ond 61
ood 61
ound 61
ump 61
▁5 61
▁50,000 61
▁65 61
▁Angeles 61
▁Child 61
▁Rwanda 61
▁Six 61
▁Ten 61
▁accessible 61
▁ain 61
▁cable 61
▁chief 61
▁clients 61
▁consequence 61
▁continues 61
▁copyright 61
▁crying 61
▁depressed 61
▁depth 61
▁dinosaur 61
▁drove 61
▁ec 61
▁forests 61
▁functional 61
▁gather 61
▁happier 61
▁ill 61
▁includes 61
▁mo 61
▁monitor 61
▁phrase 61
▁poster 61
▁precise 61
▁predictions 61
▁pregnant 61
▁realm 61
▁recover 61
▁regret 61
▁rel 61
▁robotic 61
▁scales 61
▁shooting 61
▁signed 61
▁surely 61
▁tasks 61
▁tears 61
▁treating 61
▁vacuum 61
-1 60
7, 60
And 60
Let 60
apped 60
ark 60
ken 60
osed 60
tech 60
▁Ethiopia 60
▁General 60
▁Get 60
▁Italy 60
▁Manhattan 60
▁Pr 60
▁Wall 60
▁actors 60
▁animation 60
▁bill 60
▁boundaries 60
▁cap 60
▁characteristics 60
▁colleague 60
▁concrete 60
▁conflicts 60
▁consume 60
▁controls 60
▁crossing 60
▁dig 60
▁dr 60
▁drawn 60
▁east 60
▁encounter 60
▁hungry 60
▁illness 60
▁inches 60
▁insect 60
▁integrated 60
▁lit 60
▁mice 60
▁observation 60
▁opp 60
▁pan 60
▁phase 60
▁photographed 60
▁photography 60
▁privilege 60
▁proof 60
▁reaching 60
▁sensory 60
▁stations 60
▁suffer 60
▁temp 60
▁tw 60
▁walks 60
Don 59
There 59
]. 59
air 59
cut 59
ested 59
gl 59
hes 59
iate 59
ough 59
tered 59
ull 59
▁700 59
▁Blue 59
▁Girl 59
▁Gore 59
▁Grand 59
▁Jack 59
▁Nature 59
▁Northern 59
▁Research 59
▁Third 59
▁Was 59
▁apple 59
▁bars 59
▁borrow 59
▁bucks 59
▁bur 59
▁circles 59
▁collecting 59
▁colony 59
▁conversations 59
▁crops 59
▁dependent 59
▁diabetes 59
▁download 59
▁earthquake 59
▁emerge 59
▁engaging 59
▁fifth 59
▁flag 59
▁flip 59
▁gre 59
▁hearts 59
▁instructions 59
▁judge 59
▁locked 59
▁ma 59
▁mainly 59
▁official 59
▁pace 59
▁patent 59
▁picking 59
▁plays 59
▁policies 59
▁prop 59
▁represented 59
▁separated 59
▁shrimp 59
▁stages 59
▁tele 59
▁tuna 59
▁underlying 59
▁universities 59
▁variation 59
▁volunteers 59
5. 58
9, 58
active 58
ancy 58
arian 58
asing 58
ime 58
ka 58
ola 58
ores 58
room 58
view 58
▁'9 58
▁Amazon 58
▁Atlantic 58
▁Bronx 58
▁Che 58
▁October 58
▁Sea 58
▁Time 58
▁Voice 58
▁actor 58
▁cast 58
▁cave 58
▁defense 58
▁di 58
▁drill 58
▁engagement 58
▁fabulous 58
▁favor 58
▁footprint 58
▁genius 58
▁glad 58
▁glamorous 58
▁globalization 58
▁graphics 58
▁hanging 58
▁hardly 58
▁illusion 58
▁improvement 58
▁ink 58
▁innovations 58
▁methane 58
▁minister 58
▁motivation 58
▁musicians 58
▁naked 58
▁pandemic 58
▁poison 58
▁receive 58
▁sacred 58
▁sav 58
▁section 58
▁symbols 58
▁teenagers 58
▁trans 58
▁yield 58
▁yours 58
acted 57
ads 57
class 57
half 57
head 57
itive 57
oses 57
owing 57
set 57
wards 57
zero 57
▁10- 57
▁95 57
▁Bay 57
▁Prize 57
▁Saturn 57
▁Somebody 57
▁Up 57
▁amongst 57
▁apartment 57
▁apparently 57
▁astonishing 57
▁beliefs 57
▁belong 57
▁breaks 57
▁capability 57
▁cash 57
▁con 57
▁cute 57
▁edges 57
▁extended 57
▁external 57
▁fascinated 57
▁frequency 57
▁fuels 57
▁generated 57
▁gut 57
▁habitat 57
▁ignore 57
▁inspire 57
▁insurance 57
▁leap 57
▁letting 57
▁memories 57
▁methods 57
▁nurses 57
▁physicist 57
▁pigs 57
▁powers 57
▁predicted 57
▁qualities 57
▁reef 57
▁resilience 57
▁ridiculous 57
▁robust 57
▁scratch 57
▁shaped 57
▁sk 57
▁sleeping 57
▁spill 57
▁units 57
▁usual 57
▁whereas 57
▁wise 57
▁writers 57
6, 56
aked 56
eth 56
fin 56
han 56
ingly 56
itions 56
li 56
uff 56
water 56
▁26 56
▁Cambridge 56
▁Howard 56
▁Jim 56
▁Mac 56
▁Moore 56
▁Nations 56
▁Ocean 56
▁agenda 56
▁bombs 56
▁branch 56
▁breaking 56
▁buried 56
▁cal 56
▁communications 56
▁contemporary 56
▁discoveries 56
▁earn 56
▁electronics 56
▁explaining 56
▁farmer 56
▁focusing 56
▁golden 56
▁honey 56
▁industries 56
▁linear 56
▁mal 56
▁mate 56
▁obesity 56
▁optimistic 56
▁pal 56
▁peer 56
▁pink 56
▁pushed 56
▁raising 56
▁reports 56
▁revenue 56
▁sandwich 56
▁sauce 56
▁spectacular 56
▁spray 56
▁ste 56
▁stores 56
▁strategies 56
▁struck 56
▁synthetic 56
▁tone 56
▁tribes 56
▁unbelievable 56
▁weapon 56
▁wired 56
7. 55
OK 55
aces 55
ading 55
aging 55
aker 55
aves 55
cher 55
ctor 55
ode 55
val 55
yn 55
▁1980 55
▁250 55
▁Central 55
▁Christian 55
▁Department 55
▁Design 55
▁Isn 55
▁Martin 55
▁Smith 55
▁airplanes 55
▁beer 55
▁bull 55
▁cheaper 55
▁computation 55
▁cooperation 55
▁courage 55
▁customers 55
▁discuss 55
▁domestic 55
▁dopamine 55
▁efforts 55
▁elections 55
▁elephant 55
▁emerged 55
▁ethnic 55
▁exp 55
▁finds 55
▁funded 55
▁hip 55
▁holds 55
▁leverage 55
▁meal 55
▁missed 55
▁mixed 55
▁mosquito 55
▁originally 55
▁perceive 55
▁permanent 55
▁replicate 55
▁shadow 55
▁shell 55
▁simulation 55
▁suspect 55
▁threw 55
▁thumb 55
▁underground 55
0. 54
Wow 54
aks 54
aled 54
ara 54
arm 54
ester 54
ges 54
ios 54
itch 54
und 54
used 54
▁'70 54
▁'80 54
▁. 54
▁195 54
▁Arctic 54
▁Bob 54
▁Children 54
▁Give 54
▁International 54
▁Jewish 54
▁Mother 54
▁Pro 54
▁Same 54
▁Taliban 54
▁Texas 54
▁adjust 54
▁adv 54
▁agent 54
▁analyze 54
▁biologists 54
▁charges 54
▁climbing 54
▁commit 54
▁conf 54
▁constructed 54
▁cop 54
▁dear 54
▁delivered 54
▁determined 54
▁expectancy 54
▁experimental 54
▁gonna 54
▁informed 54
▁instant 54
▁journalist 54
▁lifestyle 54
▁neural 54
▁neuroscience 54
▁paralyzed 54
▁proper 54
▁react 54
▁roots 54
▁seas 54
▁served 54
▁stretch 54
▁subtle 54
▁telescope 54
▁theories 54
▁toss 54
▁traditions 54
▁translation 54
▁uncertainty 54
▁vulnerability 54
Y 53
aid 53
cial 53
icians 53
ior 53
itt 53
mark 53
mat 53
par 53
sy 53
uis 53
umb 53
▁1, 53
▁1970 53
▁20, 53
▁800 53
▁Black 53
▁Minister 53
▁Pat 53
▁Soviet 53
▁Whether 53
▁algae 53
▁awesome 53
▁barely 53
▁blank 53
▁blogs 53
▁cart 53
▁confident 53
▁cord 53
▁daughters 53
▁dominant 53
▁dung 53
▁educated 53
▁entropy 53
▁expansion 53
▁exponential 53
▁forgotten 53
▁formal 53
▁genetically 53
▁globally 53
▁historical 53
▁humor 53
▁ind 53
▁mail 53
▁males 53
▁mammals 53
▁mode 53
▁morality 53
▁needle 53
▁ooh 53
▁phantom 53
▁pot 53
▁psych 53
▁recommend 53
▁reported 53
▁rice 53
▁sciences 53
▁silent 53
▁sisters 53
▁sits 53
▁soldier 53
▁southern 53
▁sport 53
▁sports 53
▁stroke 53
▁successfully 53
▁talent 53
▁tent 53
▁tied 53
▁trajectory 53
▁transmission 53
▁tribe 53
▁visited 53
▁youth 53
3, 52
3. 52
When 52
ana 52
ht 52
ici 52
icking 52
iles 52
ld 52
lessly 52
level 52
lle 52
och 52
ories 52
ott 52
pr 52
rom 52
ulated 52
▁30,000 52
▁CEO 52
▁Dutch 52
▁Hall 52
▁Human 52
▁Put 52
▁Qu 52
▁Redwood 52
▁Should 52
▁Sir 52
▁Wow 52
▁accidents 52
▁adding 52
▁affordable 52
▁announced 52
▁array 52
▁biodiversity 52
▁bizarre 52
▁border 52
▁bored 52
▁burst 52
▁cheese 52
▁closing 52
▁club 52
▁description 52
▁dialogue 52
▁dumb 52
▁ecosystems 52
▁emb 52
▁explains 52
▁flexible 52
▁fraction 52
▁fre 52
▁gate 52
▁genetics 52
▁gentleman 52
▁grad 52
▁guide 52
▁hook 52
▁luck 52
▁nerve 52
▁nuts 52
▁oxytocin 52
▁parties 52
▁permission 52
▁photographer 52
▁pointed 52
▁portion 52
▁positions 52
▁primarily 52
▁primitive 52
▁promote 52
▁rats 52
▁regime 52
▁searching 52
▁sem 52
▁senior 52
▁shopping 52
▁speaker 52
▁sticks 52
▁storm 52
▁threshold 52
▁ver 52
▁west 52
So 51
ange 51
arch 51
arg 51
astic 51
book 51
fold 51
ication 51
ills 51
ishing 51
iveness 51
ix 51
med 51
oss 51
pro 51
ran 51
right 51
ris 51
ros 51
uc 51
win 51
▁3. 51
▁Florida 51
▁Homo 51
▁Jesus 51
▁Lab 51
▁Mom 51
▁Mon 51
▁Newton 51
▁Obviously 51
▁Secondly 51
▁Str 51
▁Turkey 51
▁accepted 51
▁airport 51
▁assumptions 51
▁begun 51
▁blame 51
▁capita 51
▁cats 51
▁chapter 51
▁compassionate 51
▁court 51
▁disagree 51
▁expanding 51
▁expectations 51
▁federal 51
▁fiction 51
▁fortune 51
▁geometry 51
▁hill 51
▁hitting 51
▁immediate 51
▁inform 51
▁institutional 51
▁intuition 51
▁intuitive 51
▁invite 51
▁lamp 51
▁operations 51
▁outer 51
▁painted 51
▁pool 51
▁prime 51
▁printer 51
▁protecting 51
▁rarely 51
▁remembered 51
▁representation 51
▁restaurants 51
▁shake 51
▁slavery 51
▁stops 51
▁terror 51
▁toys 51
▁transparent 51
▁trucks 51
▁views 51
▁wash 51
▁whatsoever 51
4. 50
He 50
Who 50
aining 50
century 50
ctions 50
cy 50
ences 50
free 50
ided 50
looking 50
oke 50
omet 50
ounds 50
ups 50
zz 50
▁120 50
▁2. 50
▁Antarctica 50
▁Back 50
▁Congo 50
▁Ex 50
▁February 50
▁None 50
▁Whereas 50
▁Yemen 50
▁ac 50
▁adopted 50
▁bow 50
▁captured 50
▁ceiling 50
▁clouds 50
▁collaborative 50
▁column 50
▁convert 50
▁difficulty 50
▁diss 50
▁domain 50
▁ending 50
▁entering 50
▁ethical 50
▁exception 50
▁explosion 50
▁extend 50
▁foods 50
▁garbage 50
▁gathering 50
▁gods 50
▁gras 50
▁hemisphere 50
▁hypothesis 50
▁imagery 50
▁inevitable 50
▁jumped 50
▁killer 50
▁leaf 50
▁magical 50
▁manual 50
▁mar 50
▁ownership 50
▁pigeon 50
▁poet 50
▁prom 50
▁rebuild 50
▁reduced 50
▁reefs 50
▁reminded 50
▁scr 50
▁seek 50
▁serving 50
▁sharp 50
▁shit 50
▁simultaneously 50
▁sixth 50
▁soci 50
▁steam 50
▁subway 50
▁suck 50
▁tendency 50
▁tracks 50
▁wheelchair 50
arly 49
ather 49
eng 49
ias 49
iff 49
iled 49
state 49
urn 49
ward 49
ye 49
▁4,000 49
▁Christ 49
▁Gates 49
▁Monterey 49
▁Ray 49
▁Res 49
▁SW 49
▁Santa 49
▁Stage 49
▁Tell 49
▁Tim 49
▁acc 49
▁affects 49
▁algorithm 49
▁audio 49
▁banks 49
▁bubbles 49
▁bug 49
▁cake 49
▁chaos 49
▁chimpanzees 49
▁clothing 49
▁committed 49
▁concert 49
▁conducted 49
▁continuous 49
▁cycles 49
▁dent 49
▁deserve 49
▁detection 49
▁egg 49
▁elected 49
▁figuring 49
▁flows 49
▁fortunate 49
▁fragile 49
▁gaps 49
▁govern 49
▁homework 49
▁identified 49
▁impacts 49
▁inch 49
▁kills 49
▁loves 49
▁mall 49
▁merely 49
▁mysterious 49
▁neck 49
▁owner 49
▁radi 49
▁rapid 49
▁realizing 49
▁religions 49
▁rough 49
▁secure 49
▁selfish 49
▁sentences 49
▁staying 49
▁struggling 49
▁suggesting 49
▁targets 49
▁tends 49
▁terribly 49
▁tick 49
▁translated 49
▁uniform 49
▁unlikely 49
▁vegetables 49
▁wider 49
▁winning 49
Saharan 48
action 48
akes 48
ero 48
ete 48
fe 48
ices 48
ift 48
ino 48
iring 48
itable 48
lands 48
law 48
ower 48
play 48
ree 48
rib 48
rol 48
tail 48
well 48
▁1950 48
▁Coke 48
▁Delhi 48
▁Feynman 48
▁JH 48
▁MRI 48
▁Peace 48
▁Shanghai 48
▁Spe 48
▁Way 48
▁Within 48
▁absorb 48
▁attitude 48
▁besides 48
▁blah 48
▁chances 48
▁client 48
▁curriculum 48
▁database 48
▁debt 48
▁devil 48
▁dictionary 48
▁doors 48
▁eaten 48
▁founded 48
▁genocide 48
▁glamour 48
▁glasses 48
▁gradually 48
▁graphic 48
▁implement 48
▁injury 48
▁interior 48
▁lake 48
▁liberal 48
▁logo 48
▁magnet 48
▁mist 48
▁nerves 48
▁nom 48
▁nurse 48
▁opera 48
▁pers 48
▁port 48
▁printed 48
▁reliable 48
▁scores 48
▁screw 48
▁suggested 48
▁trash 48
▁tsunami 48
▁tumors 48
▁vagina 48
▁versions 48
▁wet 48
▁widely 48
▁witness 48
4, 47
6. 47
ender 47
igh 47
iving 47
life 47
lock 47
made 47
mes 47
▁August 47
▁Greek 47
▁Indeed 47
▁Koran 47
▁PM 47
▁River 47
▁Russian 47
▁Vietnam 47
▁ah 47
▁analogy 47
▁arrive 47
▁assumption 47
▁bang 47
▁bears 47
▁beneath 47
▁bottles 47
▁bu 47
▁camps 47
▁capitalism 47
▁category 47
▁cons 47
▁courses 47
▁crucial 47
▁custom 47
▁demonstration 47
▁detailed 47
▁dial 47
▁drawings 47
▁electron 47
▁engines 47
▁essence 47
▁expertise 47
▁extinction 47
▁failing 47
▁fastest 47
▁firm 47
▁forming 47
▁friendly 47
▁garage 47
▁hired 47
▁hum 47
▁hy 47
▁impression 47
▁interestingly 47
▁kiss 47
▁lap 47
▁laughing 47
▁mathematicians 47
▁memes 47
▁mer 47
▁meter 47
▁mic 47
▁openness 47
▁partly 47
▁passenger 47
▁pretend 47
▁profession 47
▁programming 47
▁puzzles 47
▁responses 47
▁restore 47
▁returned 47
▁richer 47
▁route 47
▁smallest 47
▁stability 47
▁stack 47
▁stri 47
▁supported 47
▁surprisingly 47
▁sustain 47
▁ticket 47
▁tiles 47
▁tip 47
▁tooth 47
▁transparency 47
▁tricks 47
▁troops 47
▁uncle 47
▁uncomfortable 47
▁unt 47
▁upside 47
▁warning 47
▁washing 47
Where 46
aut 46
cle 46
con 46
ctive 46
ena 46
for 46
iest 46
ific 46
igned 46
ister 46
lying 46
mar 46
more 46
omp 46
ones 46
oney 46
oral 46
org 46
ped 46
ration 46
sp 46
wing 46
▁1. 46
▁Adam 46
▁Bur 46
▁Church 46
▁Gene 46
▁Ind 46
▁Islands 46
▁LG 46
▁Through 46
▁Zero 46
▁administration 46
▁adventure 46
▁audiences 46
▁beautifully 46
▁bin 46
▁breakfast 46
▁broadcast 46
▁classical 46
▁clay 46
▁colored 46
▁compelling 46
▁conservative 46
▁cosmic 46
▁cre 46
▁cricket 46
▁demographic 46
▁destiny 46
▁distinct 46
▁dough 46
▁ecology 46
▁elite 46
▁errors 46
▁fo 46
▁formula 46
▁gear 46
▁gig 46
▁influenced 46
▁innocent 46
▁journal 46
▁located 46
▁mechanisms 46
▁miracle 46
▁odds 46
▁offices 46
▁owned 46
▁pres 46
▁queen 46
▁regard 46
▁rolling 46
▁rush 46
▁shelf 46
▁shelter 46
▁shirt 46
▁significantly 46
▁spreads 46
▁stamp 46
▁ta 46
▁trace 46
▁treatments 46
▁unhappy 46
▁vessel 46
▁welcome 46
▁wires 46
▁worms 46
& 45
Can 45
Ch 45
aching 45
away 45
ense 45
ex 45
ility 45
kes 45
load 45
odes 45
oration 45
ount 45
rant 45
ressed 45
ression 45
unk 45
▁191 45
▁2, 45
▁Ab 45
▁Council 45
▁Ge 45
▁Johnson 45
▁Make 45
▁Per 45
▁Pol 45
▁Watch 45
▁Without 45
▁abuse 45
▁agency 45
▁answered 45
▁bal 45
▁bend 45
▁canopy 45
▁capabilities 45
▁civilizations 45
▁comparison 45
▁compete 45
▁covering 45
▁dies 45
▁dozens 45
▁drivers 45
▁enables 45
▁entrepreneur 45
▁established 45
▁farming 45
▁fits 45
▁freely 45
▁gesture 45
▁grandchildren 45
▁guns 45
▁interpretation 45
▁invested 45
▁jihad 45
▁labs 45
▁lowest 45
▁mod 45
▁nutrients 45
▁occurs 45
▁package 45
▁panels 45
▁peaceful 45
▁performed 45
▁phenomena 45
▁prepare 45
▁publishing 45
▁ratio 45
▁relation 45
▁reminds 45
▁shifting 45
▁sil 45
▁silly 45
▁smarter 45
▁steal 45
▁stepped 45
▁strike 45
▁tie 45
▁wealthy 45
add 44
amed 44
aning 44
bo 44
bon 44
co 44
ez 44
gs 44
kin 44
lly 44
mm 44
not 44
olar 44
other 44
owers 44
ural 44
uts 44
vent 44
vis 44
▁'90 44
▁28 44
▁AK 44
▁Abraham 44
▁College 44
▁December 44
▁Fe 44
▁Force 44
▁Ford 44
▁Hong 44
▁Moon 44
▁Spain 44
▁Spanish 44
▁Wal 44
▁affecting 44
▁alle 44
▁altitude 44
▁antibiotics 44
▁ap 44
▁appearance 44
▁approaches 44
▁approaching 44
▁av 44
▁ble 44
▁bound 44
▁branches 44
▁burned 44
▁catching 44
▁chips 44
▁circuits 44
▁colon 44
▁completed 44
▁continents 44
▁despair 44
▁disp 44
▁downtown 44
▁economist 44
▁electrodes 44
▁facilities 44
▁footage 44
▁forgot 44
▁genomes 44
▁headed 44
▁improving 44
▁included 44
▁initially 44
▁install 44
▁instantly 44
▁intention 44
▁jellyfish 44
▁knock 44
▁laptops 44
▁lat 44
▁lawyer 44
▁masses 44
▁measures 44
▁mechanics 44
▁meg 44
▁newspapers 44
▁occasion 44
▁ongoing 44
▁participants 44
▁participation 44
▁ph 44
▁planes 44
▁precious 44
▁prevention 44
▁procedure 44
▁professionals 44
▁profoundly 44
▁proposed 44
▁protest 44
▁prov 44
▁purposes 44
▁quest 44
▁rap 44
▁rhythm 44
▁scenario 44
▁sens 44
▁storage 44
▁suffered 44
▁throwing 44
▁toes 44
▁tower 44
▁ubiquitous 44
▁urge 44
▁waters 44
▁weigh 44
9. 43
American 43
Be 43
Le 43
ailed 43
ama 43
anges 43
apping 43
bre 43
comp 43
eds 43
hood 43
iner 43
interest 43
itation 43
key 43
minute 43
oked 43
power 43
ues 43
uk 43
yl 43
▁0. 43
▁350 43
▁Anybody 43
▁Both 43
▁Cal 43
▁Chile 43
▁Cor 43
▁EM 43
▁Except 43
▁Global 43
▁Hello 43
▁Hi 43
▁High 43
▁Italian 43
▁NGOs 43
▁System 43
▁Titan 43
▁Watson 43
▁accounts 43
▁articles 43
▁assignment 43
▁asteroid 43
▁attend 43
▁autonomous 43
▁bags 43
▁biom 43
▁breed 43
▁burden 43
▁cancers 43
▁caring 43
▁ce 43
▁channels 43
▁clue 43
▁coll 43
▁collapsed 43
▁compl 43
▁confused 43
▁connects 43
▁construct 43
▁cotton 43
▁criminal 43
▁curves 43
▁diameter 43
▁dilemma 43
▁disability 43
▁discovering 43
▁distances 43
▁documents 43
▁earliest 43
▁empowered 43
▁endangered 43
▁expedition 43
▁experiencing 43
▁fa 43
▁failures 43
▁file 43
▁fires 43
▁flowing 43
▁fur 43
▁generous 43
▁historic 43
▁horses 43
▁hunting 43
▁icon 43
▁locally 43
▁march 43
▁marry 43
▁min 43
▁ob 43
▁punch 43
▁rat 43
▁remained 43
▁replaced 43
▁scream 43
▁sensor 43
▁signature 43
▁sketch 43
▁ski 43
▁soup 43
▁static 43
▁substance 43
▁tackle 43
▁terrain 43
▁trigger 43
▁tune 43
▁unprecedented 43
▁vis 43
▁winds 43
X 42
], 42
ais 42
aming 42
arr 42
aters 42
cess 42
cking 42
clock 42
cost 42
ding 42
erson 42
ey 42
iding 42
lex 42
lin 42
lu 42
otic 42
outs 42
ude 42
ushing 42
▁Alex 42
▁Coast 42
▁Iceland 42
▁Mike 42
▁Out 42
▁Play 42
▁SS 42
▁Tanzania 42
▁Things 42
▁absence 42
▁achievement 42
▁autism 42
▁balls 42
▁builds 42
▁calculations 42
▁carpet 42
▁chairs 42
▁chat 42
▁citizen 42
▁communic 42
▁confront 42
▁damn 42
▁demonstr 42
▁disgust 42
▁donor 42
▁drum 42
▁ecological 42
▁elect 42
▁elementary 42
▁fusion 42
▁gathered 42
▁generating 42
▁grasp 42
▁highlight 42
▁highway 42
▁homeless 42
▁humanitarian 42
▁hyp 42
▁impressive 42
▁infection 42
▁initiative 42
▁inject 42
▁islands 42
▁judgment 42
▁lock 42
▁magnitude 42
▁maker 42
▁makers 42
▁marketplace 42
▁meme 42
▁mild 42
▁minimum 42
▁miserable 42
▁obstacles 42
▁occasionally 42
▁optim 42
▁orchestra 42
▁overhead 42
▁paradox 42
▁passive 42
▁peoples 42
▁physician 42
▁physicists 42
▁plain 42
▁planetary 42
▁plastics 42
▁practices 42
▁pray 42
▁predictable 42
▁prediction 42
▁preserve 42
▁propose 42
▁purch 42
▁pursue 42
▁reject 42
▁remaining 42
▁rent 42
▁reveal 42
▁scenes 42
▁shocked 42
▁shots 42
▁silver 42
▁spinning 42
▁stake 42
▁stored 42
▁suspended 42
▁tech 42
▁traits 42
▁unable 42
▁wheat 42
▁woke 42
aint 41
arri 41
ected 41
ever 41
human 41
ict 41
ney 41
ody 41
ords 41
tern 41
ury 41
vel 41
wise 41
▁1 41
▁200,000 41
▁30- 41
▁55 41
▁Arabic 41
▁Bell 41
▁Brown 41
▁Cl 41
▁Mad 41
▁March 41
▁Mor 41
▁Pe 41
▁Peter 41
▁Q 41
▁Security 41
▁Shakespeare 41
▁Sorry 41
▁Square 41
▁Sunday 41
▁Tony 41
▁Whatever 41
▁] 41
▁adapted 41
▁atomic 41
▁bulb 41
▁colonies 41
▁comics 41
▁deals 41
▁deception 41
▁decrease 41
▁describes 41
▁diagnosed 41
▁enemies 41
▁ensure 41
▁exec 41
▁expressions 41
▁extension 41
▁fought 41
▁foundations 41
▁hardest 41
▁ignored 41
▁infl 41
▁installation 41
▁interpret 41
▁listened 41
▁mainstream 41
▁meals 41
▁measurements 41
▁mesh 41
▁neutral 41
▁nonprofit 41
▁partnership 41
▁penguin 41
▁pills 41
▁proposition 41
▁prostate 41
▁readers 41
▁reasonable 41
▁recipe 41
▁relations 41
▁relax 41
▁reproduce 41
▁rings 41
▁rotate 41
▁sale 41
▁shine 41
▁ships 41
▁stays 41
▁stomach 41
▁stones 41
▁storytelling 41
▁tor 41
▁tragic 41
▁trains 41
▁valid 41
▁viral 41
▁voting 41
▁wildlife 41
▁x 41
.'" 40
500 40
ala 40
ali 40
arth 40
azz 40
body 40
changing 40
ell 40
icated 40
icks 40
ien 40
ises 40
ising 40
ny 40
ograph 40
ols 40
oph 40
oted 40
ove 40
pect 40
point 40
que 40
ral 40
rop 40
rot 40
unch 40
une 40
▁36 40
▁Alexander 40
▁Andrew 40
▁BG 40
▁Bangladesh 40
▁Bl 40
▁Col 40
▁Court 40
▁Geographic 40
▁Greenland 40
▁JA 40
▁July 40
▁MT 40
▁Mal 40
▁Open 40
▁Sam 40
▁Southern 40
▁Ste 40
▁Suddenly 40
▁TEDTalk 40
▁USA 40
▁Water 40
▁abilities 40
▁ads 40
▁analog 40
▁annual 40
▁applying 40
▁attractive 40
▁award 40
▁badly 40
▁barrier 40
▁batteries 40
▁boundary 40
▁categories 40
▁challenged 40
▁chem 40
▁classrooms 40
▁cliff 40
▁closest 40
▁coat 40
▁comedy 40
▁communicating 40
▁conce 40
▁concentration 40
▁consistent 40
▁continuing 40
▁covers 40
▁cruel 40
▁customer 40
▁cylinder 40
▁delay 40
▁delivery 40
▁dressed 40
▁editor 40
▁elegant 40
▁estimates 40
▁expecting 40
▁factories 40
▁fancy 40
▁gases 40
▁guarantee 40
▁harness 40
▁healthier 40
▁helicopter 40
▁helium 40
▁hur 40
▁imaging 40
▁implant 40
▁improved 40
▁incentive 40
▁intensity 40
▁interviewed 40
▁investing 40
▁isolated 40
▁junk 40
▁kindness 40
▁lands 40
▁landscapes 40
▁limitations 40
▁loc 40
▁locations 40
▁mapping 40
▁melt 40
▁microbial 40
▁mood 40
▁mor 40
▁musician 40
▁nitrogen 40
▁pad 40
▁panel 40
▁perceived 40
▁pointing 40
▁poly 40
▁preparing 40
▁pun 40
▁radically 40
▁rail 40
▁recycling 40
▁reducing 40
▁sail 40
▁scanner 40
▁sensation 40
▁shoe 40
▁simpler 40
▁someday 40
▁spark 40
▁strongly 40
▁synchron 40
▁tar 40
▁tubes 40
▁util 40
▁vaccines 40
▁valley 40
▁volunteer 40
▁wound 40
▁wr 40
▁wrap 40
▁ye 40
▁yourselves 40
200 39
As 39
ae 39
ald 39
ani 39
ashed 39
cell 39
cts 39
eny 39
go 39
icked 39
iers 39
inger 39
ires 39
ital 39
mic 39
oming 39
ping 39
powered 39
roll 39
stream 39
thirds 39
udd 39
ultural 39
▁20- 39
▁2000, 39
▁6,000 39
▁85 39
▁Abed 39
▁Ag 39
▁Age 39
▁April 39
▁Aristotle 39
▁Bas 39
▁Camp 39
▁Carolina 39
▁Indians 39
▁Indus 39
▁Ireland 39
▁Kong 39
▁Mandela 39
▁Mil 39
▁Nelson 39
▁Rob 39
▁Someone 39
▁Technology 39
▁Try 39
▁additional 39
▁aesthetic 39
▁anxiety 39
▁arguments 39
▁ban 39
▁bath 39
▁beating 39
▁believing 39
▁biomass 39
▁blo 39
▁boss 39
▁calm 39
▁cartoons 39
▁comic 39
▁concerns 39
▁constraints 39
▁cont 39
▁convenient 39
▁convey 39
▁cor 39
▁correctly 39
▁crew 39
▁dawn 39
▁delight 39
▁demands 39
▁determines 39
▁discipline 39
▁distinguish 39
▁diving 39
▁dominated 39
▁educate 39
▁encouraging 39
▁engineered 39
▁excellent 39
▁favorites 39
▁fortunately 39
▁frustrated 39
▁headlines 39
▁helpful 39
▁hierarchy 39
▁historically 39
▁household 39
▁infections 39
▁insights 39
▁intervention 39
▁item 39
▁liber 39
▁loan 39
▁loose 39
▁lungs 39
▁magnificent 39
▁manipulate 39
▁motors 39
▁narratives 39
▁objective 39
▁offering 39
▁pairs 39
▁pause 39
▁pol 39
▁pour 39
▁predator 39
▁prisoners 39
▁pursuit 39
▁relief 39
▁ritual 39
▁rivers 39
▁rubber 39
▁shy 39
▁smoking 39
▁sons 39
▁staring 39
▁straightforward 39
▁structural 39
▁succeeded 39
▁supermarket 39
▁supplies 39
▁supporting 39
▁surgeries 39
▁surrounding 39
▁syndrome 39
▁technically 39
▁terrifying 39
▁tight 39
▁ton 39
▁variations 39
▁ve 39
▁victim 39
All 38
Are 38
God 38
acks 38
ails 38
amb 38
ament 38
apt 38
fl 38
form 38
get 38
grade 38
hy 38
inter 38
mb 38
most 38
ope 38
oun 38
profit 38
q 38
unt 38
worth 38
▁..." 38
▁Almost 38
▁Anyone 38
▁Beijing 38
▁Brian 38
▁Cons 38
▁Disney 38
▁GPS 38
▁Israeli 38
▁Its 38
▁Jeff 38
▁Laden 38
▁Ladies 38
▁Parkinson 38
▁Probably 38
▁Star 38
▁Talk 38
▁adoption 38
▁alarm 38
▁amazingly 38
▁atom 38
▁att 38
▁beaten 38
▁beh 38
▁binary 38
▁bold 38
▁competing 38
▁concentrated 38
▁consciously 38
▁contributed 38
▁counting 38
▁defend 38
▁depos 38
▁diarrhea 38
▁district 38
▁drew 38
▁electrons 38
▁equations 38
▁excitement 38
▁exposure 38
▁fault 38
▁flood 38
▁frightening 38
▁grateful 38
▁halfway 38
▁harmful 38
▁horizon 38
▁hug 38
▁iPod 38
▁interviews 38
▁lawyers 38
▁loving 38
▁machinery 38
▁managers 38
▁minus 38
▁murder 38
▁namely 38
▁neighborhoods 38
▁optical 38
▁palm 38
▁pharmaceutical 38
▁phenomenal 38
▁pie 38
▁ple 38
▁predators 38
▁probe 38
▁psychopath 38
▁quit 38
▁reactor 38
▁regardless 38
▁remix 38
▁reserves 38
▁rewards 38
▁scaling 38
▁scanning 38
▁sequences 38
▁sink 38
▁spinal 38
▁strands 38
▁strings 38
▁tables 38
▁tension 38
▁tongue 38
▁transforming 38
▁unp 38
▁venture 38
▁visualization 38
▁welfare 38
▁wrist 38
▁zones 38
aff 37
ales 37
ancing 37
arians 37
athers 37
ati 37
cont 37
heads 37
iced 37
ician 37
illa 37
ographic 37
ora 37
part 37
rel 37
son 37
ster 37
uss 37
usted 37
ville 37
wed 37
▁10. 37
▁2007, 37
▁2009, 37
▁201 37
▁42 37
▁Although 37
▁App 37
▁Being 37
▁Copenhagen 37
▁Cyrus 37
▁Dad 37
▁Jones 37
▁Lincoln 37
▁Mumbai 37
▁News 37
▁Norden 37
▁Queen 37
▁Scott 37
▁Silicon 37
▁Super 37
▁Swiss 37
▁Trade 37
▁Virginia 37
▁Wh 37
▁[" 37
▁accomplished 37
▁alcohol 37
▁angiogenesis 37
▁arguing 37
▁armed 37
▁authentic 37
▁bell 37
▁bench 37
▁breakthrough 37
▁bridges 37
▁candidate 37
▁commodity 37
▁competitive 37
▁computational 37
▁compute 37
▁consent 37
▁contrary 37
▁corals 37
▁cows 37
▁crows 37
▁deaf 37
▁det 37
▁dolphins 37
▁duck 37
▁emergence 37
▁enjoyed 37
▁enjoying 37
▁estate 37
▁et 37
▁exploit 37
▁extraordinarily 37
▁fallen 37
▁fever 37
▁fle 37
▁flo 37
▁frequently 37
▁gallery 37
▁gross 37
▁illustrate 37
▁inevitably 37
▁infant 37
▁inhib 37
▁installed 37
▁interconnected 37
▁interventions 37
▁items 37
▁jazz 37
▁jet 37
▁kidney 37
▁label 37
▁landing 37
▁lever 37
▁livestock 37
▁lobby 37
▁logical 37
▁lottery 37
▁luxury 37
▁mindset 37
▁mobility 37
▁op 37
▁overwhelmed 37
▁pleasant 37
▁pockets 37
▁portrait 37
▁pride 37
▁profits 37
▁reactions 37
▁recession 37
▁researcher 37
▁rope 37
▁safer 37
▁sake 37
▁scans 37
▁seemingly 37
▁selected 37
▁sheets 37
▁sho 37
▁skeletal 37
▁slums 37
▁spec 37
▁spect 37
▁spl 37
▁straw 37
▁summit 37
▁switched 37
▁temperatures 37
▁territory 37
▁themes 37
▁tre 37
▁voted 37
▁wedding 37
▁worrying 37
Here 36
Z 36
acher 36
ape 36
ball 36
car 36
du 36
ek 36
ench 36
ener 36
enses 36
erv 36
gy 36
iders 36
ighted 36
inal 36
iously 36
lines 36
ogen 36
omb 36
proof 36
ribe 36
ta 36
uting 36
vable 36
wn 36
wood 36
yg 36
▁'50 36
▁2004, 36
▁2008, 36
▁Afghan 36
▁Berlin 36
▁Clinton 36
▁County 36
▁Fl 36
▁Gandhi 36
▁Half 36
▁Hans 36
▁IM 36
▁Keep 36
▁Larry 36
▁Lego 36
▁Leonardo 36
▁Lord 36
▁McDonald 36
▁Part 36
▁TEDTalks 36
▁Tibet 36
▁Van 36
▁acids 36
▁advances 36
▁aggressive 36
▁agreement 36
▁anim 36
▁asks 36
▁automobile 36
▁banking 36
▁bedroom 36
▁biologist 36
▁boats 36
▁bond 36
▁bother 36
▁breeding 36
▁calories 36
▁camel 36
▁carries 36
▁cheat 36
▁choosing 36
▁clubs 36
▁cocaine 36
▁coin 36
▁comm 36
▁cooling 36
▁coverage 36
▁crop 36
▁cube 36
▁cuts 36
▁cy 36
▁damaged 36
▁demonstrated 36
▁deployed 36
▁dolphin 36
▁encouraged 36
▁ent 36
▁export 36
▁extr 36
▁farms 36
▁fatal 36
▁fibers 36
▁fin 36
▁foie 36
▁follows 36
▁fool 36
▁formation 36
▁gam 36
▁glue 36
▁har 36
▁healing 36
▁hub 36
▁internet 36
▁investors 36
▁juice 36
▁knee 36
▁maximum 36
▁mimic 36
▁mushroom 36
▁mutation 36
▁naive 36
▁navigate 36
▁occurring 36
▁origins 36
▁patents 36
▁philanthropy 36
▁pole 36
▁politically 36
▁prisoner 36
▁prosperity 36
▁psychologists 36
▁recall 36
▁receptor 36
▁reserve 36
▁resolve 36
▁roofs 36
▁sa 36
▁seal 36
▁sectors 36
▁seeking 36
▁selves 36
▁shocking 36
▁sir 36
▁sne 36
▁squid 36
▁staircase 36
▁striking 36
▁surgeons 36
▁survived 36
▁symmetries 36
▁systematically 36
▁tags 36
▁teaches 36
▁terrific 36
▁texture 36
▁thread 36
▁threatened 36
▁threats 36
▁transcend 36
▁tunnel 36
▁universes 36
▁utterly 36
▁wid 36
▁wishes 36
▁worthy 36
AIDS 35
Please 35
cause 35
cer 35
digit 35
gram 35
hi 35
inary 35
iter 35
itors 35
known 35
mill 35
nes 35
ologically 35
orted 35
otion 35
ript 35
rist 35
tery 35
uded 35
uh 35
ums 35
using 35
zing 35
▁193 35
▁29 35
▁Albert 35
▁Asian 35
▁Benjamin 35
▁Everest 35
▁Fort 35
▁Friday 35
▁Hawaii 35
▁Henry 35
▁Iranian 35
▁Lake 35
▁Love 35
▁Met 35
▁Po 35
▁Ros 35
▁Steven 35
▁Sur 35
▁Sure 35
▁Wi 35
▁Zealand 35
▁abundance 35
▁acknowledge 35
▁amazed 35
▁approved 35
▁arrested 35
▁assemble 35
▁attach 35
▁authorities 35
▁authors 35
▁bacterial 35
▁bind 35
▁blink 35
▁blown 35
▁broader 35
▁chamber 35
▁claims 35
▁cluster 35
▁collectively 35
▁comparing 35
▁composition 35
▁compromise 35
▁concentrate 35
▁conceptual 35
▁cond 35
▁conduct 35
▁contributing 35
▁cooperative 35
▁cream 35
▁currency 35
▁delicious 35
▁destroying 35
▁detector 35
▁dirt 35
▁disk 35
▁drops 35
▁elev 35
▁equality 35
▁establish 35
▁fence 35
▁flavor 35
▁folding 35
▁freak 35
▁funds 35
▁gen 35
▁graduated 35
▁honestly 35
▁hormone 35
▁hostile 35
▁ign 35
▁incident 35
▁infect 35
▁insane 35
▁inventor 35
▁investig 35
▁lists 35
▁literacy 35
▁lum 35
▁mill 35
▁mining 35
▁monitoring 35
▁multiply 35
▁mut 35
▁mycelium 35
▁nearby 35
▁networking 35
▁oven 35
▁peculiar 35
▁personalized 35
▁philosopher 35
▁picks 35
▁plates 35
▁playful 35
▁powered 35
▁prob 35
▁prof 35
▁pulls 35
▁reflection 35
▁refugee 35
▁resistant 35
▁reson 35
▁rethink 35
▁rig 35
▁rituals 35
▁robotics 35
▁rub 35
▁sculpt 35
▁sends 35
▁sexy 35
▁sizes 35
▁socially 35
▁sometime 35
▁spare 35
▁tack 35
▁tagged 35
▁therapies 35
▁vary 35
▁witnessed 35
▁wooden 35
Now 34
Th 34
ander 34
anes 34
ann 34
atives 34
ev 34
eyed 34
face 34
fit 34
gu 34
icles 34
illed 34
iny 34
ked 34
mit 34
oin 34
oking 34
orm 34
page 34
rics 34
so 34
sters 34
ters 34
vi 34
world 34
▁$1 34
▁2000 34
▁40,000 34
▁60,000 34
▁Cape 34
▁DR 34
▁During 34
▁Far 34
▁Fr 34
▁Gold 34
▁IBM 34
▁Im 34
▁Joshua 34
▁Library 34
▁Louis 34
▁Ma 34
▁Nigerian 34
▁Republicans 34
▁Rick 34
▁Sm 34
▁Still 34
▁Wait 34
▁William 34
▁accountability 34
▁activ 34
▁ag 34
▁align 34
▁approached 34
▁approximately 34
▁attacked 34
▁awkward 34
▁backyard 34
▁bias 34
▁bills 34
▁bite 34
▁bush 34
▁caps 34
▁caves 34
▁cellular 34
▁cheating 34
▁clinics 34
▁cod 34
▁condoms 34
▁consumed 34
▁correspond 34
▁craft 34
▁crap 34
▁crude 34
▁decre 34
▁del 34
▁dri 34
▁eighth 34
▁electro 34
▁expanded 34
▁gasoline 34
▁grains 34
▁grandparents 34
▁habit 34
▁harmony 34
▁hat 34
▁hybrid 34
▁independence 34
▁inequality 34
▁ingredient 34
▁instruction 34
▁integration 34
▁joint 34
▁kicked 34
▁kingdom 34
▁legislation 34
▁loses 34
▁manager 34
▁mathematician 34
▁mentor 34
▁mobil 34
▁motiv 34
▁nap 34
▁native 34
▁nearest 34
▁opinions 34
▁orders 34
▁parachute 34
▁passes 34
▁periods 34
▁pollin 34
▁previously 34
▁projection 34
▁reaches 34
▁realistic 34
▁realization 34
▁recip 34
▁request 34
▁retail 34
▁retr 34
▁revers 34
▁sec 34
▁secrets 34
▁si 34
▁simplest 34
▁simulate 34
▁sin 34
▁slight 34
▁slower 34
▁sme 34
▁smiling 34
▁span 34
▁speaks 34
▁spiral 34
▁streams 34
▁stunt 34
▁sulfide 34
▁telescopes 34
▁theoretical 34
▁touching 34
▁translator 34
▁transm 34
▁transmitted 34
▁useless 34
▁vegetable 34
▁via 34
▁visually 34
▁workplace 34
▁wow 34
40 33
Sh 33
St 33
Would 33
akers 33
ares 33
ata 33
aws 33
bled 33
cr 33
eling 33
encies 33
erm 33
esp 33
eting 33
graph 33
how 33
iated 33
ident 33
istry 33
ographical 33
oles 33
omy 33
related 33
ria 33
ste 33
take 33
ued 33
utes 33
▁1,500 33
▁33 33
▁AM 33
▁Ann 33
▁Atlanta 33
▁Brad 33
▁Catholic 33
▁Di 33
▁FDA 33
▁Fin 33
▁Fund 33
▁Har 33
▁Kosovo 33
▁Light 33
▁Media 33
▁SETI 33
▁Sal 33
▁Seattle 33
▁Society 33
▁Sylvia 33
▁Trans 33
▁Turns 33
▁Until 33
▁accelerating 33
▁accomplish 33
▁acquire 33
▁agencies 33
▁apples 33
▁assembly 33
▁attitudes 33
▁authoritarian 33
▁bacterium 33
▁bare 33
▁barrel 33
▁bas 33
▁beef 33
▁belly 33
▁bre 33
▁bump 33
▁ca 33
▁cables 33
▁cattle 33
▁chromosome 33
▁continuously 33
▁contribution 33
▁coordination 33
▁copies 33
▁corners 33
▁corresponds 33
▁crossed 33
▁cyber 33
▁diagnosis 33
▁donors 33
▁doubled 33
▁ego 33
▁elaborate 33
▁equ 33
▁evolving 33
▁females 33
▁fil 33
▁fus 33
▁gestures 33
▁girlfriend 33
▁guard 33
▁guilty 33
▁harbor 33
▁helpless 33
▁hopeless 33
▁households 33
▁involve 33
▁jam 33
▁je 33
▁journalists 33
▁keyboard 33
▁kidding 33
▁lions 33
▁mag 33
▁manner 33
▁marks 33
▁medicines 33
▁melting 33
▁metabolism 33
▁mud 33
▁nutrition 33
▁odor 33
▁offers 33
▁officer 33
▁pays 33
▁pencil 33
▁platforms 33
▁posted 33
▁proceed 33
▁profile 33
▁programmers 33
▁prototypes 33
▁proven 33
▁pur 33
▁randomly 33
▁revealed 33
▁sacrifice 33
▁safely 33
▁scaled 33
▁screens 33
▁seals 33
▁segment 33
▁sequencing 33
▁shining 33
▁significance 33
▁strangers 33
▁taxes 33
▁temple 33
▁thrilled 33
▁tolerance 33
▁trad 33
▁trading 33
▁transmit 33
▁trivial 33
▁twist 33
▁unre 33
▁visions 33
▁wheels 33
▁workforce 33
"? 32
-2 32
80 32
Ah 32
CA 32
Come 32
any 32
aph 32
archy 32
ctors 32
ely 32
icy 32
iful 32
income 32
inging 32
irst 32
irt 32
isc 32
ison 32
izers 32
late 32
ois 32
oma 32
orse 32
place 32
pound 32
rate 32
rill 32
riv 32
rog 32
str 32
uit 32
ula 32
war 32
wind 32
xt 32
zy 32
▁2005, 32
▁25,000 32
▁37 32
▁72 32
▁9/11 32
▁: 32
▁Academy 32
▁Army 32
▁Christians 32
▁Co 32
▁Daniel 32
▁Egyptian 32
▁Eric 32
▁Gen 32
▁Heart 32
▁Inter 32
▁Jerusalem 32
▁Joe 32
▁Kevin 32
▁LED 32
▁Milo 32
▁Min 32
▁Neanderthals 32
▁Netherlands 32
▁Olympics 32
▁Organization 32
▁Pretty 32
▁Professor 32
▁SP 32
▁Ser 32
▁Seven 32
▁Singapore 32
▁Stephen 32
▁Switzerland 32
▁Tokyo 32
▁Young 32
▁accelerate 32
▁activists 32
▁aliens 32
▁ancestor 32
▁ang 32
▁behalf 32
▁bud 32
▁budgets 32
▁bureaucr 32
▁campus 32
▁cas 32
▁chromosomes 32
▁civic 32
▁codes 32
▁collision 32
▁compound 32
▁compounds 32
▁cong 32
▁connectivity 32
▁converted 32
▁corporations 32
▁cred 32
▁dare 32
▁deck 32
▁deepest 32
▁defin 32
▁defining 32
▁desktop 32
▁dest 32
▁disabled 32
▁division 32
▁dump 32
▁enabled 32
▁enhance 32
▁entry 32
▁excuse 32
▁fate 32
▁filling 32
▁float 32
▁fulfill 32
▁gallons 32
▁gay 32
▁gorgeous 32
▁grant 32
▁gri 32
▁hallucinations 32
▁heading 32
▁heavily 32
▁honored 32
▁hopeful 32
▁hopes 32
▁humble 32
▁indic 32
▁intended 32
▁investigate 32
▁irre 32
▁lifted 32
▁magician 32
▁maintenance 32
▁manifest 32
▁mankind 32
▁matched 32
▁mechan 32
▁metals 32
▁mines 32
▁mol 32
▁mold 32
▁mort 32
▁mushrooms 32
▁nano 32
▁nights 32
▁nurture 32
▁nut 32
▁observations 32
▁observe 32
▁pale 32
▁parks 32
▁peers 32
▁persu 32
▁pipe 32
▁pred 32
▁premise 32
▁prey 32
▁prior 32
▁privileged 32
▁processor 32
▁producers 32
▁progression 32
▁pulse 32
▁rape 32
▁raped 32
▁rays 32
▁reflected 32
▁repeated 32
▁reputation 32
▁residents 32
▁retirement 32
▁satellites 32
▁sch 32
▁screening 32
▁separation 32
▁shifts 32
▁shops 32
▁sooner 32
▁specialized 32
▁stolen 32
▁strip 32
▁sweat 32
▁synthes 32
▁tear 32
▁teenager 32
▁textbooks 32
▁tissues 32
▁transformative 32
▁ultraviolet 32
▁unle 32
▁vent 32
▁visiting 32
▁worship 32
▁yeast 32
"] 31
,' 31
30 31
Q 31
Wh 31
ables 31
acking 31
aded 31
agon 31
antic 31
aper 31
asses 31
bing 31
bles 31
cept 31
ded 31
driven 31
era 31
ety 31
ff 31
fire 31
hips 31
ially 31
ibly 31
icate 31
itters 31
lements 31
mo 31
na 31
nd 31
onia 31
oot 31
osh 31
read 31
roph 31
size 31
sized 31
stone 31
umble 31
ura 31
uth 31
▁185 31
▁190 31
▁BJ 31
▁Bern 31
▁Business 31
▁Galapagos 31
▁Joseph 31
▁Jupiter 31
▁Ken 31
▁Kids 31
▁Milky 31
▁PC 31
▁Pal 31
▁Pers 31
▁Ro 31
▁Saudi 31
▁Si 31
▁Social 31
▁Twenty 31
▁WK 31
▁Whenever 31
▁Wright 31
▁adm 31
▁airline 31
▁alphabet 31
▁assets 31
▁awe 31
▁bathroom 31
▁beetle 31
▁believes 31
▁belongs 31
▁bombsight 31
▁broccoli 31
▁bust 31
▁calculus 31
▁cardiac 31
▁cares 31
▁cellphone 31
▁cholera 31
▁chop 31
▁chronic 31
▁climbed 31
▁clips 31
▁commons 31
▁congestion 31
▁connectome 31
▁controversial 31
▁counted 31
▁creator 31
▁cups 31
▁dam 31
▁decent 31
▁desperately 31
▁dil 31
▁diplomacy 31
▁divers 31
▁documented 31
▁dropping 31
▁emp 31
▁employ 31
▁entrance 31
▁equals 31
▁feeds 31
▁format 31
▁frustration 31
▁gained 31
▁gar 31
▁glimpse 31
▁goat 31
▁grace 31
▁grades 31
▁heating 31
▁hormones 31
▁horror 31
▁iconic 31
▁immense 31
▁immun 31
▁inexpensive 31
▁integrate 31
▁investments 31
▁irony 31
▁irrational 31
▁judgments 31
▁knife 31
▁lawn 31
▁legitimate 31
▁lic 31
▁longevity 31
▁marrow 31
▁mayor 31
▁mel 31
▁motivated 31
▁mutations 31
▁myst 31
▁nowadays 31
▁obese 31
▁organizing 31
▁patch 31
▁philosophical 31
▁phot 31
▁pleased 31
▁praying 31
▁prevalence 31
▁pricing 31
▁proposal 31
▁proved 31
▁reasoning 31
▁recognizing 31
▁remarkably 31
▁rescued 31
▁respons 31
▁rose 31
▁schedule 31
▁schizophrenia 31
▁screaming 31
▁sensitivity 31
▁ser 31
▁shed 31
▁shoulders 31
▁silicon 31
▁skeleton 31
▁soccer 31
▁spaghetti 31
▁spell 31
▁stopping 31
▁strategic 31
▁suggestion 31
▁symmetrical 31
▁tattoo 31
▁teenage 31
▁terrorist 31
▁textbook 31
▁thus 31
▁unfortunate 31
▁upright 31
▁upward 31
▁variable 31
▁vice 31
▁warmer 31
▁websites 31
▁whisper 31
▁wor 31
▁wore 31
They 30
acle 30
ada 30
ait 30
aling 30
ammed 30
anger 30
anted 30
ason 30
bed 30
berg 30
cing 30
cious 30
den 30
edge 30
etal 30
grad 30
iat 30
icial 30
idden 30
imb 30
iment 30
itary 30
ivers 30
ject 30
lethal 30
offs 30
ounded 30
pes 30
phal 30
piece 30
port 30
ption 30
ram 30
rew 30
speed 30
▁192 30
▁2: 30
▁30, 30
▁Buddha 30
▁Craig 30
▁Development 30
▁Eight 30
▁Et 30
▁Ham 30
▁History 30
▁Imp 30
▁Industrial 30
▁Jane 30
▁Jews 30
▁Jill 30
▁Kennedy 30
▁Little 30
▁Mary 30
▁Mc 30
▁Men 30
▁Monday 30
▁Montana 30
▁Norway 30
▁November 30
▁Pet 30
▁Phoenix 30
▁Public 30
▁Rather 30
▁Sil 30
▁Teszler 30
▁US 30
▁abandoned 30
▁absurd 30
▁adopt 30
▁agents 30
▁aluminum 30
▁anticipate 30
▁assistance 30
▁attracted 30
▁authenticity 30
▁aw 30
▁beam 30
▁bless 30
▁blueprint 30
▁boards 30
▁bon 30
▁bribe 30
▁buff 30
▁calculating 30
▁capt 30
▁cardboard 30
▁chemotherapy 30
▁chess 30
▁chickens 30
▁circular 30
▁cle 30
▁comments 30
▁cope 30
▁copied 30
▁counts 30
▁crab 30
▁critically 30
▁deciding 30
▁delivering 30
▁der 30
▁desperate 30
▁digest 30
▁dism 30
▁dispers 30
▁disturb 30
▁dose 30
▁drought 30
▁drunk 30
▁ed 30
▁elephants 30
▁eliminate 30
▁empowering 30
▁energ 30
▁enormously 30
▁ens 30
▁enterprise 30
▁equity 30
▁eradication 30
▁estimated 30
▁eternal 30
▁ethic 30
▁expressed 30
▁famine 30
▁fantasy 30
▁farther 30
▁fathers 30
▁findings 30
▁frequencies 30
▁generic 30
▁grabbed 30
▁habits 30
▁hal 30
▁heal 30
▁horr 30
▁infrared 30
▁injuries 30
▁intact 30
▁intimacy 30
▁jug 30
▁labeled 30
▁lanes 30
▁leather 30
▁linking 30
▁lion 30
▁mas 30
▁mask 30
▁matrix 30
▁medication 30
▁mixing 30
▁mot 30
▁mus 30
▁nodes 30
▁obsession 30
▁octopus 30
▁opt 30
▁outbreak 30
▁overnight 30
▁parasite 30
▁ped 30
▁perm 30
▁persist 30
▁physicians 30
▁politician 30
▁poss 30
▁pouring 30
▁preparation 30
▁priorities 30
▁professors 30
▁promised 30
▁prote 30
▁protocell 30
▁puff 30
▁resist 30
▁responding 30
▁rib 30
▁risky 30
▁rob 30
▁shifted 30
▁shore 30
▁shred 30
▁solo 30
▁spacecraft 30
▁stadium 30
▁stranger 30
▁surgical 30
▁surround 30
▁tangible 30
▁temporal 30
▁ter 30
▁thermal 30
▁tomato 30
▁topics 30
▁traces 30
▁triangle 30
▁trips 30
▁understands 30
▁violin 30
▁vitamin 30
▁whoever 30
▁wrapped 30
Go 29
Good 29
aly 29
ands 29
anging 29
antly 29
asy 29
conf 29
dom 29
edy 29
elf 29
elt 29
enz 29
fly 29
heart 29
ience 29
ike 29
ild 29
ision 29
itarian 29
itter 29
ival 29
lers 29
ller 29
lley 29
long 29
obs 29
omed 29
omm 29
orial 29
ork 29
osition 29
ought 29
ould 29
pace 29
person 29
rip 29
ror 29
shaped 29
ua 29
ules 29
upp 29
▁12, 29
▁3, 29
▁Alright 29
▁Amy 29
▁Arduino 29
▁Aut 29
▁Babbage 29
▁Beck 29
▁Canyon 29
▁Civil 29
▁Country 29
▁Dec 29
▁Democrats 29
▁Jay 29
▁Jefferson 29
▁Mount 29
▁Natasha 29
▁Nor 29
▁Olympic 29
▁Palestinian 29
▁Pittsburgh 29
▁Port 29
▁Rock 29
▁Stop 29
▁Stud 29
▁Sub 29
▁Sudan 29
▁Sw 29
▁abroad 29
▁accum 29
▁accumulate 29
▁accuracy 29
▁acres 29
▁addiction 29
▁ambitious 29
▁anesthesia 29
▁anniversary 29
▁applies 29
▁appreciation 29
▁arrow 29
▁artwork 29
▁astronomy 29
▁baseball 29
▁baseline 29
▁belt 29
▁bip 29
▁blew 29
▁boun 29
▁bullet 29
▁buttons 29
▁chains 29
▁chore 29
▁cleaning 29
▁cloth 29
▁convention 29
▁coordin 29
▁copper 29
▁correlation 29
▁couch 29
▁coup 29
▁cracks 29
▁crimes 29
▁denial 29
▁dependence 29
▁deploy 29
▁destination 29
▁digging 29
▁digit 29
▁disappears 29
▁dishes 29
▁dragonflies 29
▁dro 29
▁eats 29
▁electromagnetic 29
▁empire 29
▁empower 29
▁endeavor 29
▁entrepreneurial 29
▁equilibrium 29
▁exploded 29
▁exponentially 29
▁firing 29
▁folded 29
▁folds 29
▁foster 29
▁friction 29
▁frog 29
▁graphs 29
▁hairs 29
▁happily 29
▁hiding 29
▁hills 29
▁hint 29
▁ho 29
▁holy 29
▁horizontal 29
▁id 29
▁illusions 29
▁imit 29
▁implemented 29
▁import 29
▁index 29
▁indicate 29
▁indicates 29
▁instinct 29
▁integrity 29
▁intensive 29
▁interd 29
▁introduction 29
▁jud 29
▁kit 29
▁leopard 29
▁lethal 29
▁libraries 29
▁lif 29
▁lifespan 29
▁lonely 29
▁luckily 29
▁maneuver 29
▁markers 29
▁messy 29
▁microscopic 29
▁millennia 29
▁mim 29
▁minority 29
▁modest 29
▁momentum 29
▁nic 29
▁officials 29
▁outs 29
▁overwhelming 29
▁ow 29
▁packed 29
▁parenting 29
▁pas 29
▁pathways 29
▁pit 29
▁porn 29
▁presenting 29
▁pret 29
▁priest 29
▁projected 29
▁prope 29
▁psychologist 29
▁pu 29
▁purple 29
▁qual 29
▁receiving 29
▁reck 29
▁regional 29
▁regularly 29
▁ren 29
▁responded 29
▁sang 29
▁sanitation 29
▁scheme 29
▁skeptical 29
▁slope 29
▁slum 29
▁soap 29
▁spatial 29
▁spiders 29
▁steep 29
▁sticking 29
▁sur 29
▁systematic 29
▁terrified 29
▁texts 29
▁thereby 29
▁tid 29
▁torn 29
▁transc 29
▁travels 29
▁tur 29
▁valu 29
▁verb 29
▁virtue 29
▁visualize 29
▁western 29
▁winner 29
▁wins 29
▁wished 29
▁woods 29
▁worm 29
▁youngest 29
Because 28
Cola 28
Re 28
acing 28
alth 28
ames 28
amm 28
anding 28
app 28
appy 28
bb 28
bers 28
cons 28
erve 28
etch 28
ibilities 28
iform 28
inch 28
irl 28
irts 28
isted 28
itely 28
lam 28
mile 28
ners 28
oding 28
olved 28
ourse 28
ouse 28
rey 28
rical 28
second 28
self 28
uous 28
urity 28
ware 28
ws 28
zed 28
▁& 28
▁'8 28
▁130 28
▁150,000 28
▁1930 28
▁2003, 28
▁2005 28
▁Arthur 28
▁Bar 28
▁Beach 28
▁Berkeley 28
▁Bor 28
▁Brooklyn 28
▁Brothers 28
▁Cam 28
▁Coca 28
▁Cold 28
▁Columbia 28
▁Dick 28
▁Hill 28
▁IP 28
▁Inc 28
▁Johnny 28
▁Journal 28
▁Korean 28
▁Lewis 28
▁Meanwhile 28
▁Med 28
▁Natural 28
▁Republican 28
▁Sing 28
▁Stewart 28
▁Therefore 28
▁Tuesday 28
▁activated 28
▁actively 28
▁addressing 28
▁adolescence 28
▁alter 28
▁amateur 28
▁amb 28
▁amp 28
▁anonymous 28
▁answering 28
▁appeal 28
▁autom 28
▁bab 28
▁barriers 28
▁basking 28
▁beds 28
▁behold 28
▁biologically 28
▁biosphere 28
▁blowing 28
▁blur 28
▁boost 28
▁brands 28
▁brick 28
▁brush 28
▁butt 28
▁candidates 28
▁cared 28
▁charged 28
▁chase 28
▁checking 28
▁clusters 28
▁columns 28
▁consensus 28
▁convicted 28
▁crank 28
▁crashes 28
▁crow 28
▁dancers 28
▁decor 28
▁describing 28
▁devastating 28
▁dictators 28
▁disciplines 28
▁diver 28
▁documentary 28
▁duty 28
▁eBay 28
▁earning 28
▁elevator 28
▁emphasize 28
▁ethanol 28
▁exhibit 28
▁fears 28
▁fog 28
▁fungi 28
▁gains 28
▁gel 28
▁generosity 28
▁geography 28
▁gram 28
▁grocery 28
▁headquarters 28
▁hometown 28
▁hoped 28
▁humility 28
▁hyd 28
▁impulse 28
▁innovate 28
▁jaw 28
▁jewelry 28
▁kidn 28
▁lectures 28
▁mating 28
▁mere 28
▁morph 28
▁neg 28
▁negotiate 28
▁noisy 28
▁observed 28
▁operates 28
▁ordered 28
▁ov 28
▁parliament 28
▁perf 28
▁philosophers 28
▁plankton 28
▁planned 28
▁poems 28
▁portraits 28
▁pound 28
▁practically 28
▁practicing 28
▁presidential 28
▁profitable 28
▁promoting 28
▁punishment 28
▁quant 28
▁ra 28
▁rains 28
▁recognizes 28
▁redesign 28
▁regul 28
▁regulations 28
▁renewable 28
▁replacement 28
▁replic 28
▁representing 28
▁reproduction 28
▁retire 28
▁revenues 28
▁richest 28
▁rip 28
▁sensing 28
▁sequenced 28
▁shelves 28
▁shipping 28
▁shorter 28
▁shrink 28
▁smells 28
▁statistical 28
▁strand 28
▁substantial 28
▁sulfur 28
▁symbolic 28
▁talented 28
▁tanks 28
▁temporary 28
▁terrorists 28
▁towns 28
▁transit 28
▁transported 28
▁typing 28
▁undert 28
▁unseen 28
▁variables 28
▁wavelength 28
▁yard 28
One 27
acked 27
aken 27
athy 27
aught 27
bor 27
born 27
cked 27
coming 27
effective 27
engineering 27
esis 27
ette 27
ham 27
held 27
inding 27
ining 27
irds 27
lect 27
ledge 27
lement 27
million 27
no 27
omes 27
osis 27
pper 27
ptic 27
rian 27
rooms 27
standing 27
tent 27
uch 27
uns 27
urg 27
yr 27
▁$100 27
▁12,000 27
▁12- 27
▁2006, 27
▁2010, 27
▁4. 27
▁46 27
▁AS 27
▁According 27
▁Ask 27
▁Babylon 27
▁CD 27
▁Carl 27
▁Charlie 27
▁Cont 27
▁Econom 27
▁Empire 27
▁Gl 27
▁Golden 27
▁Has 27
▁Indonesia 27
▁Interestingly 27
▁Lady 27
▁Mel 27
▁Nathan 27
▁OECD 27
▁Plan 27
▁Power 27
▁Rand 27
▁Republic 27
▁Rio 27
▁Rom 27
▁Royal 27
▁Say 27
▁Sierra 27
▁Spring 27
▁Stone 27
▁Tasmanian 27
▁Telescope 27
▁Ter 27
▁abnormal 27
▁acoust 27
▁acquired 27
▁acute 27
▁advert 27
▁allies 27
▁ambition 27
▁ampl 27
▁analyzed 27
▁angles 27
▁arch 27
▁arise 27
▁artifacts 27
▁associate 27
▁attacking 27
▁aut 27
▁basement 27
▁bay 27
▁bowl 27
▁brave 27
▁bugs 27
▁canvas 27
▁catastrophic 27
▁celebration 27
▁characteristic 27
▁checks 27
▁circul 27
▁climbers 27
▁compos 27
▁confronted 27
▁considering 27
▁contained 27
▁copying 27
▁counsel 27
▁crowds 27
▁default 27
▁diamonds 27
▁disappearing 27
▁displays 27
▁distinction 27
▁doses 27
▁embarrassed 27
▁embarrassing 27
▁empath 27
▁enthusiasm 27
▁exagger 27
▁expense 27
▁extensive 27
▁fails 27
▁filters 27
▁fishermen 27
▁forecast 27
▁frogs 27
▁frontier 27
▁functioning 27
▁generates 27
▁ghost 27
▁grassroots 27
▁grave 27
▁gravitational 27
▁hackers 27
▁hated 27
▁heh 27
▁hunt 27
▁inherently 27
▁intellect 27
▁intr 27
▁investigation 27
▁involving 27
▁laughed 27
▁lean 27
▁limbs 27
▁loads 27
▁losses 27
▁mammal 27
▁managing 27
▁manipulation 27
▁manufacture 27
▁mapped 27
▁marker 27
▁migration 27
▁millimeter 27
▁mirrors 27
▁mixture 27
▁monsoon 27
▁monster 27
▁motivate 27
▁mult 27
▁mutual 27
▁nevertheless 27
▁nicely 27
▁nonetheless 27
▁notions 27
▁offshore 27
▁oper 27
▁operational 27
▁owners 27
▁panic 27
▁passage 27
▁pathway 27
▁potent 27
▁powder 27
▁predicting 27
▁prefrontal 27
▁pressures 27
▁priority 27
▁privacy 27
▁purchase 27
▁reforms 27
▁refuse 27
▁rejected 27
▁reporting 27
▁ridge 27
▁rolled 27
▁serves 27
▁sexually 27
▁shaking 27
▁shortly 27
▁spike 27
▁squares 27
▁statements 27
▁strikes 27
▁submit 27
▁sucks 27
▁suff 27
▁suits 27
▁surviving 27
▁targeted 27
▁thinkers 27
▁ties 27
▁trusted 27
▁twe 27
▁unconscious 27
▁une 27
▁univers 27
▁utter 27
▁vibr 27
▁viol 27
▁weekend 27
▁wiped 27
▁zo 27
ED 26
Fi 26
MA 26
RI 26
ado 26
aj 26
alities 26
aman 26
anc 26
aped 26
assembly 26
atter 26
aved 26
bell 26
borne 26
care 26
cular 26
engine 26
essed 26
eted 26
etics 26
forward 26
gging 26
gle 26
grand 26
ilt 26
imate 26
imm 26
inos 26
isions 26
istics 26
itan 26
ius 26
liers 26
makers 26
ming 26
neys 26
opp 26
orb 26
raw 26
rier 26
ross 26
stand 26
third 26
ume 26
unting 26
ution 26
vert 26
verted 26
wer 26
▁12. 26
▁43 26
▁48 26
▁50- 26
▁Alaska 26
▁Alice 26
▁Arabia 26
▁Around 26
▁Bel 26
▁Bosnia 26
▁Bu 26
▁Cambodia 26
▁Canadian 26
▁Ce 26
▁Con 26
▁DVD 26
▁Danny 26
▁Data 26
▁Harry 26
▁Ke 26
▁Know 26
▁MO 26
▁Matt 26
▁Medic 26
▁Namibia 26
▁Notice 26
▁PR 26
▁Pennsylvania 26
▁Post 26
▁Princeton 26
▁RS 26
▁Rover 26
▁Sarah 26
▁Thailand 26
▁Under 26
▁Virgin 26
▁Wars 26
▁Wonder 26
▁abandon 26
▁achieving 26
▁activate 26
▁adaptation 26
▁addict 26
▁aff 26
▁afterward 26
▁artif 26
▁asleep 26
▁assumed 26
▁astronomers 26
▁autonomy 26
▁avatar 26
▁ax 26
▁benef 26
▁beneficial 26
▁blast 26
▁boots 26
▁breakdown 26
▁browser 26
▁catastrophe 26
▁celebrated 26
▁ceremony 26
▁champions 26
▁chaotic 26
▁char 26
▁chasing 26
▁chemist 26
▁chick 26
▁chimpanzee 26
▁coach 26
▁condom 26
▁conductor 26
▁confined 26
▁conquer 26
▁contradiction 26
▁controversy 26
▁cosmos 26
▁crafts 26
▁criteria 26
▁dating 26
▁deadly 26
▁debris 26
▁delighted 26
▁democrat 26
▁dens 26
▁deplet 26
▁devoted 26
▁diagnostic 26
▁disturbing 26
▁emails 26
▁encyclopedia 26
▁enrich 26
▁eradicate 26
▁exotic 26
▁expl 26
▁famously 26
▁flesh 26
▁flexibility 26
▁freezing 26
▁gardens 26
▁genuine 26
▁glo 26
▁greatly 26
▁guards 26
▁ham 26
▁happiest 26
▁heck 26
▁heritage 26
▁ide 26
▁illnesses 26
▁indigenous 26
▁infectious 26
▁infer 26
▁influences 26
▁inherent 26
▁injured 26
▁insist 26
▁interfaces 26
▁inventions 26
▁jumps 26
▁kindergarten 26
▁lighter 26
▁lips 26
▁magazines 26
▁manufacturers 26
▁membrane 26
▁microphone 26
▁midst 26
▁modeling 26
▁multip 26
▁mysteries 26
▁nasty 26
▁nonsense 26
▁norm 26
▁obsolete 26
▁occup 26
▁occupy 26
▁offspring 26
▁optimism 26
▁parameters 26
▁paste 26
▁perpet 26
▁perspectives 26
▁pipeline 26
▁pipes 26
▁precip 26
▁prem 26
▁preventing 26
▁processed 26
▁promising 26
▁propaganda 26
▁rainforest 26
▁raises 26
▁ramp 26
▁rank 26
▁reactors 26
▁reass 26
▁reconstruct 26
▁recur 26
▁recycled 26
▁regenerate 26
▁regrets 26
▁regulation 26
▁relativity 26
▁releases 26
▁revolutions 26
▁ri 26
▁rockets 26
▁roles 26
▁routine 26
▁salary 26
▁scanned 26
▁seawater 26
▁secondary 26
▁sed 26
▁sells 26
▁server 26
▁seventh 26
▁skept 26
▁slowing 26
▁sovereign 26
▁steady 26
▁stere 26
▁subt 26
▁summarize 26
▁tale 26
▁thrust 26
▁timing 26
▁touches 26
▁traff 26
▁ty 26
▁unemploy 26
▁unfair 26
▁unlock 26
▁vaccin 26
▁vocabulary 26
▁ward 26
▁wasted 26
▁weighs 26
▁wells 26
▁yards 26
▁ze 26
... 25
Did 25
Listen 25
Thank 25
abb 25
alin 25
apse 25
asty 25
avors 25
bar 25
bert 25
boards 25
cal 25
can 25
ception 25
cket 25
conflict 25
ect 25
ensive 25
erc 25
fall 25
five 25
front 25
iant 25
icating 25
icism 25
idence 25
idge 25
ini 25
inth 25
ipe 25
iser 25
net 25
now 25
ods 25
oric 25
oriented 25
otes 25
pres 25
quality 25
rent 25
rows 25
ruption 25
stick 25
ther 25
uan 25
ulations 25
urt 25
vol 25
vy 25
wide 25
▁140 25
▁15,000 25
▁15- 25
▁180 25
▁187 25
▁2000. 25
▁2008 25
▁44 25
▁50, 25
▁Alpha 25
▁Bangalore 25
▁Book 25
▁Brazilian 25
▁Buddhist 25
▁Comp 25
▁Compassion 25
▁Dalai 25
▁Darfur 25
▁Defense 25
▁Denmark 25
▁Down 25
▁Eventually 25
▁FG 25
▁Food 25
▁Having 25
▁Hospital 25
▁Information 25
▁Interviewer 25
▁Jobs 25
▁Kansas 25
▁Lama 25
▁Large 25
▁Lee 25
▁Luckily 25
▁Mach 25
▁Massachusetts 25
▁Mat 25
▁Medical 25
▁Mo 25
▁Native 25
▁Nick 25
▁Philip 25
▁RISD 25
▁RNA 25
▁Roman 25
▁Ross 25
▁SB 25
▁Saturday 25
▁Similarly 25
▁Solar 25
▁Tal 25
▁Tesla 25
▁Together 25
▁Wilson 25
▁Wolfram 25
▁Year 25
▁abundant 25
▁acceler 25
▁activist 25
▁adaptive 25
▁alternatives 25
▁ape 25
▁arena 25
▁arous 25
▁ashamed 25
▁assess 25
▁asset 25
▁assure 25
▁attempts 25
▁bandwidth 25
▁banned 25
▁bluefin 25
▁bonus 25
▁bounce 25
▁butter 25
▁calcium 25
▁celebrity 25
▁chalk 25
▁chef 25
▁cher 25
▁chimps 25
▁cho 25
▁circulation 25
▁clim 25
▁coastal 25
▁collaborate 25
▁com 25
▁combat 25
▁composed 25
▁condu 25
▁configuration 25
▁conscience 25
▁countless 25
▁cousin 25
▁cousins 25
▁crust 25
▁declared 25
▁ded 25
▁demo 25
▁deserves 25
▁detected 25
▁disappoint 25
▁disconnected 25
▁discussing 25
▁discussions 25
▁disgusting 25
▁divine 25
▁dra 25
▁emerges 25
▁envision 25
▁erectus 25
▁erotic 25
▁excess 25
▁fertilizer 25
▁finishing 25
▁firms 25
▁flights 25
▁floors 25
▁flourish 25
▁forgive 25
▁fossils 25
▁founding 25
▁frightened 25
▁galleries 25
▁geo 25
▁glacier 25
▁handful 25
▁headline 25
▁hugely 25
▁illustration 25
▁impressed 25
▁improvements 25
▁incre 25
▁individually 25
▁indu 25
▁informal 25
▁institute 25
▁intangible 25
▁intimate 25
▁intriguing 25
▁justify 25
▁juvenile 25
▁keys 25
▁laying 25
▁literal 25
▁loans 25
▁matches 25
▁minerals 25
▁minimal 25
▁mutil 25
▁mythology 25
▁neocortex 25
▁node 25
▁novelty 25
▁nurturing 25
▁observing 25
▁overs 25
▁owe 25
▁partnerships 25
▁personalities 25
▁persuade 25
▁petro 25
▁pil 25
▁placebo 25
▁planted 25
▁pollutants 25
▁pos 25
▁prec 25
▁principal 25
▁procedures 25
▁programmed 25
▁psychiat 25
▁racing 25
▁rad 25
▁radius 25
▁reasonably 25
▁recovered 25
▁refugees 25
▁rehabilitation 25
▁remembering 25
▁replacing 25
▁representative 25
▁rhythms 25
▁riding 25
▁ris 25
▁rises 25
▁rode 25
▁sadness 25
▁satisfaction 25
▁scientifically 25
▁sections 25
▁separ 25
▁sli 25
▁sole 25
▁solemn 25
▁speeds 25
▁spontaneously 25
▁staggering 25
▁standpoint 25
▁storyteller 25
▁strains 25
▁summary 25
▁sup 25
▁supportive 25
▁syn 25
▁tit 25
▁trapped 25
▁truths 25
▁tu 25
▁unw 25
▁vacation 25
▁velocity 25
▁vibrating 25
▁watts 25
AR 24
To 24
aa 24
acious 24
ador 24
ager 24
ague 24
aire 24
anna 24
apes 24
asm 24
ato 24
bery 24
ceived 24
enn 24
enth 24
etary 24
four 24
gen 24
gers 24
holders 24
idd 24
ield 24
ifies 24
ifth 24
ighter 24
ilar 24
ilit 24
ima 24
ira 24
isms 24
itz 24
izer 24
ja 24
know 24
las 24
lear 24
lic 24
lights 24
lim 24
lus 24
mission 24
ocratic 24
olic 24
onic 24
ota 24
ours 24
pected 24
positive 24
quent 24
resses 24
roc 24
rons 24
school 24
tar 24
tes 24
udge 24
wandering 24
wh 24
writ 24
▁160 24
▁8,000 24
▁900 24
▁AIMS 24
▁Absolutely 24
▁Abu 24
▁Apollo 24
▁Association 24
▁BL 24
▁Beethoven 24
▁Cla 24
▁Democr 24
▁Desert 24
▁Dis 24
▁Edinburgh 24
▁Fortunately 24
▁Fred 24
▁Going 24
▁Humans 24
▁Hy 24
▁Ice 24
▁KA 24
▁Kibera 24
▁Map 24
▁Mexican 24
▁Mont 24
▁Music 24
▁NA 24
▁Ooh 24
▁Pop 24
▁PowerPoint 24
▁Pre 24
▁Qaeda 24
▁Russians 24
▁SJ 24
▁SMS 24
▁Sahara 24
▁Secretary 24
▁Show 24
▁Sk 24
▁Sputnik 24
▁Stat 24
▁Sty 24
▁Suppose 24
▁Ted 24
▁Tunis 24
▁Type 24
▁Venezuela 24
▁Zimbabwe 24
▁accompanied 24
▁addressed 24
▁adds 24
▁administr 24
▁aggreg 24
▁aggregate 24
▁alert 24
▁amino 24
▁analyzing 24
▁anytime 24
▁apartments 24
▁aquatic 24
▁arose 24
▁arrest 24
▁arrows 24
▁assessment 24
▁assign 24
▁attraction 24
▁beside 24
▁bioluminescence 24
▁blessed 24
▁blogging 24
▁bloody 24
▁bott 24
▁bypass 24
▁calculated 24
▁calculation 24
▁candle 24
▁candy 24
▁catalog 24
▁checked 24
▁commission 24
▁conj 24
▁constitution 24
▁consult 24
▁container 24
▁contents 24
▁crushed 24
▁crystall 24
▁dancer 24
▁dealt 24
▁defect 24
▁deficit 24
▁degraded 24
▁depressing 24
▁disasters 24
▁documenting 24
▁dome 24
▁doubling 24
▁easiest 24
▁eastern 24
▁economically 24
▁edit 24
▁emotionally 24
▁endless 24
▁eng 24
▁entities 24
▁exceptions 24
▁expectation 24
▁explanations 24
▁explored 24
▁expose 24
▁fairy 24
▁fertil 24
▁folk 24
▁fort 24
▁frag 24
▁fragments 24
▁frames 24
▁friendship 24
▁frontal 24
▁fruits 24
▁gallon 24
▁gener 24
▁gigantic 24
▁glaciers 24
▁glory 24
▁grim 24
▁hamburger 24
▁hatred 24
▁hooked 24
▁humankind 24
▁hump 24
▁hung 24
▁imagining 24
▁indirect 24
▁initi 24
▁instru 24
▁intentions 24
▁invitation 24
▁isolation 24
▁iter 24
▁juggling 24
▁laboratories 24
▁lasts 24
▁laundry 24
▁learns 24
▁lightning 24
▁longest 24
▁louder 24
▁lure 24
▁mammography 24
▁marked 24
▁marvelous 24
▁mast 24
▁medit 24
▁mentally 24
▁menu 24
▁metric 24
▁migr 24
▁migraine 24
▁misery 24
▁nightmare 24
▁norms 24
▁nu 24
▁nucleus 24
▁numerous 24
▁orgasm 24
▁packaging 24
▁pants 24
▁parked 24
▁perceptions 24
▁physiology 24
▁planting 24
▁portable 24
▁pose 24
▁posters 24
▁potato 24
▁potatoes 24
▁preced 24
▁presents 24
▁preserved 24
▁problematic 24
▁publicly 24
▁pumps 24
▁pursuing 24
▁quantities 24
▁rainfall 24
▁rede 24
▁reduces 24
▁reflective 24
▁refused 24
▁repeatedly 24
▁researching 24
▁resilient 24
▁returns 24
▁riots 24
▁scar 24
▁sculptures 24
▁seam 24
▁settled 24
▁sheer 24
▁similarly 24
▁singers 24
▁slaughter 24
▁slice 24
▁slip 24
▁snakes 24
▁stairs 24
▁stare 24
▁stimulation 24
▁storms 24
▁subs 24
▁subsc 24
▁subse 24
▁summar 24
▁surveillance 24
▁tablet 24
▁tact 24
▁talents 24
▁texting 24
▁thri 24
▁transf 24
▁tremendously 24
▁tricky 24
▁tuned 24
▁twins 24
▁uniquely 24
▁upload 24
▁veter 24
▁viable 24
▁volcanic 24
▁voters 24
▁waited 24
▁washed 24
▁wax 24
▁weakness 24
▁winners 24
,000. 23
.] 23
60 23
600 23
De 23
Hi 23
Mart 23
Me 23
Not 23
PA 23
aches 23
agn 23
arl 23
attered 23
aver 23
ayer 23
bel 23
bone 23
breaking 23
cast 23
chemical 23
cond 23
des 23
ee 23
energy 23
erness 23
fer 23
hem 23
ials 23
imes 23
ker 23
ki 23
lessness 23
maker 23
minded 23
nel 23
ogenic 23
ometers 23
ona 23
order 23
organizing 23
oud 23
oul 23
ppers 23
quently 23
rays 23
real 23
rown 23
sur 23
ulsion 23
ux 23
verb 23
violence 23
wheel 23
word 23
▁1.3 23
▁1.5 23
▁100, 23
▁11, 23
▁2001 23
▁2007 23
▁2008. 23
▁31 23
▁52 23
▁Agnes 23
▁Alan 23
▁Amsterdam 23
▁Ber 23
▁Best 23
▁Bhutan 23
▁Bo 23
▁Bre 23
▁Char 23
▁Consider 23
▁Cy 23
▁Darwinian 23
▁Dean 23
▁Dev 23
▁Didn 23
▁Dylan 23
▁Em 23
▁Especially 23
▁Field 23
▁Francis 23
▁Greeks 23
▁Hum 23
▁Jerry 23
▁Kelly 23
▁Kiribati 23
▁Kyoto 23
▁Leone 23
▁Linux 23
▁MP 23
▁MS 23
▁Marcus 23
▁Marine 23
▁Mountain 23
▁Mozart 23
▁Office 23
▁PH 23
▁Parliament 23
▁Pepsi 23
▁Prime 23
▁Radio 23
▁Reagan 23
▁Real 23
▁Rec 23
▁Rule 23
▁Scotland 23
▁Sen 23
▁Simon 23
▁Step 23
▁Susan 23
▁TEDsters 23
▁Tamiflu 23
▁VC 23
▁Wouldn 23
▁Ye 23
▁Zipcar 23
▁accurately 23
▁af 23
▁affection 23
▁alike 23
▁altered 23
▁altern 23
▁ambiguity 23
▁anesth 23
▁apologize 23
▁argued 23
▁attachment 23
▁balanced 23
▁balloons 23
▁beetles 23
▁blindness 23
▁blocked 23
▁bonds 23
▁buck 23
▁bumps 23
▁buses 23
▁censorship 23
▁cerebral 23
▁certainty 23
▁choir 23
▁clarity 23
▁clues 23
▁coined 23
▁commonly 23
▁comparable 23
▁consist 23
▁continually 23
▁contr 23
▁corrid 23
▁council 23
▁countryside 23
▁cracked 23
▁daylight 23
▁decides 23
▁decomp 23
▁developments 23
▁diamond 23
▁dismiss 23
▁dreamed 23
▁dreaming 23
▁drift 23
▁elbow 23
▁elderly 23
▁elders 23
▁ele 23
▁embarrass 23
▁embracing 23
▁employment 23
▁encountered 23
▁enters 23
▁environmentally 23
▁equator 23
▁escal 23
▁ethics 23
▁feminist 23
▁fer 23
▁fisheries 23
▁flown 23
▁forcing 23
▁fuck 23
▁glucose 23
▁goats 23
▁gosh 23
▁handed 23
▁heights 23
▁helmet 23
▁hij 23
▁hol 23
▁hollow 23
▁honesty 23
▁hotter 23
▁hunter 23
▁hunters 23
▁im 23
▁incub 23
▁inert 23
▁infinitely 23
▁inflation 23
▁injustice 23
▁interpre 23
▁ir 23
▁jokes 23
▁jumping 23
▁labels 23
▁lately 23
▁leak 23
▁les 23
▁likelihood 23
▁limestone 23
▁lobe 23
▁lun 23
▁mang 23
▁mature 23
▁minor 23
▁mosquitoes 23
▁mouths 23
▁nanotechnology 23
▁nectar 23
▁negotiating 23
▁obstacle 23
▁paralysis 23
▁peripher 23
▁photographers 23
▁pir 23
▁plum 23
▁prayer 23
▁precision 23
▁programmer 23
▁promises 23
▁psycho 23
▁pupp 23
▁puzz 23
▁quot 23
▁radar 23
▁ration 23
▁realities 23
▁recru 23
▁rediscover 23
▁reflects 23
▁registered 23
▁reinvent 23
▁repertoire 23
▁resem 23
▁retreat 23
▁revolutionary 23
▁ruins 23
▁sadd 23
▁sailing 23
▁san 23
▁scholars 23
▁scope 23
▁secondly 23
▁secular 23
▁semi 23
▁sequ 23
▁sett 23
▁sew 23
▁shower 23
▁skilled 23
▁slowed 23
▁specialist 23
▁specul 23
▁spheres 23
▁spine 23
▁spontaneous 23
▁stimul 23
▁strengths 23
▁stunts 23
▁successes 23
▁surf 23
▁sustained 23
▁swo 23
▁symb 23
▁synapses 23
▁tickets 23
▁tin 23
▁torture 23
▁trait 23
▁trauma 23
▁typ 23
▁ultra 23
▁upd 23
▁usage 23
▁viewed 23
▁vir 23
▁vivid 23
▁vo 23
▁wandering 23
▁warfare 23
▁wel 23
▁wives 23
▁wonderfully 23
▁wrink 23
Every 22
On 22
abs 22
acc 22
ached 22
acter 22
airs 22
anced 22
aria 22
aste 22
aterial 22
aterials 22
awa 22
axis 22
backs 22
bas 22
burg 22
cape 22
cop 22
cture 22
develop 22
duc 22
elect 22
eless 22
erry 22
fill 22
ga 22
gal 22
handed 22
hill 22
iation 22
ief 22
ila 22
imeter 22
inate 22
inf 22
ishment 22
istically 22
itude 22
izations 22
kins 22
lan 22
lene 22
llow 22
master 22
non 22
ographer 22
oi 22
ologies 22
onom 22
ority 22
pan 22
print 22
sec 22
sel 22
spe 22
tering 22
text 22
tu 22
uality 22
uate 22
uish 22
unction 22
va 22
west 22
where 22
wired 22
▁125 22
▁15, 22
▁2001, 22
▁24- 22
▁38 22
▁98 22
▁Arch 22
▁Ast 22
▁BC 22
▁Band 22
▁Bi 22
▁Bruno 22
▁Caribbean 22
▁Climate 22
▁DARPA 22
▁Education 22
▁Fifty 22
▁Freud 22
▁Govern 22
▁IT 22
▁Jazeera 22
▁Jersey 22
▁Jud 22
▁Julia 22
▁Kar 22
▁Katrina 22
▁Lagos 22
▁Less 22
▁Lesters 22
▁Liberia 22
▁Looking 22
▁Luther 22
▁Mama 22
▁Mart 22
▁NGO 22
▁Net 22
▁Nike 22
▁Norman 22
▁Ok 22
▁Point 22
▁Pri 22
▁Prote 22
▁SARS 22
▁Sher 22
▁Skype 22
▁Sony 22
▁Start 22
▁Su 22
▁Such 22
▁Sum 22
▁Supreme 22
▁Theater 22
▁Toronto 22
▁UV 22
▁Venus 22
▁Work 22
▁acceptable 22
▁accountable 22
▁acoustic 22
▁advent 22
▁alloc 22
▁apes 22
▁assembled 22
▁association 22
▁assuming 22
▁asteroids 22
▁attrib 22
▁attributes 22
▁aunt 22
▁bananas 22
▁bankers 22
▁basket 22
▁beginnings 22
▁biotechnology 22
▁blows 22
▁brutal 22
▁celebr 22
▁census 22
▁charcoal 22
▁checklist 22
▁circuitry 22
▁civilian 22
▁clapping 22
▁clar 22
▁colorful 22
▁comb 22
▁commodities 22
▁compact 22
▁composer 22
▁compressed 22
▁consideration 22
▁consistently 22
▁contamin 22
▁contempl 22
▁continuum 22
▁conver 22
▁convincing 22
▁corporation 22
▁corrupt 22
▁cues 22
▁curs 22
▁delusion 22
▁desertification 22
▁diagnose 22
▁discussed 22
▁disruptive 22
▁dodo 22
▁dom 22
▁dynam 22
▁earned 22
▁enabling 22
▁encour 22
▁envelope 22
▁episode 22
▁examine 22
▁exceed 22
▁exerc 22
▁extrem 22
▁fame 22
▁filmed 22
▁fixing 22
▁fro 22
▁fuzzy 22
▁gecko 22
▁gentle 22
▁gifts 22
▁globalized 22
▁grief 22
▁guitar 22
▁halls 22
▁hammer 22
▁harsh 22
▁heroic 22
▁hor 22
▁hotels 22
▁huh 22
▁hun 22
▁hypoth 22
▁i 22
▁icons 22
▁ignorance 22
▁immig 22
▁impaired 22
▁imperative 22
▁impress 22
▁improvisation 22
▁improvise 22
▁incidentally 22
▁inclusive 22
▁inspir 22
▁instances 22
▁insulin 22
▁insurg 22
▁kilometer 22
▁kin 22
▁laughter 22
▁lined 22
▁maintaining 22
▁mand 22
▁maxim 22
▁melody 22
▁memor 22
▁metaphors 22
▁misunderst 22
▁morally 22
▁moth 22
▁mustard 22
▁needles 22
▁negotiations 22
▁noticing 22
▁nud 22
▁numb 22
▁operator 22
▁orientation 22
▁orphan 22
▁orphanage 22
▁owns 22
▁oyster 22
▁padd 22
▁partial 22
▁participating 22
▁pathogens 22
▁patience 22
▁pilots 22
▁prim 22
▁pristine 22
▁producer 22
▁pron 22
▁prosth 22
▁prosthetic 22
▁prototyping 22
▁psychiatric 22
▁puppet 22
▁quar 22
▁qui 22
▁rainforests 22
▁randomness 22
▁reader 22
▁recept 22
▁refined 22
▁relatives 22
▁reserv 22
▁resolved 22
▁respected 22
▁retina 22
▁returning 22
▁schooling 22
▁shield 22
▁shipped 22
▁sketches 22
▁slave 22
▁spills 22
▁squeez 22
▁squeeze 22
▁statistically 22
▁statue 22
▁stealing 22
▁stimulate 22
▁submitted 22
▁subsid 22
▁supports 22
▁surplus 22
▁surveys 22
▁suspicious 22
▁swallow 22
▁symphony 22
▁taboo 22
▁tales 22
▁tastes 22
▁telec 22
▁tennis 22
▁testosterone 22
▁textile 22
▁thorough 22
▁throws 22
▁tightly 22
▁tim 22
▁titles 22
▁trailer 22
▁transl 22
▁trap 22
▁treaty 22
▁triangles 22
▁tribal 22
▁triple 22
▁tro 22
▁underg 22
▁undergraduate 22
▁update 22
▁vapor 22
▁varieties 22
▁vend 22
▁vocal 22
▁voluntary 22
▁votes 22
▁withd 22
▁worldview 22
▁wrest 22
00, 21
An 21
EC 21
ES 21
For 21
Great 21
ID 21
Just 21
Mom 21
SE 21
Star 21
acting 21
ami 21
appiness 21
arium 21
ashing 21
assy 21
asting 21
aug 21
ause 21
bly 21
cially 21
ef 21
efficient 21
enger 21
ensed 21
etically 21
ference 21
field 21
ford 21
fort 21
har 21
hed 21
hot 21
iance 21
icious 21
iction 21
inc 21
ird 21
istan 21
ita 21
itor 21
iven 21
mine 21
oids 21
olt 21
omics 21
oning 21
orous 21
osaurus 21
osphere 21
otent 21
ounce 21
ounted 21
oup 21
rated 21
resolution 21
rum 21
rup 21
rupted 21
sc 21
si 21
thing 21
tru 21
uce 21
uel 21
ule 21
ulf 21
umn 21
usion 21
vation 21
violent 21
with 21
▁1900 21
▁1990, 21
▁300,000 21
▁34 21
▁450 21
▁AV 21
▁Ac 21
▁Alabama 21
▁Argentina 21
▁BMW 21
▁BP 21
▁Bond 21
▁Caltech 21
▁Cancer 21
▁Carnegie 21
▁Cassini 21
▁Coll 21
▁Creat 21
▁Dallas 21
▁Dave 21
▁Dead 21
▁Deep 21
▁Detroit 21
▁Easter 21
▁Elizabeth 21
▁Energy 21
▁Expl 21
▁Falcon 21
▁Fall 21
▁Flickr 21
▁Free 21
▁Freedom 21
▁Gener 21
▁Ha 21
▁Higgs 21
▁Hind 21
▁Hopefully 21
▁Joel 21
▁Ju 21
▁Kingdom 21
▁Les 21
▁MM 21
▁Max 21
▁Mod 21
▁Moreover 21
▁Moses 21
▁Mountains 21
▁Nepal 21
▁Norm 21
▁Odys 21
▁Orleans 21
▁Portugal 21
▁Prot 21
▁Qatar 21
▁Recently 21
▁Rose 21
▁Sad 21
▁Siberia 21
▁Students 21
▁Tennessee 21
▁Tor 21
▁Tower 21
▁Truth 21
▁Tw 21
▁UN 21
▁Ur 21
▁Village 21
▁Warren 21
▁academics 21
▁accelerated 21
▁acceleration 21
▁accent 21
▁accounting 21
▁advoc 21
▁advocate 21
▁affairs 21
▁algebra 21
▁annoying 21
▁anticip 21
▁aqu 21
▁asthma 21
▁atrazine 21
▁automobiles 21
▁availability 21
▁axes 21
▁backs 21
▁bamboo 21
▁barrels 21
▁beaches 21
▁blade 21
▁breakthroughs 21
▁bro 21
▁bulk 21
▁buys 21
▁cane 21
▁capacities 21
▁carrot 21
▁cens 21
▁ceram 21
▁chapters 21
▁cocktail 21
▁col 21
▁compli 21
▁concl 21
▁conclusions 21
▁conditioning 21
▁constitu 21
▁constr 21
▁consuming 21
▁contest 21
▁cookie 21
▁cooperate 21
▁crawling 21
▁cree 21
▁criminals 21
▁culturally 21
▁cycl 21
▁dar 21
▁deconstru 21
▁deforestation 21
▁delet 21
▁derived 21
▁desires 21
▁destructive 21
▁determination 21
▁developmental 21
▁dictionaries 21
▁differ 21
▁dimin 21
▁disconnect 21
▁distorted 21
▁donated 21
▁donations 21
▁draws 21
▁drowning 21
▁duration 21
▁eager 21
▁envy 21
▁enzyme 21
▁es 21
▁eth 21
▁evaluate 21
▁exch 21
▁exquisite 21
▁feas 21
▁financially 21
▁fingertips 21
▁fired 21
▁firmly 21
▁flap 21
▁flex 21
▁flour 21
▁followers 21
▁footprints 21
▁foreground 21
▁fractal 21
▁freeze 21
▁frustrating 21
▁fundraising 21
▁gaze 21
▁geese 21
▁germs 21
▁gh 21
▁gla 21
▁gratitude 21
▁graz 21
▁guilt 21
▁gy 21
▁habitats 21
▁hacking 21
▁handy 21
▁heel 21
▁hobby 21
▁hut 21
▁ideology 21
▁illustr 21
▁imm 21
▁independently 21
▁indication 21
▁ing 21
▁inj 21
▁injection 21
▁inn 21
▁intersection 21
▁interviewing 21
▁intrinsically 21
▁introducing 21
▁inviting 21
▁jar 21
▁jeans 21
▁jungle 21
▁knees 21
▁lamb 21
▁launching 21
▁lenses 21
▁lithium 21
▁lob 21
▁mac 21
▁macro 21
▁malnutrition 21
▁manifestation 21
▁marginal 21
▁meaningless 21
▁meets 21
▁memorial 21
▁midnight 21
▁navig 21
▁negoti 21
▁negotiation 21
▁observer 21
▁officers 21
▁onstage 21
▁operated 21
▁optimal 21
▁pervasive 21
▁pessim 21
▁philanthrop 21
▁pione 21
▁pizza 21
▁playground 21
▁poles 21
▁poses 21
▁presc 21
▁prescription 21
▁pressing 21
▁prev 21
▁preventable 21
▁prospect 21
▁publication 21
▁purely 21
▁reads 21
▁rear 21
▁recycle 21
▁reflex 21
▁regimes 21
▁regulate 21
▁releasing 21
▁relevance 21
▁remotely 21
▁resort 21
▁rigid 21
▁romance 21
▁rotating 21
▁rug 21
▁rul 21
▁salmon 21
▁sche 21
▁sensible 21
▁sessions 21
▁shells 21
▁skip 21
▁slept 21
▁slogan 21
▁smiles 21
▁spar 21
▁spite 21
▁steak 21
▁steer 21
▁stereo 21
▁sterile 21
▁sticky 21
▁struggled 21
▁suburban 21
▁succ 21
▁superior 21
▁surroundings 21
▁survivors 21
▁swap 21
▁swing 21
▁synthesis 21
▁synthesize 21
▁tips 21
▁tourist 21
▁towers 21
▁toxins 21
▁transistors 21
▁tropical 21
▁tunas 21
▁variability 21
▁vents 21
▁verbal 21
▁victory 21
▁volumes 21
▁voyage 21
▁wasting 21
▁weekends 21
▁whist 21
▁whistle 21
▁whistling 21
▁worthwhile 21
▁wreck 21
▁writes 21
These 20
agina 20
ago 20
alk 20
alking 20
alled 20
anch 20
aneous 20
aping 20
arded 20
asking 20
avi 20
awl 20
bat 20
bow 20
but 20
cc 20
cel 20
chan 20
change 20
ching 20
ession 20
found 20
gged 20
great 20
growing 20
hist 20
hor 20
hs 20
iac 20
iculture 20
iel 20
ients 20
ifications 20
iller 20
industrial 20
inn 20
intuitive 20
issions 20
jan 20
jected 20
lar 20
lets 20
los 20
mp 20
ocr 20
odies 20
ogram 20
oirs 20
oled 20
orth 20
ortion 20
overs 20
pat 20
percent 20
phones 20
produ 20
prof 20
ras 20
ream 20
rect 20
ressing 20
rest 20
rupt 20
section 20
ship 20
tel 20
ulsive 20
ulted 20
umbling 20
unes 20
wa 20
wall 20
▁110 20
▁16, 20
▁200- 20
▁2006 20
▁40- 20
▁7,000 20
▁74 20
▁Allen 20
▁Ash 20
▁CEOs 20
▁Cat 20
▁Clearly 20
▁Costa 20
▁Digital 20
▁Ec 20
▁Elect 20
▁Emma 20
▁Enceladus 20
▁End 20
▁Europa 20
▁Gal 20
▁Galileo 20
▁Gar 20
▁Georgia 20
▁Got 20
▁Han 20
▁Hitler 20
▁Hol 20
▁IQ 20
▁Id 20
▁Intel 20
▁Ivan 20
▁Jordan 20
▁Keith 20
▁Kh 20
▁Lakota 20
▁Lawrence 20
▁Lebanon 20
▁Len 20
▁Lesterland 20
▁Lib 20
▁Lots 20
▁MB 20
▁Maldives 20
▁Medicine 20
▁Ministry 20
▁Nairobi 20
▁Neanderthal 20
▁Nice 20
▁Nicole 20
▁Often 20
▁Old 20
▁Pass 20
▁Pen 20
▁RG 20
▁Ram 20
▁Ric 20
▁Roger 20
▁Sand 20
▁Scottish 20
▁Simple 20
▁Sl 20
▁Small 20
▁Sol 20
▁Sweeney 20
▁Tam 20
▁Too 20
▁Using 20
▁Vol 20
▁Whoa 20
▁Windows 20
▁Yves 20
▁accidentally 20
▁acknowled 20
▁advantages 20
▁advis 20
▁aer 20
▁aerial 20
▁antenna 20
▁appliances 20
▁appreciated 20
▁archive 20
▁arg 20
▁aspir 20
▁astronaut 20
▁astronomical 20
▁auditorium 20
▁awake 20
▁banjo 20
▁basketball 20
▁beast 20
▁biases 20
▁billboard 20
▁bioluminescent 20
▁bitter 20
▁bulbs 20
▁bunk 20
▁cabinet 20
▁calendar 20
▁campaigns 20
▁carcin 20
▁categor 20
▁certified 20
▁charm 20
▁charter 20
▁chron 20
▁chunk 20
▁claws 20
▁cliffs 20
▁coding 20
▁collaborators 20
▁complain 20
▁confirm 20
▁conservatives 20
▁consum 20
▁conv 20
▁coordinate 20
▁crashed 20
▁crit 20
▁critic 20
▁criticized 20
▁crochet 20
▁cue 20
▁cul 20
▁cultivate 20
▁cyn 20
▁declining 20
▁demanding 20
▁demographics 20
▁deny 20
▁depart 20
▁develops 20
▁differential 20
▁directors 20
▁disabilities 20
▁disappointed 20
▁distr 20
▁distribute 20
▁divorce 20
▁doll 20
▁domin 20
▁donation 20
▁dorm 20
▁dragged 20
▁drilling 20
▁dug 20
▁dwell 20
▁educating 20
▁embodied 20
▁embry 20
▁embryonic 20
▁empir 20
▁enlightened 20
▁entity 20
▁eradicated 20
▁expend 20
▁explorers 20
▁expressing 20
▁fatty 20
▁fee 20
▁filmmaker 20
▁finite 20
▁fission 20
▁flick 20
▁fluctuations 20
▁forbid 20
▁fri 20
▁ft 20
▁geographic 20
▁germ 20
▁glow 20
▁goodness 20
▁hatch 20
▁hem 20
▁hi 20
▁historian 20
▁homosex 20
▁horrific 20
▁iceberg 20
▁ident 20
▁imper 20
▁indoors 20
▁insert 20
▁integrating 20
▁intend 20
▁intent 20
▁intern 20
▁invade 20
▁inventors 20
▁involvement 20
▁janitor 20
▁joining 20
▁kilograms 20
▁lev 20
▁liberty 20
▁literary 20
▁loaded 20
▁manages 20
▁manufacturer 20
▁matching 20
▁meantime 20
▁medications 20
▁mentors 20
▁merg 20
▁metabolic 20
▁ministers 20
▁missions 20
▁mosque 20
▁newly 20
▁notebook 20
▁occupation 20
▁orch 20
▁outdoor 20
▁ozone 20
▁painter 20
▁paradise 20
▁passions 20
▁paths 20
▁peel 20
▁periodic 20
▁pesticides 20
▁piles 20
▁placing 20
▁pond 20
▁poorer 20
▁projections 20
▁protocells 20
▁que 20
▁quietly 20
▁quo 20
▁rage 20
▁ranging 20
▁redefine 20
▁referred 20
▁register 20
▁reli 20
▁render 20
▁requests 20
▁resonance 20
▁reveals 20
▁reviews 20
▁rides 20
▁ridicule 20
▁routinely 20
▁ruin 20
▁samp 20
▁seasons 20
▁seriousness 20
▁siblings 20
▁similarities 20
▁singer 20
▁slaves 20
▁sober 20
▁souls 20
▁spades 20
▁squared 20
▁statistic 20
▁stir 20
▁sty 20
▁submersible 20
▁sucked 20
▁sufficient 20
▁supercomputer 20
▁surr 20
▁syring 20
▁tails 20
▁technolog 20
▁telephones 20
▁therm 20
▁thirdly 20
▁toilets 20
▁toll 20
▁traditionally 20
▁transistor 20
▁tread 20
▁tum 20
▁twenty 20
▁uh 20
▁uncover 20
▁unders 20
▁unintended 20
▁unstable 20
▁uranium 20
▁valve 20
▁ventil 20
▁viewer 20
▁viewing 20
▁virgin 20
▁wage 20
▁wander 20
▁watt 20
▁weekly 20
▁wonders 20
▁wounded 20
Mr 19
OL 19
She 19
abyte 19
abytes 19
aders 19
adle 19
anged 19
annah 19
anny 19
arge 19
arts 19
asion 19
atin 19
ava 19
avers 19
bee 19
chem 19
clear 19
col 19
consum 19
controlled 19
diving 19
encing 19
ependence 19
erence 19
ether 19
flow 19
gling 19
ground 19
growth 19
hum 19
ican 19
idents 19
ieth 19
iments 19
inated 19
iqu 19
istant 19
itated 19
itis 19
leg 19
lif 19
lined 19
list 19
lit 19
lived 19
lli 19
mates 19
mented 19
mi 19
month 19
obic 19
oded 19
oise 19
okes 19
oscope 19
otive 19
performing 19
plet 19
quarters 19
ressive 19
ribed 19
rich 19
rob 19
rote 19
run 19
sey 19
specific 19
stage 19
then 19
try 19
tw 19
uclear 19
uct 19
uing 19
uster 19
verbal 19
vin 19
wers 19
write 19
ym 19
your 19
▁- 19
▁14- 19
▁189 19
▁202 19
▁250,000 19
▁9/11, 19
▁AG 19
▁Agency 19
▁Ages 19
▁Anything 19
▁Arizona 19
▁Ball 19
▁Barack 19
▁Barry 19
▁Bruce 19
▁Cities 19
▁Collider 19
▁Commun 19
▁Company 19
▁Computer 19
▁Cong 19
▁Cooper 19
▁Cr 19
▁Cro 19
▁Del 19
▁Democratic 19
▁ED 19
▁Early 19
▁Emb 19
▁Emily 19
▁Es 19
▁Exactly 19
▁Fast 19
▁Fly 19
▁Gordon 19
▁Ground 19
▁Grow 19
▁Hadron 19
▁Head 19
▁Himalayas 19
▁Hur 19
▁IMF 19
▁Incredible 19
▁Jac 19
▁Jeopardy 19
▁Kepler 19
▁Land 19
▁Las 19
▁Mah 19
▁Mall 19
▁Mediterranean 19
▁Mind 19
▁Mus 19
▁Off 19
▁Palestine 19
▁Panbanisha 19
▁Person 19
▁Peru 19
▁Psych 19
▁RSW 19
▁Rel 19
▁Road 19
▁Romo 19
▁Run 19
▁ST 19
▁Scratch 19
▁Self 19
▁Senate 19
▁Side 19
▁Slow 19
▁Sold 19
▁Somalia 19
▁Stirling 19
▁Stories 19
▁Swedish 19
▁TEDx 19
▁Titanic 19
▁Turkish 19
▁Unlike 19
▁Vegas 19
▁Whole 19
▁Witness 19
▁Worldchanging 19
▁Yorker 19
▁accidental 19
▁accommod 19
▁accused 19
▁advers 19
▁agrees 19
▁album 19
▁alongside 19
▁alpha 19
▁amateurs 19
▁analytical 19
▁angels 19
▁antibiotic 19
▁appearing 19
▁appropriately 19
▁arbitrary 19
▁arc 19
▁arithmetic 19
▁articul 19
▁aspirations 19
▁assistant 19
▁aud 19
▁auditory 19
▁autistic 19
▁baker 19
▁bands 19
▁barg 19
▁bel 19
▁benign 19
▁bent 19
▁boiling 19
▁bombard 19
▁breasts 19
▁buzz 19
▁cad 19
▁cage 19
▁camels 19
▁carpent 19
▁cartoonist 19
▁cathedral 19
▁cement 19
▁centimeter 19
▁chord 19
▁cigarette 19
▁citizenship 19
▁cleaner 19
▁cloned 19
▁coincidence 19
▁colonial 19
▁commentary 19
▁compar 19
▁complained 19
▁complet 19
▁conceive 19
▁conducting 19
▁consists 19
▁conspiracy 19
▁contracts 19
▁convergence 19
▁cooler 19
▁correlated 19
▁courts 19
▁credible 19
▁crystal 19
▁cumulative 19
▁currents 19
▁curved 19
▁databases 19
▁defeat 19
▁depths 19
▁deriv 19
▁descriptions 19
▁desp 19
▁developer 19
▁developers 19
▁dict 19
▁digits 19
▁dim 19
▁disadvant 19
▁dissem 19
▁distinctive 19
▁doodling 19
▁downstairs 19
▁drinks 19
▁drown 19
▁dune 19
▁dunes 19
▁dysfunction 19
▁ease 19
▁editing 19
▁elites 19
▁empires 19
▁employed 19
▁enl 19
▁equipped 19
▁erosion 19
▁essay 19
▁evapor 19
▁evident 19
▁excerpt 19
▁excl 19
▁exclus 19
▁exclusive 19
▁existential 19
▁exit 19
▁expans 19
▁experimenting 19
▁explicitly 19
▁explo 19
▁extends 19
▁eyeb 19
▁faint 19
▁fertility 19
▁filmmakers 19
▁fiscal 19
▁fli 19
▁forehead 19
▁forg 19
▁grabs 19
▁grip 19
▁guidance 19
▁gur 19
▁hallway 19
▁headaches 19
▁heter 19
▁holiday 19
▁hos 19
▁imaginary 19
▁implanted 19
▁implication 19
▁indoor 19
▁industrialized 19
▁inefficient 19
▁infinity 19
▁inputs 19
▁insisted 19
▁instincts 19
▁integr 19
▁interference 19
▁intervene 19
▁intimid 19
▁irrelevant 19
▁irrigation 19
▁issued 19
▁ke 19
▁keen 19
▁lasted 19
▁lava 19
▁legend 19
▁legisl 19
▁legitim 19
▁liberals 19
▁libert 19
▁lied 19
▁linguistic 19
▁liter 19
▁livelihood 19
▁logging 19
▁magnets 19
▁mammogram 19
▁mantis 19
▁margin 19
▁measurable 19
▁meditation 19
▁melted 19
▁merit 19
▁milit 19
▁mini 19
▁monument 19
▁nan 19
▁nerd 19
▁ninth 19
▁notation 19
▁obl 19
▁oiled 19
▁olive 19
▁opposition 19
▁optimize 19
▁orb 19
▁overlap 19
▁oxide 19
▁patri 19
▁pee 19
▁performers 19
▁phrases 19
▁pirate 19
▁policing 19
▁polymer 19
▁poorly 19
▁popped 19
▁pops 19
▁posture 19
▁pregnancy 19
▁prevents 19
▁primates 19
▁prints 19
▁prisons 19
▁prizes 19
▁pushes 19
▁quantitative 19
▁races 19
▁railroad 19
▁recipes 19
▁relates 19
▁repet 19
▁respiratory 19
▁retired 19
▁retre 19
▁rightly 19
▁riot 19
▁rooft 19
▁rooted 19
▁scaffolding 19
▁scarce 19
▁scroll 19
▁sealed 19
▁seiz 19
▁selective 19
▁settle 19
▁settlement 19
▁shallow 19
▁shrinking 19
▁snake 19
▁snap 19
▁sounded 19
▁sour 19
▁spends 19
▁sponsor 19
▁stabilize 19
▁stated 19
▁stimulus 19
▁stressed 19
▁stretched 19
▁strictly 19
▁stumbled 19
▁subjective 19
▁suggestions 19
▁sympathy 19
▁synesthesia 19
▁tagging 19
▁taller 19
▁tattoos 19
▁temptation 19
▁ther 19
▁tiger 19
▁tipping 19
▁tract 19
▁trail 19
▁trunk 19
▁tuberculosis 19
▁twin 19
▁unch 19
▁unexpl 19
▁unfold 19
▁united 19
▁unve 19
▁utility 19
▁va 19
▁veget 19
▁ven 19
▁verge 19
▁virt 19
▁visitors 19
▁wages 19
▁warrior 19
▁widespread 19
▁willingness 19
▁wipe 19
▁wiring 19
▁zoo 19
12 18
800 18
99 18
Ar 18
IT 18
Sook 18
abilities 18
achers 18
afe 18
agers 18
aha 18
ailing 18
aim 18
alog 18
amous 18
arter 18
assic 18
assion 18
ateral 18
atively 18
attering 18
aul 18
awn 18
bra 18
built 18
centric 18
ciously 18
cles 18
ctu 18
di 18
dire 18
dis 18
edia 18
enf 18
ensity 18
enza 18
ernity 18
esth 18
etr 18
fulness 18
gar 18
headed 18
hh 18
home 18
icing 18
ifer 18
ifteen 18
igation 18
ission 18
izz 18
keepers 18
lected 18
look 18
mail 18
mas 18
meter 18
mis 18
natural 18
ocks 18
oler 18
opters 18
organ 18
organized 18
otal 18
oter 18
oting 18
ouched 18
oulder 18
ounding 18
pin 18
pool 18
ports 18
py 18
rench 18
rick 18
rive 18
see 18
sharing 18
shirt 18
social 18
sol 18
style 18
that 18
ube 18
ueling 18
unks 18
urally 18
urb 18
uro 18
uter 18
velop 18
while 18
working 18
you 18
yst 18
yt 18
zes 18
▁"] 18
▁'30 18
▁1.2 18
▁13. 18
▁17, 18
▁18, 18
▁18- 18
▁186 18
▁188 18
▁1940 18
▁2,500 18
▁2003 18
▁2004. 18
▁86 18
▁Acc 18
▁Acumen 18
▁Already 18
▁Andy 18
▁Armstrong 18
▁Bertie 18
▁Budd 18
▁Build 18
▁Building 18
▁CIA 18
▁CNN 18
▁Certainly 18
▁Colomb 18
▁Conference 18
▁Connecticut 18
▁Cross 18
▁Despite 18
▁Doesn 18
▁Domin 18
▁Doug 18
▁Duke 18
▁Effect 18
▁Either 18
▁Engine 18
▁Europeans 18
▁Excellent 18
▁FOXO 18
▁Farm 18
▁Fire 18
▁Fox 18
▁Galois 18
▁Greece 18
▁Grey 18
▁Guardian 18
▁Haw 18
▁Help 18
▁Hyun 18
▁Ide 18
▁Iraqi 18
▁Jackson 18
▁Kab 18
▁Khan 18
▁LEDs 18
▁Later 18
▁Left 18
▁Leg 18
▁Libya 18
▁MR 18
▁Mag 18
▁Mand 18
▁Margaret 18
▁Maria 18
▁Marx 18
▁Mau 18
▁Mur 18
▁NO 18
▁Network 18
▁Nik 18
▁Northwest 18
▁Oregon 18
▁Pan 18
▁Philippines 18
▁Pink 18
▁Quite 18
▁Rod 18
▁Saint 18
▁Sar 18
▁Sn 18
▁Soon 18
▁Sri 18
▁TB 18
▁Taiwan 18
▁Tas 18
▁Town 18
▁Treat 18
▁Turk 18
▁Turn 18
▁Usually 18
▁Vietnamese 18
▁Vinci 18
▁WHO 18
▁Walk 18
▁Williams 18
▁YR 18
▁Yellow 18
▁["' 18
▁abalone 18
▁absorbed 18
▁acceptance 18
▁accepting 18
▁admire 18
▁adventures 18
▁aesthetics 18
▁agg 18
▁agnostic 18
▁altruism 18
▁ancestry 18
▁angel 18
▁announcement 18
▁annoy 18
▁anom 18
▁antibodies 18
▁appe 18
▁appealing 18
▁applause 18
▁apprent 18
▁approval 18
▁assigned 18
▁assist 18
▁asymmet 18
▁athletes 18
▁attempting 18
▁augmented 18
▁auto 18
▁automatic 18
▁batt 18
▁bikes 18
▁blob 18
▁broadly 18
▁brut 18
▁cafe 18
▁calculator 18
▁captain 18
▁carve 18
▁catalyst 18
▁champion 18
▁chewing 18
▁circ 18
▁clash 18
▁cleaned 18
▁collapses 18
▁combinations 18
▁commissioned 18
▁compet 18
▁competitors 18
▁complaining 18
▁comput 18
▁conserve 18
▁constit 18
▁constrained 18
▁containers 18
▁continuity 18
▁contributions 18
▁cooked 18
▁cos 18
▁county 18
▁crabs 18
▁creators 18
▁criticism 18
▁cro 18
▁cult 18
▁curator 18
▁decentralized 18
▁defines 18
▁deleg 18
▁deliberately 18
▁delicate 18
▁digitize 18
▁dining 18
▁diplom 18
▁displaced 18
▁dividing 18
▁domest 18
▁drama 18
▁drif 18
▁dumped 18
▁dwar 18
▁echo 18
▁ecst 18
▁editors 18
▁effectiveness 18
▁emergent 18
▁emphasis 18
▁enzymes 18
▁epidemi 18
▁escaped 18
▁establishment 18
▁estrogen 18
▁execution 18
▁exhaust 18
▁exhausted 18
▁expeditions 18
▁experimentation 18
▁explode 18
▁ext 18
▁extending 18
▁ey 18
▁fees 18
▁fib 18
▁fighters 18
▁flags 18
▁flock 18
▁flooding 18
▁focuses 18
▁forb 18
▁fount 18
▁fulfilling 18
▁funeral 18
▁fungus 18
▁generator 18
▁gently 18
▁geometric 18
▁gro 18
▁guidelines 18
▁harvesting 18
▁heartbeat 18
▁heated 18
▁highways 18
▁hop 18
▁hull 18
▁hunch 18
▁hurricane 18
▁husbands 18
▁iPad 18
▁idiot 18
▁illumin 18
▁imbalance 18
▁immensely 18
▁imperfect 18
▁impl 18
▁impose 18
▁improves 18
▁improvis 18
▁inadequate 18
▁incremental 18
▁ingenuity 18
▁inhabit 18
▁innovators 18
▁invaded 18
▁ironic 18
▁jacket 18
▁journalism 18
▁judges 18
▁kings 18
▁landm 18
▁lane 18
▁leisure 18
▁lemon 18
▁lingu 18
▁lining 18
▁listed 18
▁ly 18
▁lymph 18
▁mama 18
▁mash 18
▁massively 18
▁merch 18
▁methodology 18
▁microwave 18
▁migrate 18
▁millennium 18
▁missile 18
▁modified 18
▁modular 18
▁moms 18
▁mount 18
▁multinational 18
▁murdered 18
▁museums 18
▁myths 18
▁noble 18
▁obt 18
▁obtained 18
▁optics 18
▁outrageous 18
▁overhe 18
▁pa 18
▁partially 18
▁peaks 18
▁perfection 18
▁permanently 18
▁perpetr 18
▁pies 18
▁pitches 18
▁pity 18
▁piv 18
▁plotted 18
▁poets 18
▁populated 18
▁posed 18
▁poured 18
▁practiced 18
▁presentations 18
▁primordial 18
▁pros 18
▁provision 18
▁publisher 18
▁puppy 18
▁quad 18
▁qualified 18
▁questioning 18
▁rang 18
▁rating 18
▁ray 18
▁reacting 18
▁rearr 18
▁rebell 18
▁reclaim 18
▁recomm 18
▁recre 18
▁recruit 18
▁refriger 18
▁rehears 18
▁reinf 18
▁relaxed 18
▁reluct 18
▁rendered 18
▁rented 18
▁repe 18
▁rever 18
▁ruled 18
▁sanitary 18
▁satisfied 18
▁satisfy 18
▁scaffold 18
▁scare 18
▁scholarship 18
▁scripts 18
▁scuba 18
▁seafood 18
▁searches 18
▁shout 18
▁shr 18
▁simpl 18
▁simplistic 18
▁simulated 18
▁singular 18
▁skies 18
▁slices 18
▁smartest 18
▁smug 18
▁soy 18
▁specialists 18
▁sque 18
▁starving 18
▁steering 18
▁stepping 18
▁stewards 18
▁strang 18
▁stripped 18
▁submarine 18
▁suburb 18
▁sums 18
▁supern 18
▁swamp 18
▁swear 18
▁symptom 18
▁tadp 18
▁taxi 18
▁technicians 18
▁tenth 18
▁terminal 18
▁thirds 18
▁threatening 18
▁tide 18
▁til 18
▁timber 18
▁tink 18
▁tort 18
▁towel 18
▁transferred 18
▁translating 18
▁tut 18
▁ultrasound 18
▁unacceptable 18
▁unequal 18
▁unity 18
▁unpredictable 18
▁urg 18
▁urgency 18
▁utop 18
▁vague 18
▁vector 18
▁veil 18
▁volcano 18
▁warn 18
▁waterfall 18
▁wip 18
-' 17
0,000 17
300 17
70 17
AC 17
Bl 17
Cl 17
Day 17
Ex 17
IS 17
Man 17
Of 17
Stop 17
Your 17
ache 17
acre 17
actic 17
ader 17
agement 17
arms 17
arse 17
atan 17
aur 17
awatts 17
ba 17
bags 17
beat 17
berry 17
bro 17
bye 17
child 17
cient 17
cul 17
dog 17
eline 17
emp 17
erent 17
erg 17
erto 17
ervation 17
estim 17
formed 17
friendly 17
generated 17
geon 17
green 17
haired 17
hold 17
hole 17
houses 17
iche 17
icide 17
idding 17
ife 17
ili 17
illion 17
inity 17
iotic 17
ipped 17
irable 17
isa 17
istance 17
itory 17
ittle 17
iver 17
keeping 17
kel 17
lapping 17
lation 17
licity 17
night 17
obi 17
ocking 17
odd 17
olve 17
ometer 17
onder 17
opl 17
ounced 17
oys 17
pective 17
pen 17
pos 17
put 17
rame 17
rem 17
rence 17
repl 17
ried 17
rock 17
rove 17
screen 17
sia 17
tain 17
tre 17
two 17
type 17
uding 17
una 17
urable 17
uration 17
urp 17
usive 17
venth 17
verse 17
week 17
yd 17
yes 17
▁1,100 17
▁1994, 17
▁1995, 17
▁1997, 17
▁2.0 17
▁20. 17
▁2002, 17
▁2009 17
▁2020. 17
▁25, 17
▁47 17
▁5. 17
▁500,000 17
▁73 17
▁80- 17
▁AI 17
▁Add 17
▁Among 17
▁Archie 17
▁Arts 17
▁Av 17
▁Award 17
▁Beaut 17
▁Benki 17
▁Between 17
▁Bio 17
▁Bono 17
▁Cir 17
▁Comput 17
▁Cur 17
▁Cut 17
▁DG 17
▁DJ 17
▁DP 17
▁Danish 17
▁Death 17
▁Dep 17
▁Depression 17
▁Des 17
▁Doctor 17
▁Dubai 17
▁Evan 17
▁Eve 17
▁Extreme 17
▁Fab 17
▁Fair 17
▁Forget 17
▁Ger 17
▁Girls 17
▁Goog 17
▁Grace 17
▁Group 17
▁Hawking 17
▁Hel 17
▁Hold 17
▁Holy 17
▁Home 17
▁Hudson 17
▁IDEO 17
▁Je 17
▁Jo 17
▁Julian 17
▁Kind 17
▁League 17
▁Learning 17
▁Legos 17
▁Magic 17
▁Mahmoud 17
▁Millennium 17
▁Miller 17
▁Mir 17
▁Mississippi 17
▁Mola 17
▁Move 17
▁Murray 17
▁NM 17
▁Nevada 17
▁Night 17
▁Nine 17
▁Oliver 17
▁Others 17
▁Pakistani 17
▁Paulo 17
▁Pentagon 17
▁Perfect 17
▁Philadelphia 17
▁Pier 17
▁Pot 17
▁Rachel 17
▁Ron 17
▁Roots 17
▁Roy 17
▁SA 17
▁Scientists 17
▁Sergio 17
▁Shoots 17
▁Short 17
▁Sim 17
▁Sobule 17
▁Stay 17
▁TEDster 17
▁TS 17
▁Text 17
▁Thirty 17
▁UCLA 17
▁Underst 17
▁Venter 17
▁Virtual 17
▁Von 17
▁Welcome 17
▁Wide 17
▁Wil 17
▁Working 17
▁Ze 17
▁accord 17
▁accumulation 17
▁acqu 17
▁adap 17
▁addicted 17
▁adj 17
▁adjacent 17
▁advertise 17
▁agile 17
▁airports 17
▁altogether 17
▁ambiguous 17
▁animations 17
▁antiangiogenic 17
▁anticipated 17
▁anxious 17
▁aph 17
▁apparatus 17
▁apparent 17
▁appet 17
▁archae 17
▁arrangement 17
▁arteries 17
▁artery 17
▁articulate 17
▁ast 17
▁atheists 17
▁attempted 17
▁attribute 17
▁auction 17
▁aura 17
▁automated 17
▁bass 17
▁bats 17
▁beans 17
▁belonging 17
▁beloved 17
▁biased 17
▁bicycles 17
▁biotech 17
▁bleeding 17
▁blobs 17
▁blocking 17
▁boil 17
▁bombing 17
▁bookstore 17
▁booms 17
▁bothered 17
▁bronze 17
▁calib 17
▁cam 17
▁capsule 17
▁carbonate 17
▁casualties 17
▁cath 17
▁cease 17
▁celebrating 17
▁certificate 17
▁circum 17
▁clap 17
▁cognition 17
▁coinc 17
▁collabor 17
▁collaborator 17
▁committee 17
▁communal 17
▁compass 17
▁comprehensive 17
▁conception 17
▁conferences 17
▁contacts 17
▁contagious 17
▁contaminated 17
▁contexts 17
▁contribut 17
▁cores 17
▁correl 17
▁corresponding 17
▁cosmology 17
▁couples 17
▁courageous 17
▁crosses 17
▁crowded 17
▁cub 17
▁cubic 17
▁dances 17
▁dece 17
▁decipher 17
▁degradation 17
▁delete 17
▁depended 17
▁depict 17
▁deter 17
▁diagrams 17
▁disg 17
▁div 17
▁divergence 17
▁dominance 17
▁dood 17
▁doub 17
▁dove 17
▁dye 17
▁ech 17
▁edited 17
▁eman 17
▁embark 17
▁embraced 17
▁emission 17
▁employee 17
▁enlight 17
▁entertain 17
▁entitled 17
▁evolves 17
▁exceptional 17
▁excessive 17
▁exploitation 17
▁fabrication 17
▁faculty 17
▁fig 17
▁fishes 17
▁flatten 17
▁fled 17
▁floods 17
▁founder 17
▁frequent 17
▁funders 17
▁gal 17
▁gangs 17
▁genomics 17
▁gifted 17
▁giraff 17
▁glorious 17
▁gor 17
▁graduates 17
▁graffiti 17
▁grandmothers 17
▁grasses 17
▁handsome 17
▁hears 17
▁heavens 17
▁herb 17
▁herd 17
▁hier 17
▁hive 17
▁holistic 17
▁horn 17
▁hurts 17
▁hypotheses 17
▁identities 17
▁illiterate 17
▁illumination 17
▁imagin 17
▁imitation 17
▁immers 17
▁immersed 17
▁implants 17
▁impr 17
▁incons 17
▁inex 17
▁inherit 17
▁inherited 17
▁insecure 17
▁inst 17
▁installations 17
▁intentional 17
▁interfere 17
▁intermed 17
▁inventing 17
▁investigating 17
▁jack 17
▁journals 17
▁jury 17
▁kidneys 17
▁kil 17
▁kilogram 17
▁knocked 17
▁larvae 17
▁laure 17
▁lawsu 17
▁liberation 17
▁lightweight 17
▁lobes 17
▁maintained 17
▁mandate 17
▁manipulated 17
▁margins 17
▁marijuana 17
▁masters 17
▁mastery 17
▁maternal 17
▁measurement 17
▁messing 17
▁mil 17
▁millisecond 17
▁mineral 17
▁mite 17
▁monthly 17
▁mounted 17
▁needing 17
▁noises 17
▁numer 17
▁obligation 17
▁orchestras 17
▁orient 17
▁ox 17
▁packing 17
▁passengers 17
▁pathology 17
▁payload 17
▁payment 17
▁payoff 17
▁peanuts 17
▁penetrate 17
▁perceptual 17
▁persistent 17
▁personnel 17
▁pets 17
▁pip 17
▁pneumonia 17
▁por 17
▁predicts 17
▁preferences 17
▁preferred 17
▁premature 17
▁prevalent 17
▁primal 17
▁projecting 17
▁proliferation 17
▁prot 17
▁protective 17
▁protects 17
▁protocol 17
▁puberty 17
▁punish 17
▁queens 17
▁quotes 17
▁rece 17
▁recon 17
▁reconnect 17
▁reconstru 17
▁rect 17
▁redund 17
▁regener 17
▁rehab 17
▁reinventing 17
▁remed 17
▁reminder 17
▁rendering 17
▁replicator 17
▁replied 17
▁reporter 17
▁requirements 17
▁resemble 17
▁responsive 17
▁retain 17
▁revealing 17
▁revol 17
▁ringing 17
▁rolls 17
▁sands 17
▁sapiens 17
▁sedu 17
▁serotonin 17
▁serv 17
▁servant 17
▁settings 17
▁shouting 17
▁sidewalk 17
▁sideways 17
▁signing 17
▁simulator 17
▁soils 17
▁spear 17
▁spirits 17
▁spores 17
▁spouse 17
▁standardized 17
▁starvation 17
▁statist 17
▁stocks 17
▁stole 17
▁strict 17
▁strips 17
▁strongest 17
▁stunning 17
▁substitute 17
▁suburbs 17
▁suey 17
▁suitcase 17
▁sunny 17
▁superconductor 17
▁supermassive 17
▁surge 17
▁surprises 17
▁swarm 17
▁switches 17
▁sync 17
▁tabl 17
▁tang 17
▁techn 17
▁theirs 17
▁tile 17
▁timeline 17
▁tiniest 17
▁tofu 17
▁tracked 17
▁translates 17
▁triggered 17
▁triggers 17
▁twent 17
▁uncertain 17
▁undergrad 17
▁underway 17
▁unfolding 17
▁unified 17
▁unsustainable 17
▁versa 17
▁volunte 17
▁wallet 17
▁warehouse 17
▁whip 17
▁whis 17
▁workshops 17
▁zip 17
?' 16
AA 16
CC 16
Pe 16
RA 16
abled 16
acon 16
acts 16
aic 16
aka 16
aki 16
ante 16
api 16
ardo 16
arin 16
arity 16
assing 16
auc 16
ault 16
avel 16
bal 16
bott 16
bury 16
cience 16
cip 16
creat 16
dam 16
dess 16
ducing 16
economic 16
ede 16
eding 16
endent 16
enny 16
ension 16
erst 16
etter 16
gener 16
glasses 16
group 16
high 16
hyd 16
iants 16
iciency 16
icit 16
icted 16
iddle 16
ighte 16
igram 16
imal 16
imi 16
inder 16
iod 16
itudes 16
iva 16
izens 16
kers 16
lection 16
lest 16
lied 16
lings 16
llect 16
match 16
matics 16
metic 16
minent 16
new 16
oil 16
oing 16
olf 16
olog 16
olut 16
omer 16
onal 16
onds 16
onne 16
onomy 16
oons 16
oper 16
opper 16
orative 16
organisms 16
ounting 16
oxy 16
people 16
pers 16
phe 16
pherd 16
plus 16
rance 16
rim 16
rime 16
sea 16
step 16
story 16
technology 16
tedly 16
ties 16
touch 16
udes 16
ueled 16
uf 16
umin 16
unted 16
worthy 16
ya 16
▁13, 16
▁14, 16
▁15. 16
▁16- 16
▁1998, 16
▁1: 16
▁2010. 16
▁400,000 16
▁57 16
▁7. 16
▁96 16
▁97 16
▁99. 16
▁Achilles 16
▁Ahmed 16
▁Amazing 16
▁Amb 16
▁Ang 16
▁Angel 16
▁Ap 16
▁Aurora 16
▁Australian 16
▁Austria 16
▁Auth 16
▁Aw 16
▁BR 16
▁Baby 16
▁Better 16
▁Billy 16
▁Biosphere 16
▁Bol 16
▁Brit 16
▁Bulgaria 16
▁Buy 16
▁CAPTCHA 16
▁CL 16
▁Cairo 16
▁Cent 16
▁Club 16
▁Cochrane 16
▁Convention 16
▁Copernicus 16
▁Cru 16
▁Cuba 16
▁Cup 16
▁DIY 16
▁Det 16
▁Diego 16
▁Doha 16
▁EEG 16
▁Ecuador 16
▁Ele 16
▁Ell 16
▁Evolution 16
▁Forest 16
▁Game 16
▁Graham 16
▁Gre 16
▁Happy 16
▁Hebrew 16
▁Hindu 16
▁Hiroshima 16
▁Holocaust 16
▁Hubble 16
▁ID 16
▁IV 16
▁Ig 16
▁Isaac 16
▁Jason 16
▁Jean 16
▁Julie 16
▁KT 16
▁Karl 16
▁Kenyan 16
▁Ku 16
▁Language 16
▁Lear 16
▁Living 16
▁Luke 16
▁MA 16
▁Magazine 16
▁Mahatma 16
▁Main 16
▁Maj 16
▁Marshall 16
▁Mas 16
▁Maslow 16
▁McC 16
▁Mermaid 16
▁Michigan 16
▁Mid 16
▁Miss 16
▁Model 16
▁Modern 16
▁Molas 16
▁Mos 16
▁Movement 16
▁Mu 16
▁Neither 16
▁Niger 16
▁Ninety 16
▁Nollywood 16
▁Phil 16
▁Phys 16
▁Poland 16
▁Rad 16
▁Raise 16
▁Ready 16
▁Reed 16
▁Renaissance 16
▁Roosevelt 16
▁Rouge 16
▁Rush 16
▁Service 16
▁Sex 16
▁Somehow 16
▁Stockholm 16
▁Sudhir 16
▁Survey 16
▁Syria 16
▁Tehran 16
▁Tele 16
▁Tod 16
▁Toyota 16
▁Treating 16
▁Trust 16
▁Tumor 16
▁UC 16
▁Ultimately 16
▁Ut 16
▁Vermeer 16
▁Victorian 16
▁Walter 16
▁Wired 16
▁abused 16
▁achievements 16
▁acronym 16
▁adolescents 16
▁aerodynamic 16
▁aged 16
▁amaz 16
▁ambulance 16
▁anatomy 16
▁anch 16
▁animated 16
▁announce 16
▁antidepressants 16
▁apps 16
▁archety 16
▁arr 16
▁arrangements 16
▁arriving 16
▁assignments 16
▁aston 16
▁athlete 16
▁atmospheric 16
▁augment 16
▁autobi 16
▁autonom 16
▁avian 16
▁backgrounds 16
▁banana 16
▁battlefield 16
▁beats 16
▁beekeepers 16
▁beg 16
▁binds 16
▁biomimicry 16
▁blend 16
▁boot 16
▁booth 16
▁boyfriend 16
▁brakes 16
▁brilliance 16
▁brute 16
▁bucket 16
▁builder 16
▁bumble 16
▁burns 16
▁calculators 16
▁captures 16
▁cardiovascular 16
▁careers 16
▁carved 16
▁centered 16
▁cere 16
▁characterized 16
▁charts 16
▁cheated 16
▁chin 16
▁cigarettes 16
▁clinically 16
▁cochlear 16
▁collar 16
▁collide 16
▁combining 16
▁commands 16
▁companion 16
▁compatible 16
▁compens 16
▁compose 16
▁conc 16
▁concerts 16
▁confusing 16
▁constructive 16
▁contributes 16
▁convenience 16
▁convers 16
▁cookies 16
▁corre 16
▁cosm 16
▁counterpart 16
▁craf 16
▁cru 16
▁cust 16
▁customization 16
▁defending 16
▁dementia 16
▁deserts 16
▁detectors 16
▁digitally 16
▁din 16
▁disbelief 16
▁dispar 16
▁displ 16
▁displayed 16
▁dispos 16
▁disproportion 16
▁divor 16
▁drank 16
▁edible 16
▁educators 16
▁elevation 16
▁eliminated 16
▁embed 16
▁emphas 16
▁enforce 16
▁enterpr 16
▁enthusiastic 16
▁epilepsy 16
▁epiphany 16
▁epit 16
▁erase 16
▁executive 16
▁exhib 16
▁exhilar 16
▁expands 16
▁experimenter 16
▁explicit 16
▁extinctions 16
▁extracted 16
▁fac 16
▁fade 16
▁fairness 16
▁fal 16
▁fax 16
▁feminine 16
▁festival 16
▁fidd 16
▁fierce 16
▁fights 16
▁fingerprint 16
▁flames 16
▁flashing 16
▁flourishing 16
▁forum 16
▁framed 16
▁freez 16
▁gadgets 16
▁gaining 16
▁gamma 16
▁gard 16
▁gears 16
▁genuinely 16
▁geological 16
▁gloves 16
▁goodbye 16
▁goose 16
▁gossi 16
▁gratification 16
▁grounded 16
▁guaranteed 16
▁gyrus 16
▁hack 16
▁hind 16
▁histories 16
▁humidity 16
▁hummingbird 16
▁hurry 16
▁hus 16
▁hydro 16
▁iPods 16
▁ideals 16
▁identification 16
▁imaginative 16
▁immortal 16
▁imprison 16
▁incomplete 16
▁incorporate 16
▁inde 16
▁innov 16
▁inorganic 16
▁inspect 16
▁insult 16
▁intensely 16
▁intergalactic 16
▁interp 16
▁intrigued 16
▁intuitions 16
▁invasion 16
▁invasive 16
▁ion 16
▁jelly 16
▁joyful 16
▁lacking 16
▁lakes 16
▁lasting 16
▁lazy 16
▁lexicon 16
▁lifelike 16
▁lim 16
▁limitation 16
▁locking 16
▁loser 16
▁lump 16
▁maggots 16
▁marin 16
▁marriages 16
▁marvel 16
▁mathematically 16
▁maze 16
▁medieval 16
▁mega 16
▁memorize 16
▁mentality 16
▁messaging 16
▁metabol 16
▁minimize 16
▁mob 16
▁modes 16
▁monopoly 16
▁mos 16
▁motivates 16
▁multit 16
▁multiverse 16
▁mum 16
▁mundane 16
▁mutant 16
▁nerdy 16
▁nests 16
▁neuros 16
▁neuroscientists 16
▁nitric 16
▁nod 16
▁northeast 16
▁nutritional 16
▁occupied 16
▁onset 16
▁outrage 16
▁outward 16
▁overd 16
▁overl 16
▁paragraph 16
▁paran 16
▁pedestrian 16
▁pepper 16
▁perce 16
▁performances 16
▁pharmaceuticals 16
▁pian 16
▁pier 16
▁pigeons 16
▁pioneer 16
▁pleasures 16
▁plural 16
▁portray 16
▁prayers 16
▁predomin 16
▁prejud 16
▁preservation 16
▁prohib 16
▁proving 16
▁pup 16
▁quantity 16
▁rabb 16
▁rabbits 16
▁radioactive 16
▁rav 16
▁realizes 16
▁references 16
▁refers 16
▁reflecting 16
▁refrigeration 16
▁regenerative 16
▁renew 16
▁repos 16
▁resid 16
▁reverber 16
▁richness 16
▁rubble 16
▁ruler 16
▁rupees 16
▁rushed 16
▁sadly 16
▁sandwiches 16
▁sank 16
▁scars 16
▁scenarios 16
▁sediment 16
▁sentiment 16
▁separating 16
▁serial 16
▁shade 16
▁shadows 16
▁shaping 16
▁shuttle 16
▁sim 16
▁skins 16
▁skys 16
▁slee 16
▁slime 16
▁snapshot 16
▁sniff 16
▁socio 16
▁sought 16
▁speeches 16
▁speeding 16
▁sperm 16
▁spines 16
▁squir 16
▁stain 16
▁stigma 16
▁strangely 16
▁strokes 16
▁subsidies 16
▁subst 16
▁substantially 16
▁subtr 16
▁suffers 16
▁superpower 16
▁suppress 16
▁surfing 16
▁sustaining 16
▁sweeping 16
▁technician 16
▁tense 16
▁testimony 16
▁theft 16
▁therapist 16
▁thrive 16
▁tigers 16
▁titled 16
▁tolerate 16
▁tops 16
▁toxin 16
▁tribute 16
▁troubled 16
▁turtles 16
▁unite 16
▁unthink 16
▁upris 16
▁ups 16
▁urgent 16
▁urine 16
▁vastly 16
▁veterans 16
▁visualizing 16
▁vit 16
▁volcanoes 16
▁volts 16
▁wig 16
▁yearning 16
▁zeros 16
Get 15
Have 15
Maybe 15
Our 15
Qaeda 15
SA 15
Tell 15
Un 15
Wait 15
abl 15
acker 15
activity 15
adic 15
aga 15
agen 15
agging 15
airy 15
aler 15
alm 15
alo 15
angel 15
aron 15
ashes 15
ask 15
assemble 15
asted 15
astically 15
athan 15
athe 15
atically 15
aughter 15
awning 15
bag 15
bit 15
boat 15
bound 15
building 15
bul 15
carbon 15
cards 15
ceive 15
ceptions 15
cile 15
computer 15
edic 15
educated 15
ensing 15
eor 15
eries 15
erk 15
err 15
esteem 15
etical 15
finance 15
fri 15
funded 15
gather 15
hal 15
hesive 15
ho 15
icture 15
icular 15
ifty 15
iger 15
inhab 15
iot 15
ipp 15
ipping 15
ipt 15
iscover 15
iture 15
lier 15
llers 15
loc 15
mal 15
mber 15
mental 15
mod 15
obile 15
ocracies 15
ocracy 15
ogn 15
olly 15
omber 15
onc 15
onies 15
orced 15
ordin 15
organization 15
orph 15
oty 15
otype 15
outh 15
ova 15
peer 15
pple 15
rees 15
rial 15
rient 15
rolled 15
rots 15
saving 15
sensitive 15
seus 15
shot 15
track 15
uates 15
uba 15
ugs 15
ulates 15
uls 15
unches 15
unky 15
urch 15
usty 15
vest 15
wait 15
weight 15
wels 15
what 15
white 15
wire 15
worm 15
writing 15
yles 15
zard 15
— 15
▁1.4 15
▁100- 15
▁11. 15
▁1800 15
▁2.5 15
▁2002. 15
▁2050, 15
▁39 15
▁41 15
▁50. 15
▁53 15
▁58 15
▁64 15
▁ADHD 15
▁Alfred 15
▁Au 15
▁Aud 15
▁BA 15
▁BBC 15
▁Bab 15
▁Bad 15
▁Barbara 15
▁Barbie 15
▁Bed 15
▁Bihar 15
▁Bonobo 15
▁Brah 15
▁Brand 15
▁Bridge 15
▁CC 15
▁CDs 15
▁CP 15
▁CS 15
▁CT 15
▁Campaign 15
▁Canal 15
▁Cel 15
▁Chair 15
▁Channel 15
▁Chicken 15
▁Chief 15
▁Choir 15
▁Colorado 15
▁Commission 15
▁Companies 15
▁Conc 15
▁Cond 15
▁Conservation 15
▁Cuban 15
▁Current 15
▁DDT 15
▁DM 15
▁Dam 15
▁Develop 15
▁Different 15
▁Dimitri 15
▁Eames 15
▁Eden 15
▁Environmental 15
▁Exp 15
▁Face 15
▁Fahrenheit 15
▁Fed 15
▁Financial 15
▁Finland 15
▁Fish 15
▁Franklin 15
▁Friedman 15
▁Fur 15
▁Garden 15
▁Genome 15
▁Getting 15
▁Had 15
▁Hung 15
▁Hyper 15
▁Independent 15
▁Invest 15
▁Irish 15
▁Israelis 15
▁Jama 15
▁Jamie 15
▁Jeep 15
▁Juli 15
▁KS 15
▁Kamen 15
▁Labs 15
▁Laptop 15
▁Live 15
▁MBA 15
▁Machine 15
▁Maryland 15
▁Math 15
▁Mill 15
▁Moscow 15
▁Moving 15
▁Mrs 15
▁Mt 15
▁Much 15
▁Neumann 15
▁OPEC 15
▁Oscar 15
▁Otherwise 15
▁Ox 15
▁PIPA 15
▁PISA 15
▁Palestinians 15
▁Pap 15
▁Pay 15
▁Ret 15
▁Rich 15
▁Rift 15
▁Rockefeller 15
▁Roll 15
▁Ronald 15
▁Row 15
▁Russell 15
▁SOPA 15
▁Sally 15
▁Shame 15
▁Sioux 15
▁Snow 15
▁Som 15
▁Sort 15
▁Sound 15
▁Starbucks 15
▁Studio 15
▁Superman 15
▁Sydney 15
▁TD 15
▁Tarahumara 15
▁Techn 15
▁Though 15
▁Top 15
▁Tric 15
▁True 15
▁Tur 15
▁Typ 15
▁USDA 15
▁Uh 15
▁Us 15
▁Use 15
▁Ushahidi 15
▁Ver 15
▁Visual 15
▁Walker 15
▁Wednesday 15
▁Wind 15
▁Word 15
▁ZK 15
▁abstraction 15
▁acquis 15
▁adequate 15
▁adulthood 15
▁advocacy 15
▁alarming 15
▁ambass 15
▁announcing 15
▁anthropologist 15
▁apocaly 15
▁appoint 15
▁asc 15
▁ash 15
▁astounding 15
▁atheist 15
▁atroc 15
▁aver 15
▁awards 15
▁backpack 15
▁backward 15
▁balances 15
▁ballet 15
▁ballot 15
▁battles 15
▁belie 15
▁believer 15
▁bending 15
▁biofuels 15
▁bladder 15
▁bloggers 15
▁broadband 15
▁butterflies 15
▁cafeter 15
▁campaigning 15
▁cand 15
▁capitalist 15
▁carbs 15
▁caus 15
▁caut 15
▁centralized 15
▁cereal 15
▁cheaply 15
▁cheer 15
▁chlor 15
▁cinema 15
▁cleans 15
▁clo 15
▁clon 15
▁cobra 15
▁cockpit 15
▁coherent 15
▁collapsing 15
▁colle 15
▁comed 15
▁comet 15
▁commercials 15
▁comparisons 15
▁compost 15
▁comprom 15
▁concentrations 15
▁concuss 15
▁confirmed 15
▁containing 15
▁converting 15
▁cops 15
▁courtyard 15
▁crashing 15
▁crawl 15
▁cush 15
▁daf 15
▁dangers 15
▁declined 15
▁defeated 15
▁determining 15
▁differentiate 15
▁diplomat 15
▁diplomatic 15
▁discrete 15
▁disparate 15
▁disposal 15
▁distrib 15
▁dominate 15
▁donate 15
▁downloaded 15
▁dragging 15
▁dried 15
▁drifting 15
▁dumm 15
▁dumping 15
▁dupl 15
▁dyslex 15
▁efficiently 15
▁eg 15
▁eliminating 15
▁emailed 15
▁empowerment 15
▁encode 15
▁energies 15
▁esc 15
▁excellence 15
▁excuses 15
▁explosions 15
▁expressive 15
▁exter 15
▁eyeball 15
▁fMRI 15
▁facilit 15
▁finest 15
▁fing 15
▁fishery 15
▁flush 15
▁foam 15
▁forger 15
▁formats 15
▁fragmented 15
▁freedoms 15
▁frontiers 15
▁furn 15
▁fuse 15
▁gaming 15
▁gee 15
▁ger 15
▁gharial 15
▁glut 15
▁governed 15
▁grapp 15
▁greed 15
▁grounds 15
▁handling 15
▁headache 15
▁hemispher 15
▁hike 15
▁hitch 15
▁hoo 15
▁hood 15
▁humanities 15
▁hydrocarbons 15
▁ideological 15
▁illustrates 15
▁inability 15
▁incarcer 15
▁incent 15
▁incorpor 15
▁inh 15
▁initiatives 15
▁insignific 15
▁instinctively 15
▁instrumental 15
▁internationally 15
▁interrupt 15
▁intestine 15
▁intricate 15
▁ironically 15
▁irrit 15
▁jealous 15
▁jour 15
▁killers 15
▁kindly 15
▁kite 15
▁ling 15
▁lip 15
▁loops 15
▁lousy 15
▁lover 15
▁lowered 15
▁magn 15
▁maid 15
▁manufact 15
▁manure 15
▁masks 15
▁meadow 15
▁memorable 15
▁metaphorical 15
▁microblog 15
▁miracles 15
▁mites 15
▁modeled 15
▁moons 15
▁motions 15
▁motorcycle 15
▁multimedia 15
▁mutually 15
▁nail 15
▁nanoscale 15
▁neurological 15
▁newborn 15
▁nickn 15
▁novels 15
▁nuclei 15
▁nursing 15
▁obscure 15
▁obsess 15
▁officially 15
▁oral 15
▁orang 15
▁orbiting 15
▁organizational 15
▁overt 15
▁packets 15
▁pads 15
▁paintbrush 15
▁panc 15
▁pediat 15
▁physiological 15
▁pigmentation 15
▁pinpoint 15
▁pissed 15
▁pist 15
▁polls 15
▁pools 15
▁popping 15
▁praise 15
▁predatory 15
▁prep 15
▁presumably 15
▁primate 15
▁progeria 15
▁projector 15
▁promotion 15
▁propulsion 15
▁prostitution 15
▁proves 15
▁province 15
▁provoc 15
▁psy 15
▁purs 15
▁purse 15
▁quarks 15
▁quarters 15
▁quiz 15
▁rabbit 15
▁raging 15
▁ratings 15
▁receiver 15
▁reception 15
▁recreate 15
▁representations 15
▁representatives 15
▁repro 15
▁reproductive 15
▁requirement 15
▁residential 15
▁responds 15
▁restricted 15
▁reuse 15
▁reviewed 15
▁rhet 15
▁rhy 15
▁rigorous 15
▁ripped 15
▁rotation 15
▁rows 15
▁satisfying 15
▁scram 15
▁secretly 15
▁seminal 15
▁seniors 15
▁serendip 15
▁shar 15
▁shares 15
▁shoreline 15
▁shortage 15
▁simplify 15
▁sincere 15
▁skiing 15
▁slate 15
▁slipp 15
▁southwest 15
▁stereotypes 15
▁stiff 15
▁stimulated 15
▁strat 15
▁strive 15
▁subl 15
▁supplement 15
▁supposedly 15
▁susceptible 15
▁sweats 15
▁switching 15
▁systemic 15
▁tapest 15
▁technologists 15
▁tectonic 15
▁termin 15
▁territ 15
▁theor 15
▁theoret 15
▁thesis 15
▁thrill 15
▁throat 15
▁thy 15
▁toaster 15
▁tortured 15
▁toughest 15
▁tourism 15
▁tra 15
▁transforms 15
▁tri 15
▁triumph 15
▁trou 15
▁tucked 15
▁tutor 15
▁tutoring 15
▁tweet 15
▁twisted 15
▁unaware 15
▁uncles 15
▁underestimate 15
▁understandable 15
▁underwear 15
▁unhealthy 15
▁unlimited 15
▁unnecess 15
▁unrelated 15
▁uploaded 15
▁urbanization 15
▁vac 15
▁varied 15
▁vascular 15
▁verte 15
▁vertically 15
▁vicious 15
▁villagers 15
▁violate 15
▁visceral 15
▁visionary 15
▁vividly 15
▁warmth 15
▁wondrous 15
▁workshop 15
▁worries 15
▁wounds 15
": 14
,] 14
-4 14
Ac 14
Afric 14
Dad 14
Give 14
Hello 14
Life 14
Love 14
Se 14
Up 14
Yo 14
aco 14
aik 14
aine 14
aku 14
alan 14
alg 14
alis 14
aluation 14
amel 14
ancies 14
ariot 14
arring 14
asure 14
atisf 14
atural 14
aund 14
ban 14
bees 14
bin 14
brush 14
bur 14
cale 14
case 14
chanical 14
code 14
deg 14
door 14
eda 14
eed 14
eff 14
enberg 14
ensible 14
eping 14
erstate 14
essions 14
etry 14
eye 14
fashioned 14
function 14
generation 14
gin 14
governmental 14
greg 14
gue 14
has 14
hearted 14
hel 14
heon 14
here 14
holder 14
hop 14
icient 14
idays 14
ieve 14
iliar 14
ilion 14
ille 14
inent 14
inky 14
into 14
ishes 14
itative 14
itty 14
je 14
kh 14
kill 14
legged 14
licted 14
linear 14
loppy 14
low 14
mand 14
metics 14
nut 14
occ 14
occup 14
ollow 14
olves 14
ommunications 14
onde 14
onel 14
oop 14
oping 14
oris 14
orry 14
osa 14
otherapy 14
oto 14
ouch 14
ouses 14
pay 14
perform 14
pher 14
pie 14
quare 14
rand 14
ranny 14
rat 14
reme 14
rene 14
rie 14
rified 14
rimin 14
risk 14
roads 14
rong 14
round 14
rowing 14
star 14
sych 14
teen 14
uation 14
uber 14
ubl 14
ukemia 14
umber 14
under 14
ushed 14
ustain 14
utch 14
uv 14
walk 14
works 14
yss 14
▁13- 14
▁16. 14
▁170 14
▁1945, 14
▁1950, 14
▁1960, 14
▁1960. 14
▁1968, 14
▁2002 14
▁2004 14
▁2005. 14
▁2010 14
▁35,000 14
▁4, 14
▁40, 14
▁49 14
▁70,000 14
▁ABC 14
▁AR 14
▁ATM 14
▁Agr 14
▁Aimee 14
▁Ali 14
▁Anim 14
▁Antarctic 14
▁Aqu 14
▁Arkansas 14
▁Austral 14
▁Avenue 14
▁Ax 14
▁Bali 14
▁Batman 14
▁Bayes 14
▁Behind 14
▁Believe 14
▁Blair 14
▁Blo 14
▁Board 14
▁Bot 14
▁Brain 14
▁Broadmoor 14
▁Buff 14
▁CPU 14
▁Ca 14
▁Cameron 14
▁Cap 14
▁Cars 14
▁Commandments 14
▁Cre 14
▁Crit 14
▁Diam 14
▁Diana 14
▁ES 14
▁Ear 14
▁Edward 14
▁Enlightenment 14
▁Est 14
▁Ev 14
▁Excuse 14
▁Exxon 14
▁FBI 14
▁GPHIN 14
▁Gallery 14
▁Galvao 14
▁Gehry 14
▁Gh 14
▁Git 14
▁Glenn 14
▁Governments 14
▁Guatemala 14
▁Guinea 14
▁Hal 14
▁Hispan 14
▁Honey 14
▁Huge 14
▁Hundreds 14
▁Hungarian 14
▁IR 14
▁Innovation 14
▁Int 14
▁Jan 14
▁Joey 14
▁Jon 14
▁Jonas 14
▁Juan 14
▁Judaism 14
▁Justice 14
▁Kanzi 14
▁Kay 14
▁Khmer 14
▁Kur 14
▁Leo 14
▁Listen 14
▁Liter 14
▁Maltese 14
▁Mao 14
▁Maur 14
▁Mem 14
▁Midwest 14
▁Minnesota 14
▁Mongolia 14
▁Muhammad 14
▁Must 14
▁Mys 14
▁Nat 14
▁Netra 14
▁Nicholas 14
▁Norwegian 14
▁Nov 14
▁Oil 14
▁Oprah 14
▁Organ 14
▁Osama 14
▁PCB 14
▁Palm 14
▁Phot 14
▁Photoshop 14
▁Potter 14
▁Prince 14
▁Rep 14
▁Rice 14
▁Rights 14
▁Riverside 14
▁Rosling 14
▁Saddam 14
▁Scient 14
▁Scientific 14
▁Senegal 14
▁Simp 14
▁Southeast 14
▁Stanley 14
▁Student 14
▁Sup 14
▁Supp 14
▁Susie 14
▁Sys 14
▁TM 14
▁TR 14
▁Tahrir 14
▁Tomorrow 14
▁Transition 14
▁Troy 14
▁Uruguay 14
▁Val 14
▁Viking 14
▁Walmart 14
▁Warner 14
▁Weibo 14
▁Whe 14
▁Whit 14
▁Yale 14
▁academia 14
▁acre 14
▁activation 14
▁addresses 14
▁adolescent 14
▁affirm 14
▁aisle 14
▁algorithmic 14
▁amplify 14
▁anonym 14
▁antennae 14
▁anthropologists 14
▁anthropology 14
▁antiretroviral 14
▁apartheid 14
▁applaud 14
▁appreci 14
▁arises 14
▁arriv 14
▁aspiration 14
▁assumes 14
▁astrol 14
▁attendance 14
▁audition 14
▁awak 14
▁backed 14
▁bail 14
▁bakery 14
▁balancing 14
▁ballast 14
▁banker 14
▁basics 14
▁beard 14
▁bibl 14
▁blogosphere 14
▁blues 14
▁bricks 14
▁browse 14
▁burgl 14
▁cab 14
▁capturing 14
▁carn 14
▁carri 14
▁casual 14
▁cataly 14
▁causal 14
▁cellphones 14
▁centimeters 14
▁centr 14
▁charging 14
▁charism 14
▁charities 14
▁chunks 14
▁civilians 14
▁clog 14
▁closet 14
▁cockroach 14
▁coins 14
▁collaborating 14
▁collector 14
▁coma 14
▁communism 14
▁communist 14
▁commute 14
▁compartment 14
▁competence 14
▁competitions 14
▁comprised 14
▁concentr 14
▁conflicting 14
▁conform 14
▁confuse 14
▁confusion 14
▁const 14
▁constructing 14
▁contemp 14
▁contemplate 14
▁conve 14
▁costly 14
▁craz 14
▁creepy 14
▁cried 14
▁crises 14
▁criticize 14
▁crocodile 14
▁crux 14
▁cybers 14
▁damaging 14
▁danced 14
▁darker 14
▁deer 14
▁deliberate 14
▁dengue 14
▁denominator 14
▁deployment 14
▁descend 14
▁desperation 14
▁deterior 14
▁devastated 14
▁diagn 14
▁diagnostics 14
▁dictator 14
▁diffuse 14
▁diffusion 14
▁dip 14
▁directed 14
▁discrimin 14
▁disintegr 14
▁dispute 14
▁distracted 14
▁dividend 14
▁downs 14
▁dread 14
▁dreadful 14
▁drip 14
▁dub 14
▁dude 14
▁electrode 14
▁emitted 14
▁enclosure 14
▁enh 14
▁enhanced 14
▁enjoyable 14
▁entertaining 14
▁entries 14
▁esp 14
▁evalu 14
▁evangel 14
▁evaporate 14
▁exhibitions 14
▁exports 14
▁extracting 14
▁extremes 14
▁extremism 14
▁facade 14
▁facilitate 14
▁fans 14
▁festivals 14
▁fictional 14
▁files 14
▁filming 14
▁fins 14
▁firemen 14
▁firsthand 14
▁fitting 14
▁flipped 14
▁flutes 14
▁focal 14
▁folder 14
▁fond 14
▁fooled 14
▁foraging 14
▁forgetting 14
▁fraud 14
▁fucking 14
▁fulfilled 14
▁functionality 14
▁gag 14
▁gait 14
▁generators 14
▁genital 14
▁geniuses 14
▁genomic 14
▁gramm 14
▁gran 14
▁grape 14
▁grassland 14
▁groom 14
▁hangs 14
▁hats 14
▁haul 14
▁hay 14
▁helix 14
▁hence 14
▁historians 14
▁hon 14
▁honeybees 14
▁hostility 14
▁hover 14
▁humili 14
▁hyperbolic 14
▁idealism 14
▁ignorant 14
▁immunity 14
▁impair 14
▁implicit 14
▁impulses 14
▁inappropriate 14
▁incidence 14
▁indicated 14
▁indicating 14
▁indisc 14
▁inequ 14
▁ingenious 14
▁inquiry 14
▁instability 14
▁intellig 14
▁interacts 14
▁interconne 14
▁interrog 14
▁interrupted 14
▁intrinsic 14
▁intuitively 14
▁irres 14
▁jun 14
▁ladder 14
▁latitude 14
▁latter 14
▁leaks 14
▁legally 14
▁lent 14
▁lifelong 14
▁lifetimes 14
▁lightly 14
▁litter 14
▁loyalty 14
▁luc 14
▁madness 14
▁mainframe 14
▁maj 14
▁makeup 14
▁manip 14
▁marathon 14
▁marries 14
▁mem 14
▁merc 14
▁merging 14
▁messed 14
▁metropolitan 14
▁microprocess 14
▁millimeters 14
▁minim 14
▁miraculous 14
▁moderate 14
▁modify 14
▁moisture 14
▁monsters 14
▁mortgage 14
▁multiplied 14
▁navigation 14
▁neglect 14
▁neighboring 14
▁neurologic 14
▁neuroscient 14
▁neut 14
▁offensive 14
▁oneself 14
▁overfishing 14
▁overseas 14
▁overwhelmingly 14
▁palace 14
▁param 14
▁paras 14
▁participated 14
▁passionately 14
▁passively 14
▁passport 14
▁patented 14
▁pav 14
▁peanut 14
▁pell 14
▁permit 14
▁pest 14
▁petals 14
▁petition 14
▁phases 14
▁phon 14
▁photographing 14
▁photosynthesis 14
▁pigmented 14
▁pine 14
▁pioneering 14
▁pixels 14
▁plentiful 14
▁plywood 14
▁poetic 14
▁poisoning 14
▁policemen 14
▁polite 14
▁pork 14
▁positively 14
▁posts 14
▁pots 14
▁practition 14
▁prag 14
▁precon 14
▁preserving 14
▁prin 14
▁prince 14
▁prioritize 14
▁processors 14
▁progressive 14
▁prone 14
▁prophet 14
▁proposing 14
▁propri 14
▁proscenium 14
▁prosper 14
▁psychiatrists 14
▁pulses 14
▁punished 14
▁questioned 14
▁quicker 14
▁racism 14
▁rainwater 14
▁rebel 14
▁rebuilding 14
▁receives 14
▁reconciliation 14
▁refrigerator 14
▁regarded 14
▁reinforce 14
▁relational 14
▁relieved 14
▁reloc 14
▁rememb 14
▁removes 14
▁renewables 14
▁reply 14
▁requ 14
▁respects 14
▁retro 14
▁revelation 14
▁roommate 14
▁roughness 14
▁ruined 14
▁salad 14
▁satur 14
▁scal 14
▁scalable 14
▁scand 14
▁scarc 14
▁schizophren 14
▁scissors 14
▁sculptor 14
▁seasonal 14
▁seize 14
▁sen 14
▁sequel 14
▁servers 14
▁severely 14
▁simul 14
▁skyro 14
▁slot 14
▁snails 14
▁someplace 14
▁sorrow 14
▁spaceship 14
▁specialization 14
▁specialize 14
▁specimens 14
▁spikes 14
▁spit 14
▁splend 14
▁sponsored 14
▁stacking 14
▁stacks 14
▁stair 14
▁stakes 14
▁stap 14
▁starch 14
▁statues 14
▁streaming 14
▁stunned 14
▁subconscious 14
▁sugars 14
▁supernova 14
▁superst 14
▁surrounds 14
▁survivor 14
▁sushi 14
▁swine 14
▁tasted 14
▁teapot 14
▁teddy 14
▁tempor 14
▁terrestrial 14
▁thirst 14
▁thou 14
▁thunder 14
▁ticking 14
▁tides 14
▁tilt 14
▁tire 14
▁tobacco 14
▁tolerant 14
▁tougher 14
▁transnational 14
▁transplants 14
▁turtle 14
▁typed 14
▁typeface 14
▁umbrella 14
▁unbelievably 14
▁unh 14
▁unic 14
▁unimaginable 14
▁unpleasant 14
▁upstairs 14
▁vaginas 14
▁valves 14
▁vegetation 14
▁veins 14
▁ventilation 14
▁vibrant 14
▁vibration 14
▁vide 14
▁viewers 14
▁virtues 14
▁visuals 14
▁vol 14
▁waking 14
▁watches 14
▁wears 14
▁width 14
▁wield 14
▁wiz 14
/1 13
:00 13
:30 13
;" 13
?'" 13
Aid 13
City 13
En 13
Free 13
HA 13
Make 13
Ne 13
OM 13
World 13
abil 13
acles 13
ady 13
agog 13
aired 13
alks 13
amer 13
amy 13
ancer 13
anda 13
angle 13
anium 13
apers 13
apeut 13
apter 13
aser 13
asters 13
astr 13
aton 13
atops 13
attle 13
awatt 13
bble 13
billion 13
cap 13
cat 13
celer 13
cence 13
ceptive 13
charg 13
dec 13
def 13
die 13
discipl 13
dri 13
ea 13
eland 13
elines 13
endo 13
enetr 13
ention 13
eral 13
esty 13
eze 13
fre 13
gel 13
gramm 13
iciently 13
icill 13
icle 13
icul 13
ifiable 13
ignant 13
igure 13
imately 13
intention 13
iper 13
isive 13
isses 13
isters 13
itating 13
keep 13
leep 13
leton 13
lies 13
limin 13
llen 13
marin 13
mate 13
math 13
mond 13
obe 13
odied 13
ointed 13
ologic 13
omatic 13
ondition 13
onent 13
only 13
opath 13
ople 13
opy 13
ousands 13
owitz 13
pir 13
points 13
pop 13
pre 13
product 13
rais 13
rates 13
raz 13
reh 13
retch 13
ribly 13
rict 13
rig 13
rine 13
rofoam 13
rug 13
sex 13
six 13
stitutes 13
top 13
uffle 13
ui 13
utives 13
why 13
wo 13
yll 13
á 13
▁...] 13
▁1.7 13
▁100. 13
▁175 13
▁19, 13
▁2007. 13
▁2050. 13
▁24/ 13
▁360 13
▁68 13
▁8. 13
▁80,000 13
▁9/11. 13
▁93 13
▁ALS 13
▁Accenture 13
▁Adv 13
▁Amanda 13
▁Americ 13
▁Archite 13
▁Architecture 13
▁Ba 13
▁Balkans 13
▁Beatles 13
▁Bess 13
▁Botswana 13
▁Brigades 13
▁Brilliant 13
▁Bro 13
▁Brook 13
▁Browne 13
▁Bud 13
▁Captain 13
▁Change 13
▁Clay 13
▁Close 13
▁Comm 13
▁Cook 13
▁Cop 13
▁Corporation 13
▁Dark 13
▁Dawkins 13
▁Denis 13
▁Dire 13
▁Dor 13
▁Dum 13
▁Dun 13
▁EB 13
▁Economist 13
▁Eleanor 13
▁Emp 13
▁Environment 13
▁Ethiop 13
▁Fant 13
▁Fer 13
▁Full 13
▁Galax 13
▁Gaza 13
▁Georgetown 13
▁Hands 13
▁Hard 13
▁Harlem 13
▁Helvetica 13
▁Hillis 13
▁Hipp 13
▁Homer 13
▁Hon 13
▁Huh 13
▁Hussein 13
▁Infinity 13
▁Ins 13
▁Inside 13
▁Inst 13
▁Inuit 13
▁Istanbul 13
▁Jennifer 13
▁Jesse 13
▁Jose 13
▁Kick 13
▁Kim 13
▁Ky 13
▁Laboratory 13
▁Lo 13
▁Local 13
▁Lou 13
▁Lu 13
▁Macintosh 13
▁Madagascar 13
▁Maitreya 13
▁Mathematica 13
▁McG 13
▁McK 13
▁Might 13
▁Mob 13
▁NIH 13
▁Nation 13
▁Nazi 13
▁Netflix 13
▁Noah 13
▁Ob 13
▁Ottoman 13
▁PS 13
▁Party 13
▁Police 13
▁Polit 13
▁Pres 13
▁Produ 13
▁Purp 13
▁Rica 13
▁Rub 13
▁Sao 13
▁Schwarzschild 13
▁Scot 13
▁Sel 13
▁Serb 13
▁Son 13
▁Speed 13
▁Symphony 13
▁Tah 13
▁Tar 13
▁Taylor 13
▁Tel 13
▁Thanksgiving 13
▁Thula 13
▁Tradition 13
▁Tre 13
▁Trek 13
▁Tso 13
▁Tu 13
▁Twe 13
▁Vas 13
▁Vi 13
▁administrative 13
▁adop 13
▁afflu 13
▁ann 13
▁anth 13
▁arrives 13
▁arth 13
▁assert 13
▁athl 13
▁aviation 13
▁balcon 13
▁bases 13
▁bid 13
▁bios 13
▁brainstorm 13
▁bred 13
▁cargo 13
▁cent 13
▁chamb 13
▁champagne 13
▁chim 13
▁chk 13
▁circumst 13
▁coalition 13
▁collections 13
▁combustion 13
▁compell 13
▁competent 13
▁complications 13
▁compreh 13
▁confer 13
▁confrontation 13
▁congrat 13
▁contextual 13
▁controller 13
▁converge 13
▁cri 13
▁cryst 13
▁cubes 13
▁dates 13
▁degr 13
▁distill 13
▁documentation 13
▁drone 13
▁durable 13
▁effic 13
▁electromagn 13
▁enf 13
▁ere 13
▁euros 13
▁femin 13
▁fisher 13
▁gadget 13
▁galvan 13
▁glor 13
▁hacker 13
▁helic 13
▁hockey 13
▁hydrothermal 13
▁incidents 13
▁indiff 13
▁influ 13
▁jets 13
▁junior 13
▁kilos 13
▁kios 13
▁lag 13
▁lear 13
▁levers 13
▁logarith 13
▁mamm 13
▁membranes 13
▁microsecond 13
▁miniature 13
▁modules 13
▁multic 13
▁nanom 13
▁narr 13
▁necess 13
▁neurotransm 13
▁notor 13
▁oblig 13
▁obsc 13
▁observ 13
▁ord 13
▁pains 13
▁palette 13
▁paradig 13
▁patron 13
▁penis 13
▁ping 13
▁planners 13
▁plurip 13
▁poke 13
▁portions 13
▁proc 13
▁programmable 13
▁propag 13
▁protons 13
▁queue 13
▁reconstruction 13
▁regain 13
▁remo 13
▁reprodu 13
▁reptiles 13
▁retrof 13
▁reven 13
▁rod 13
▁rut 13
▁sabbat 13
▁sanctu 13
▁situ 13
▁smiley 13
▁spir 13
▁stat 13
▁stro 13
▁supermark 13
▁syll 13
▁tan 13
▁tapes 13
▁temper 13
▁transcendent 13
▁transformations 13
▁trau 13
▁trek 13
▁trop 13
▁trump 13
▁verse 13
▁vi 13
▁vibrations 13
▁von 13
▁warri 13
▁whoa 13
▁yogurt 13
) 12
-3 12
400 12
:" 12
Al 12
Am 12
Doh 12
FO 12
Ind 12
Ma 12
Os 12
aba 12
acer 12
aft 12
agram 12
alle 12
amas 12
ambo 12
amine 12
anthrop 12
apit 12
arp 12
arted 12
asive 12
astern 12
atoes 12
aud 12
aven 12
avor 12
aya 12
aza 12
bes 12
bir 12
bird 12
blog 12
chi 12
come 12
copes 12
cor 12
diction 12
dies 12
elle 12
emic 12
empt 12
enment 12
ependent 12
eps 12
erman 12
ertension 12
eses 12
estru 12
expression 12
fat 12
father 12
force 12
gage 12
gan 12
gate 12
gins 12
hambra 12
hen 12
hil 12
ij 12
ilia 12
illy 12
imagin 12
inge 12
insky 12
irty 12
ista 12
iste 12
istent 12
itha 12
itness 12
ito 12
ivable 12
ivores 12
jah 12
jo 12
kind 12
lev 12
lla 12
lt 12
mad 12
mbererana 12
mia 12
nec 12
ns 12
ocol 12
ocy 12
oir 12
oko 12
oli 12
ollar 12
olo 12
omod 12
ophob 12
ophys 12
opsies 12
oslav 12
oso 12
others 12
ource 12
overty 12
oz 12
phant 12
phere 12
pile 12
quis 12
rano 12
rett 12
ricane 12
rid 12
riers 12
rison 12
rix 12
rospect 12
rub 12
rust 12
through 12
ti 12
tra 12
uble 12
ublic 12
uda 12
uity 12
ultan 12
ulter 12
umps 12
urre 12
urrection 12
usiness 12
ustainable 12
uters 12
utu 12
van 12
vir 12
watch 12
woman 12
yle 12
ynth 12
yster 12
za 12
zen 12
í 12
ö 12
▁# 12
▁1,3 12
▁14. 12
▁183 12
▁184 12
▁1998 12
▁1999 12
▁2011, 12
▁2015, 12
▁2020 12
▁7, 12
▁76 12
▁78 12
▁84 12
▁91 12
▁AT 12
▁Advent 12
▁Anthony 12
▁Appro 12
▁Area 12
▁Ass 12
▁Babies 12
▁Bach 12
▁Baghdad 12
▁Bilbao 12
▁Bion 12
▁Bir 12
▁Bollywood 12
▁Bonnet 12
▁Bowl 12
▁Burn 12
▁Call 12
▁Carol 12
▁Carter 12
▁Chin 12
▁Clark 12
▁Count 12
▁Crick 12
▁DVDs 12
▁Da 12
▁Davis 12
▁Diplomat 12
▁Douglas 12
▁EC 12
▁Edison 12
▁Eduardo 12
▁Emmanuel 12
▁Ep 12
▁Equ 12
▁Er 12
▁Essent 12
▁Ever 12
▁Everywhere 12
▁Festival 12
▁Fine 12
▁Foreign 12
▁Fortune 12
▁Gab 12
▁Gapminder 12
▁Gary 12
▁Giussani 12
▁Greg 12
▁Grove 12
▁Guard 12
▁HC 12
▁Harbor 12
▁Hay 12
▁Herbie 12
▁Hopkins 12
▁Hu 12
▁Hug 12
▁Igbo 12
▁Il 12
▁Illinois 12
▁Interface 12
▁Iron 12
▁JC 12
▁Jimmy 12
▁Judy 12
▁Jur 12
▁Kiva 12
▁Lanka 12
▁Liber 12
▁Lock 12
▁Management 12
▁Mass 12
▁Mes 12
▁Miami 12
▁Mic 12
▁Mich 12
▁Mister 12
▁Monologues 12
▁Mons 12
▁Nano 12
▁Natalie 12
▁Navy 12
▁Negroponte 12
▁Neil 12
▁Ni 12
▁Nic 12
▁Non 12
▁Ny 12
▁Online 12
▁Orchestra 12
▁PET 12
▁Page 12
▁Pascal 12
▁Phone 12
▁Picasso 12
▁Pitt 12
▁Poll 12
▁Pope 12
▁RD 12
▁RF 12
▁RHex 12
▁SM 12
▁Safe 12
▁Samuel 12
▁Satan 12
▁Save 12
▁Send 12
▁Sever 12
▁Shah 12
▁Sit 12
▁Slo 12
▁Song 12
▁Spr 12
▁Suf 12
▁Swahili 12
▁TBP 12
▁Tri 12
▁Turing 12
▁Universe 12
▁Ve 12
▁Venice 12
▁Victor 12
▁Victoria 12
▁Wisconsin 12
▁WorldWide 12
▁Wy 12
▁Yesterday 12
▁Zamb 12
▁absor 12
▁accompan 12
▁adage 12
▁adore 12
▁agon 12
▁amphib 12
▁anatom 12
▁antidote 12
▁asph 12
▁astrolabe 12
▁astronom 12
▁aversion 12
▁axe 12
▁blogger 12
▁bri 12
▁bribes 12
▁brows 12
▁bulldo 12
▁cabin 12
▁caric 12
▁cartilage 12
▁casting 12
▁cav 12
▁centigrade 12
▁chap 12
▁clin 12
▁commander 12
▁commerce 12
▁composite 12
▁consol 12
▁conting 12
▁contradict 12
▁conventions 12
▁cortical 12
▁cott 12
▁cou 12
▁creat 12
▁degrad 12
▁diale 12
▁dialog 12
▁dile 12
▁discipl 12
▁dise 12
▁dod 12
▁dy 12
▁elder 12
▁emit 12
▁ende 12
▁explorer 12
▁extrapol 12
▁extraterr 12
▁fascination 12
▁fitness 12
▁fluorescent 12
▁fractals 12
▁fragment 12
▁fuss 12
▁geek 12
▁grabb 12
▁graduation 12
▁grill 12
▁hippie 12
▁hippoc 12
▁hypnot 12
▁improbable 12
▁influent 12
▁inhab 12
▁interven 12
▁intric 12
▁intro 12
▁invis 12
▁isol 12
▁juris 12
▁juxtap 12
▁kits 12
▁labyr 12
▁lamin 12
▁lifest 12
▁lifting 12
▁liv 12
▁lust 12
▁mai 12
▁manifestations 12
▁mars 12
▁marshmallow 12
▁massage 12
▁ment 12
▁mit 12
▁motivations 12
▁narciss 12
▁nec 12
▁nie 12
▁nin 12
▁nurs 12
▁occasions 12
▁ol 12
▁onc 12
▁opaque 12
▁orchest 12
▁outre 12
▁pac 12
▁paraly 12
▁particip 12
▁pharmac 12
▁photons 12
▁plaque 12
▁plat 12
▁plutonium 12
▁pore 12
▁priv 12
▁prol 12
▁proph 12
▁rag 12
▁rectangle 12
▁relie 12
▁remark 12
▁reporters 12
▁rh 12
▁romant 12
▁royal 12
▁rud 12
▁rust 12
▁sauc 12
▁sensations 12
▁simulations 12
▁spher 12
▁stabil 12
▁stimuli 12
▁studios 12
▁styles 12
▁superhero 12
▁superp 12
▁surv 12
▁sus 12
▁synapse 12
▁tours 12
▁traged 12
▁transaction 12
▁transp 12
▁troubles 12
▁turbine 12
▁uncons 12
▁underst 12
▁union 12
▁ut 12
▁var 12
▁vic 12
▁vill 12
▁wom 12
▁yoga 12
1: 11
24 11
Americ 11
BC 11
CT 11
Cs 11
ER 11
Hmm 11
OT 11
Prince 11
TO 11
Women 11
abad 11
activ 11
ademy 11
ael 11
agg 11
agh 11
ahn 11
ainer 11
aints 11
alu 11
anga 11
anim 11
anting 11
anza 11
aphor 11
aras 11
atur 11
aus 11
aze 11
bad 11
bot 11
break 11
caution 11
cean 11
chn 11
cker 11
core 11
cra 11
craft 11
dad 11
ection 11
ement 11
enc 11
enge 11
enstein 11
erie 11
ernal 11
eros 11
esi 11
essor 11
estrial 11
eters 11
etto 11
ffe 11
flu 11
fore 11
gles 11
gment 11
gradable 11
hard 11
heast 11
ibles 11
ih 11
iji 11
image 11
imer 11
inas 11
ince 11
inform 11
insey 11
ipse 11
itra 11
ived 11
kens 11
lass 11
lave 11
lean 11
mans 11
mers 11
modern 11
mun 11
mus 11
nan 11
odka 11
ogo 11
ogue 11
omat 11
ommun 11
onge 11
onn 11
onnected 11
orbital 11
orc 11
ormal 11
ortun 11
oven 11
patient 11
pur 11
rase 11
reton 11
rex 11
ricts 11
rise 11
risis 11
rone 11
rovir 11
ser 11
structure 11
throp 11
tle 11
trans 11
uer 11
ularity 11
ulous 11
unal 11
urfing 11
utan 11
utation 11
uther 11
utive 11
utter 11
vas 11
verage 11
volution 11
weled 11
zhou 11
▁19. 11
▁1918 11
▁1970, 11
▁1973, 11
▁1991 11
▁1999. 11
▁2003. 11
▁2030. 11
▁54 11
▁6. 11
▁62 11
▁8, 11
▁AD 11
▁Action 11
▁Af 11
▁Aff 11
▁Alban 11
▁Ald 11
▁Alexand 11
▁Andre 11
▁Arm 11
▁Auschwitz 11
▁Aust 11
▁Austin 11
▁Bag 11
▁Bart 11
▁Blog 11
▁Bott 11
▁Boyle 11
▁Boys 11
▁Brother 11
▁Buckminster 11
▁Bureau 11
▁CERN 11
▁Cas 11
▁Casey 11
▁Cast 11
▁Celsius 11
▁Chall 11
▁Champ 11
▁Christopher 11
▁Chuck 11
▁Cit 11
▁Cleveland 11
▁Clin 11
▁Coal 11
▁Color 11
▁Contr 11
▁Creative 11
▁Creek 11
▁DL 11
▁Dere 11
▁Direct 11
▁Dist 11
▁Doc 11
▁Eld 11
▁Electric 11
▁Eri 11
▁Eye 11
▁Ezra 11
▁Film 11
▁Flor 11
▁GM 11
▁Gillian 11
▁Glass 11
▁Gowanus 11
▁Hawai 11
▁Highway 11
▁Hillary 11
▁Ho 11
▁Hom 11
▁Hotel 11
▁Indiana 11
▁Intelligence 11
▁Ir 11
▁JPL 11
▁Jacques 11
▁Johns 11
▁Jonathan 11
▁Joy 11
▁Jung 11
▁Kas 11
▁Kentucky 11
▁Kerala 11
▁Kid 11
▁Kir 11
▁Kismet 11
▁Kn 11
▁Kr 11
▁LOLcats 11
▁Langley 11
▁Lind 11
▁Lindbergh 11
▁Lis 11
▁Liver 11
▁Lucy 11
▁Lux 11
▁Lyn 11
▁Malcolm 11
▁Mann 11
▁Mathemat 11
▁McLuhan 11
▁Mer 11
▁Meyer 11
▁Michel 11
▁Mik 11
▁Mission 11
▁Morning 11
▁Mouse 11
▁Mull 11
▁Mult 11
▁NF 11
▁NYU 11
▁Najmuddin 11
▁Nashville 11
▁Nav 11
▁Nazis 11
▁Occ 11
▁Opp 11
▁Os 11
▁Ow 11
▁Oz 11
▁Pack 11
▁Pants 11
▁Parad 11
▁Pas 11
▁Pick 11
▁Pin 11
▁Princip 11
▁Prov 11
▁Rest 11
▁Rezero 11
▁Robicsek 11
▁Robotics 11
▁Ryan 11
▁Sachs 11
▁Sala 11
▁Serra 11
▁Shack 11
▁Simpson 11
▁Skycar 11
▁Splashy 11
▁Stand 11
▁Station 11
▁Sue 11
▁TEDGlobal 11
▁Tasman 11
▁Tol 11
▁Tour 11
▁Tree 11
▁Ty 11
▁UNAIDS 11
▁Um 11
▁Univers 11
▁Vice 11
▁Vision 11
▁Vivian 11
▁Voices 11
▁Wiki 11
▁accompl 11
▁alg 11
▁alliance 11
▁amus 11
▁analogies 11
▁anecdote 11
▁antib 11
▁arche 11
▁archives 11
▁arrang 11
▁arrange 11
▁artisan 11
▁aspire 11
▁assass 11
▁autop 11
▁badge 11
▁breat 11
▁brib 11
▁bul 11
▁cardi 11
▁cass 11
▁cassette 11
▁cele 11
▁cellulose 11
▁chefs 11
▁clam 11
▁compliment 11
▁confession 11
▁constructions 11
▁corros 11
▁cowboy 11
▁cran 11
▁craw 11
▁cubicle 11
▁cultiv 11
▁dang 11
▁dat 11
▁desc 11
▁descendants 11
▁devise 11
▁diag 11
▁discrimination 11
▁disrupt 11
▁dissent 11
▁dissip 11
▁disting 11
▁doubles 11
▁drain 11
▁dyst 11
▁educ 11
▁erg 11
▁est 11
▁establ 11
▁exquis 11
▁extraction 11
▁fasc 11
▁fertile 11
▁flop 11
▁franchise 11
▁futures 11
▁gall 11
▁gest 11
▁gour 11
▁habitable 11
▁handic 11
▁hydroph 11
▁iPhones 11
▁impatient 11
▁incl 11
▁incon 11
▁innocence 11
▁inoc 11
▁insec 11
▁interc 11
▁interf 11
▁jewel 11
▁joints 11
▁laund 11
▁lav 11
▁league 11
▁lend 11
▁manipul 11
▁mantra 11
▁meas 11
▁miniatur 11
▁moder 11
▁mour 11
▁myri 11
▁nanot 11
▁nat 11
▁ner 11
▁neuro 11
▁nitr 11
▁nucle 11
▁omn 11
▁ordin 11
▁org 11
▁ou 11
▁pand 11
▁paralle 11
▁pel 11
▁pension 11
▁pesticide 11
▁phosph 11
▁piss 11
▁pri 11
▁princip 11
▁privat 11
▁probable 11
▁protoc 11
▁proton 11
▁pyram 11
▁quart 11
▁ratios 11
▁recharge 11
▁redistrib 11
▁ree 11
▁sig 11
▁smartphone 11
▁soda 11
▁sofa 11
▁som 11
▁sophistication 11
▁spam 11
▁sponsors 11
▁stagn 11
▁stigmat 11
▁submersibles 11
▁substances 11
▁suite 11
▁suspension 11
▁suspicion 11
▁sy 11
▁sympath 11
▁synagogue 11
▁syner 11
▁tab 11
▁temples 11
▁thermo 11
▁thermodynam 11
▁troph 11
▁tunnels 11
▁turbulence 11
▁turbulent 11
▁vers 11
▁vig 11
▁violation 11
▁writ 11
▁yo 11
10 10
Dr 10
Europe 10
Ha 10
Israel 10
Ph 10
War 10
abe 10
abor 10
aby 10
access 10
achel 10
adays 10
adow 10
adows 10
agger 10
aires 10
aise 10
aneously 10
ano 10
anson 10
ao 10
appe 10
assembl 10
atrice 10
balance 10
bras 10
charge 10
circ 10
ckets 10
cod 10
da 10
doch 10
ech 10
elin 10
enh 10
ermin 10
erts 10
esh 10
etus 10
exist 10
flies 10
frame 10
frontal 10
gent 10
geons 10
givers 10
hab 10
hane 10
hertz 10
icides 10
ieval 10
igu 10
ilever 10
iliation 10
imen 10
ingo 10
integr 10
intelligent 10
iro 10
isement 10
isible 10
iterate 10
izzy 10
ji 10
lee 10
lie 10
llo 10
lon 10
lov 10
loy 10
marines 10
mies 10
mind 10
mn 10
mons 10
mor 10
mouth 10
nal 10
ni 10
occus 10
olding 10
ooo 10
oos 10
ophil 10
opping 10
opt 10
ording 10
orge 10
orges 10
orrh 10
osses 10
otter 10
pass 10
pic 10
pit 10
pty 10
qual 10
ready 10
reed 10
roscop 10
scient 10
stru 10
tee 10
theless 10
think 10
town 10
trau 10
uggets 10
ulent 10
umer 10
uper 10
uron 10
usc 10
utable 10
veling 10
vere 10
very 10
ween 10
wick 10
ww 10
ynthetic 10
yo 10
▁17. 10
▁182 10
▁1980, 10
▁1989, 10
▁1999, 10
▁2001. 10
▁2006. 10
▁21, 10
▁240 10
▁30. 10
▁380 10
▁5, 10
▁56 10
▁650 10
▁66 10
▁750 10
▁83 10
▁94 10
▁? 10
▁Adams 10
▁Admin 10
▁Aid 10
▁Allan 10
▁Anonymous 10
▁Aspen 10
▁Aviv 10
▁BMI 10
▁Bat 10
▁Betty 10
▁Beverly 10
▁Bh 10
▁Boeing 10
▁Boltzmann 10
▁Bra 10
▁CDC 10
▁CE 10
▁Calcul 10
▁Capit 10
▁Cargill 10
▁Chap 10
▁Chef 10
▁Clean 10
▁Cohen 10
▁Commons 10
▁Conf 10
▁Cool 10
▁DE 10
▁DMCA 10
▁Delta 10
▁Derartu 10
▁Dewey 10
▁Discovery 10
▁Donnell 10
▁Drake 10
▁Dry 10
▁Eag 10
▁Eb 10
▁Esther 10
▁Extra 10
▁Family 10
▁Fat 10
▁FedEx 10
▁Feel 10
▁Fil 10
▁Fisher 10
▁Form 10
▁Franc 10
▁Fre 10
▁Fri 10
▁Fried 10
▁Fro 10
▁Fuller 10
▁Furby 10
▁Future 10
▁Gall 10
▁Gand 10
▁Ghraib 10
▁Gib 10
▁Gould 10
▁Gra 10
▁Harris 10
▁Hills 10
▁Himalay 10
▁Hole 10
▁Hope 10
▁Humanity 10
▁Hyderabad 10
▁Impossible 10
▁Inf 10
▁Initiative 10
▁JE 10
▁Jabbar 10
▁Kal 10
▁Kaluza 10
▁Kate 10
▁Kle 10
▁Klein 10
▁LHC 10
▁Lat 10
▁Leah 10
▁Linus 10
▁Lion 10
▁Lynn 10
▁Madison 10
▁Malawi 10
▁Manchester 10
▁Maps 10
▁Martha 10
▁Matthieu 10
▁Mellon 10
▁Milan 10
▁Missouri 10
▁Mitchell 10
▁MoMA 10
▁Mot 10
▁Mozambique 10
▁Nan 10
▁Nancy 10
▁Oakland 10
▁Od 10
▁Olymp 10
▁Op 10
▁Orange 10
▁Pand 10
▁Path 10
▁Patient 10
▁Pav 10
▁Pearl 10
▁Pran 10
▁Prego 10
▁Prozac 10
▁Pu 10
▁Pur 10
▁Ranger 10
▁Respons 10
▁Rhode 10
▁Ridge 10
▁Route 10
▁Rovers 10
▁Rw 10
▁SO 10
▁Sciences 10
▁Sergey 10
▁Seymour 10
▁Share 10
▁Shir 10
▁Sor 10
▁Sousa 10
▁Sund 10
▁Sy 10
▁Tiger 10
▁Tulu 10
▁Tyrann 10
▁Ul 10
▁Valent 10
▁Viagra 10
▁Walt 10
▁Warcraft 10
▁Week 10
▁Wildlife 10
▁Woody 10
▁Yor 10
▁Zen 10
▁adaptable 10
▁admiration 10
▁alt 10
▁amput 10
▁analyses 10
▁analyst 10
▁annih 10
▁antique 10
▁append 10
▁applicable 10
▁aquarium 10
▁arrogant 10
▁assembl 10
▁associations 10
▁audac 10
▁avert 10
▁banal 10
▁barb 10
▁barbar 10
▁bioc 10
▁bol 10
▁botan 10
▁brace 10
▁briquettes 10
▁bub 10
▁cabinets 10
▁calam 10
▁capill 10
▁catastrophes 10
▁chant 10
▁chol 10
▁cob 10
▁cockro 10
▁cog 10
▁coher 10
▁compress 10
▁confess 10
▁configurations 10
▁conqu 10
▁conversion 10
▁cooper 10
▁cortisol 10
▁crackers 10
▁cris 10
▁critici 10
▁culmin 10
▁cybor 10
▁decla 10
▁defe 10
▁deliber 10
▁della 10
▁devast 10
▁diff 10
▁dilig 10
▁dire 10
▁dirig 10
▁distraction 10
▁distractions 10
▁divid 10
▁diz 10
▁domination 10
▁earthqu 10
▁econom 10
▁eff 10
▁emplo 10
▁epide 10
▁exh 10
▁expo 10
▁fab 10
▁fier 10
▁forage 10
▁gent 10
▁gratif 10
▁guides 10
▁gum 10
▁gymn 10
▁hallucin 10
▁haw 10
▁hex 10
▁immersion 10
▁immigrants 10
▁immort 10
▁impressions 10
▁inadvert 10
▁inaug 10
▁inclus 10
▁incomp 10
▁incor 10
▁indig 10
▁influenc 10
▁infrastructures 10
▁inqu 10
▁intersect 10
▁iv 10
▁jargon 10
▁jo 10
▁jog 10
▁ju 10
▁lasers 10
▁libr 10
▁mes 10
▁micros 10
▁missiles 10
▁modification 10
▁monolith 10
▁obs 10
▁observable 10
▁od 10
▁oranges 10
▁orph 10
▁orth 10
▁orthop 10
▁oscill 10
▁pH 10
▁pant 10
▁parabol 10
▁paraph 10
▁parasites 10
▁participant 10
▁pedest 10
▁perip 10
▁philosoph 10
▁physi 10
▁plank 10
▁polyg 10
▁polym 10
▁pores 10
▁potassium 10
▁prescriptions 10
▁priorit 10
▁proportions 10
▁propos 10
▁prose 10
▁protagon 10
▁provinces 10
▁proxim 10
▁questionnaire 10
▁recomb 10
▁recyclable 10
▁redes 10
▁rehe 10
▁rej 10
▁rele 10
▁reprogram 10
▁riv 10
▁rival 10
▁robe 10
▁rout 10
▁sac 10
▁sacrifices 10
▁sect 10
▁sid 10
▁skier 10
▁sle 10
▁snob 10
▁sod 10
▁spong 10
▁sprint 10
▁stomatop 10
▁strateg 10
▁stre 10
▁styl 10
▁subdiv 10
▁supercond 10
▁surp 10
▁suspects 10
▁tactile 10
▁ted 10
▁tom 10
▁tomb 10
▁tot 10
▁trem 10
▁triang 10
▁trillions 10
▁tun 10
▁um 10
▁ur 10
▁vari 10
▁variants 10
▁venues 10
▁virulence 10
▁voc 10
▁volatile 10
▁wed 10
▁wis 10
▁wo 10
". 9
+ 9
15 9
:3 9
Af 9
BM 9
DP 9
FC 9
IA 9
IC 9
IP 9
John 9
KEA 9
ML 9
OS 9
Rob 9
Ste 9
Te 9
Tech 9
acement 9
actions 9
agu 9
agues 9
ahs 9
aily 9
aley 9
alf 9
alia 9
aline 9
ammy 9
amour 9
anie 9
apper 9
arc 9
ardin 9
argo 9
asse 9
atar 9
ateful 9
atherine 9
avate 9
avid 9
band 9
belie 9
bie 9
bus 9
cam 9
cend 9
cha 9
chant 9
children 9
cier 9
cour 9
cs 9
cycle 9
din 9
ersh 9
esa 9
estion 9
eston 9
eur 9
expl 9
fing 9
formation 9
friend 9
fs 9
gance 9
harm 9
heim 9
hhhh 9
his 9
histor 9
hu 9
iber 9
icha 9
idity 9
ieber 9
ifier 9
igr 9
ika 9
ikh 9
iler 9
important 9
ingle 9
inked 9
inv 9
iors 9
irs 9
irstream 9
iscipl 9
itous 9
itten 9
itu 9
jad 9
lining 9
llant 9
mach 9
merg 9
mite 9
nation 9
nest 9
oglo 9
ogy 9
oken 9
olk 9
ombe 9
opardy 9
opia 9
opith 9
orget 9
oro 9
orrow 9
orte 9
orum 9
oscop 9
oster 9
othing 9
oton 9
oug 9
ouin 9
perger 9
pet 9
plan 9
portrait 9
press 9
pse 9
ques 9
raf 9
rain 9
rosso 9
roves 9
sem 9
shirts 9
sourcing 9
stein 9
table 9
ture 9
ubes 9
ucker 9
ucl 9
uilt 9
ulg 9
ulture 9
uly 9
uption 9
urer 9
urers 9
urger 9
util 9
vit 9
wan 9
xic 9
yard 9
ynam 9
yond 9
zerb 9
ó 9
▁( 9
▁0 9
▁0.1 9
▁105 9
▁1600 9
▁181 9
▁1967, 9
▁1969, 9
▁1974, 9
▁1976, 9
▁1983. 9
▁1984 9
▁1985, 9
▁1996, 9
▁2009. 9
▁2011. 9
▁203 9
▁2030 9
▁23. 9
▁24, 9
▁70, 9
▁89 9
▁Ach 9
▁Afghans 9
▁Alberto 9
▁Alvin 9
▁Android 9
▁Att 9
▁Aveling 9
▁Bahamas 9
▁Bal 9
▁Baltimore 9
▁Barn 9
▁Beau 9
▁Biology 9
▁Bloom 9
▁Bobby 9
▁Boom 9
▁Bosn 9
▁Box 9
▁Broadway 9
▁Brunel 9
▁Budapest 9
▁Budrus 9
▁Bund 9
▁Cant 9
▁Capgras 9
▁Carson 9
▁Cart 9
▁Cash 9
▁Cauc 9
▁Census 9
▁Chandler 9
▁Chopin 9
▁Clonie 9
▁Code 9
▁Commerce 9
▁Confuci 9
▁Copernic 9
▁Cornell 9
▁Dana 9
▁Dem 9
▁Deng 9
▁Dennett 9
▁Dennis 9
▁Div 9
▁Divergence 9
▁Dod 9
▁Dravid 9
▁Duolingo 9
▁Eli 9
▁Enter 9
▁Ernest 9
▁Evelyn 9
▁Explorer 9
▁FE 9
▁Farmer 9
▁Fermi 9
▁Found 9
▁GB 9
▁Genomics 9
▁Gi 9
▁Gilbert 9
▁Goldman 9
▁Grav 9
▁Greenpeace 9
▁Hamlet 9
▁Hampshire 9
▁Hmm 9
▁Holl 9
▁Hor 9
▁Houston 9
▁Huck 9
▁Humb 9
▁Hunt 9
▁Hunter 9
▁Interest 9
▁Inv 9
▁Ital 9
▁JM 9
▁Jenny 9
▁Jew 9
▁Johannes 9
▁Kaaba 9
▁Kap 9
▁Kerry 9
▁Kiki 9
▁Kleiber 9
▁Kofi 9
▁Kore 9
▁Kurzweil 9
▁Laramie 9
▁Laur 9
▁Layma 9
▁Line 9
▁Lor 9
▁Lower 9
▁Lucifer 9
▁Lyndon 9
▁Marc 9
▁Marduk 9
▁Marines 9
▁Market 9
▁Master 9
▁Match 9
▁Matthew 9
▁McCain 9
▁McN 9
▁Meet 9
▁Mexic 9
▁Micro 9
▁Mort 9
▁Motor 9
▁Muti 9
▁NK 9
▁Naomi 9
▁Nino 9
▁Nixon 9
▁Oklahoma 9
▁Oper 9
▁Opera 9
▁Ot 9
▁Ott 9
▁Paula 9
▁Pauling 9
▁Penn 9
▁Plus 9
▁Pollock 9
▁Pradesh 9
▁Prakash 9
▁Prop 9
▁Pyth 9
▁Queensland 9
▁RCA 9
▁ROD 9
▁Raleigh 9
▁Randi 9
▁Rap 9
▁Rem 9
▁Report 9
▁Richards 9
▁Robb 9
▁Rockett 9
▁Rufus 9
▁SI 9
▁Saf 9
▁Salman 9
▁Sanghamitra 9
▁Sant 9
▁Sin 9
▁Sinclair 9
▁Sky 9
▁Sug 9
▁Sus 9
▁TK 9
▁Tab 9
▁Tata 9
▁Terr 9
▁Test 9
▁Turbo 9
▁Utop 9
▁Velcro 9
▁Vent 9
▁Wagner 9
▁Willie 9
▁Woods 9
▁Yad 9
▁abdomen 9
▁abs 9
▁academ 9
▁accents 9
▁ach 9
▁achie 9
▁alibi 9
▁anthrop 9
▁arsenal 9
▁assistants 9
▁asth 9
▁atmospher 9
▁bale 9
▁brass 9
▁camping 9
▁canal 9
▁cess 9
▁chocol 9
▁classification 9
▁cocon 9
▁coerc 9
▁collisions 9
▁coloss 9
▁commerci 9
▁commod 9
▁compiler 9
▁compression 9
▁conn 9
▁connectomes 9
▁consultant 9
▁consultants 9
▁contagion 9
▁contin 9
▁contractions 9
▁contradictions 9
▁controvers 9
▁conviction 9
▁correction 9
▁crev 9
▁cruc 9
▁cyberc 9
▁cylind 9
▁diab 9
▁divin 9
▁drones 9
▁dut 9
▁efficien 9
▁employer 9
▁engr 9
▁enth 9
▁explosive 9
▁fatigue 9
▁favorable 9
▁fixes 9
▁fluctuation 9
▁flux 9
▁formul 9
▁formulation 9
▁fours 9
▁fract 9
▁fundament 9
▁gastr 9
▁geeks 9
▁gli 9
▁grandm 9
▁gravit 9
▁hectares 9
▁hob 9
▁hominid 9
▁hybr 9
▁hyperb 9
▁incompat 9
▁init 9
▁insc 9
▁intens 9
▁interm 9
▁inters 9
▁intersections 9
▁introdu 9
▁inversion 9
▁jan 9
▁kilo 9
▁kilow 9
▁km 9
▁lad 9
▁lexic 9
▁locom 9
▁lone 9
▁loyal 9
▁macho 9
▁mania 9
▁manusc 9
▁masse 9
▁mater 9
▁microb 9
▁mig 9
▁mitochond 9
▁monit 9
▁murd 9
▁nort 9
▁notable 9
▁nour 9
▁nutrit 9
▁nylon 9
▁obligations 9
▁obstru 9
▁orbital 9
▁os 9
▁pacemaker 9
▁parade 9
▁partisan 9
▁penetr 9
▁pharm 9
▁pic 9
▁plaus 9
▁pleas 9
▁poker 9
▁premier 9
▁prestige 9
▁psycholog 9
▁pub 9
▁puls 9
▁quadruple 9
▁rac 9
▁ram 9
▁reas 9
▁redu 9
▁refus 9
▁regards 9
▁renaissance 9
▁resc 9
▁restrict 9
▁ridicul 9
▁routes 9
▁saf 9
▁scanners 9
▁scooter 9
▁sentiments 9
▁skelet 9
▁smartphones 9
▁snaps 9
▁sop 9
▁sout 9
▁specif 9
▁spectroscop 9
▁spor 9
▁stent 9
▁ster 9
▁supers 9
▁suppression 9
▁tecton 9
▁telev 9
▁tensions 9
▁termites 9
▁terr 9
▁tourn 9
▁trag 9
▁traject 9
▁transactions 9
▁turbines 9
▁ul 9
▁unhe 9
▁vain 9
▁vest 9
▁webs 9
▁wre 9
', 8
-- 8
.- 8
Ad 8
CO 8
Co 8
DA 8
DE 8
EG 8
LL 8
MS 8
Mobile 8
NA 8
NG 8
PC 8
Pro 8
Space 8
UC 8
[ 8
acht 8
aculture 8
afi 8
agell 8
agua 8
aji 8
amen 8
analy 8
andise 8
anine 8
apa 8
appro 8
arder 8
arko 8
armen 8
aro 8
artes 8
ashion 8
asis 8
asma 8
astases 8
atts 8
aval 8
bard 8
bine 8
bos 8
boy 8
bright 8
bum 8
capes 8
chu 8
cib 8
cif 8
cils 8
cuse 8
cuss 8
cyclop 8
dep 8
design 8
enci 8
ende 8
eneurs 8
ensions 8
ente 8
ented 8
ermit 8
esome 8
etti 8
exp 8
ext 8
fa 8
fr 8
gie 8
hol 8
hors 8
hr 8
iable 8
icable 8
icry 8
idences 8
iem 8
iere 8
igrade 8
iki 8
ilocks 8
imin 8
imming 8
imo 8
inet 8
ington 8
inspir 8
insula 8
inters 8
invent 8
ioc 8
irm 8
iron 8
isodes 8
isy 8
ivid 8
jac 8
jour 8
khar 8
ko 8
ksh 8
lich 8
lile 8
log 8
lyn 8
ministration 8
mir 8
mont 8
nels 8
nik 8
oS 8
ocation 8
ograms 8
oit 8
oker 8
olith 8
olutions 8
onaut 8
onents 8
onomic 8
onymous 8
ooth 8
opes 8
osex 8
osoph 8
othy 8
otyp 8
ourg 8
owa 8
owell 8
phil 8
phone 8
po 8
pring 8
quel 8
rad 8
raising 8
rax 8
reci 8
reen 8
resh 8
riel 8
rin 8
rof 8
rolog 8
rome 8
rospective 8
rough 8
rous 8
semble 8
storm 8
strom 8
tan 8
temp 8
tems 8
too 8
ucc 8
ucking 8
untu 8
urance 8
uri 8
urning 8
ussi 8
utions 8
uy 8
vente 8
vention 8
versible 8
vious 8
vo 8
wich 8
ysi 8
zer 8
▁+ 8
▁1950. 8
▁1986, 8
▁1987, 8
▁1991, 8
▁1992, 8
▁1993, 8
▁2020, 8
▁50/ 8
▁60, 8
▁82 8
▁Altos 8
▁Annan 8
▁Anne 8
▁Ansari 8
▁Ant 8
▁Aravind 8
▁Atkins 8
▁BPA 8
▁Ban 8
▁Barcel 8
▁Berm 8
▁Birmingham 8
▁Bonob 8
▁Brent 8
▁Britannica 8
▁Bulg 8
▁Burger 8
▁CB 8
▁CBS 8
▁Capital 8
▁Case 8
▁Cha 8
▁Chad 8
▁Chamb 8
▁Charlotte 8
▁Chaz 8
▁Cheet 8
▁Clarke 8
▁Coach 8
▁Cod 8
▁Columb 8
▁Contemp 8
▁DA 8
▁Daisy 8
▁Dari 8
▁Deb 8
▁Def 8
▁Dhar 8
▁Dodgers 8
▁Dol 8
▁Du 8
▁Durga 8
▁Eh 8
▁Eisenhower 8
▁Enric 8
▁Enron 8
▁Essex 8
▁Express 8
▁Fem 8
▁Fis 8
▁Frankie 8
▁Fraser 8
▁Front 8
▁Gail 8
▁Gamble 8
▁Geoff 8
▁Glad 8
▁Globe 8
▁Gogh 8
▁Gut 8
▁HA 8
▁HAL 8
▁Hansen 8
▁Hardy 8
▁Helen 8
▁Heroes 8
▁Hewlett 8
▁Hob 8
▁Hulk 8
▁Huntington 8
▁Hyperscore 8
▁JF 8
▁JO 8
▁Java 8
▁Jord 8
▁Jr 8
▁Julius 8
▁Justin 8
▁KIPP 8
▁Kant 8
▁Karajan 8
▁Karen 8
▁Kev 8
▁Laurie 8
▁Maine 8
▁Mali 8
▁Masters 8
▁McQueen 8
▁Metropolitan 8
▁Mohamed 8
▁Mori 8
▁NAND 8
▁NBC 8
▁Nad 8
▁Newcastle 8
▁Nirvana 8
▁Noam 8
▁Okin 8
▁Ol 8
▁Om 8
▁Orch 8
▁Orion 8
▁Orkut 8
▁PD 8
▁PJ 8
▁PV 8
▁Pa 8
▁Pardon 8
▁Particip 8
▁Partners 8
▁Philippe 8
▁Pic 8
▁Pond 8
▁Portland 8
▁Portug 8
▁Press 8
▁Prof 8
▁Py 8
▁Question 8
▁RA 8
▁Rah 8
▁Ralph 8
▁Records 8
▁Robin 8
▁Rory 8
▁Rumi 8
▁SK 8
▁SUV 8
▁Sa 8
▁Sacramento 8
▁Sagan 8
▁Saul 8
▁Sav 8
▁Scandinav 8
▁Sebastian 8
▁Selam 8
▁Services 8
▁Seth 8
▁Shreddies 8
▁Spiderman 8
▁Spielberg 8
▁Standard 8
▁Stein 8
▁Tai 8
▁Tech 8
▁Temp 8
▁Termin 8
▁Thatcher 8
▁Theatre 8
▁Thom 8
▁Tig 8
▁Tipper 8
▁Tit 8
▁Tob 8
▁Tomb 8
▁Torah 8
▁Trib 8
▁Twain 8
▁USB 8
▁Umar 8
▁Verizon 8
▁Vibrio 8
▁Vie 8
▁Volvo 8
▁Vul 8
▁Whirlwind 8
▁Whitney 8
▁Wild 8
▁Wolf 8
▁Wurman 8
▁Xiaoping 8
▁Yahoo 8
▁Yo 8
▁Yochai 8
▁[... 8
▁adaptations 8
▁alb 8
▁amen 8
▁anecdotes 8
▁apolog 8
▁approxim 8
▁apt 8
▁arable 8
▁arbitr 8
▁associ 8
▁astrophys 8
▁athe 8
▁augmentation 8
▁aur 8
▁avatars 8
▁barr 8
▁bask 8
▁biling 8
▁biolog 8
▁bosses 8
▁bot 8
▁bowling 8
▁brainstorming 8
▁camer 8
▁cant 8
▁carb 8
▁catar 8
▁cellul 8
▁chan 8
▁chass 8
▁chimp 8
▁cite 8
▁clones 8
▁comme 8
▁commun 8
▁confir 8
▁constellations 8
▁conven 8
▁convictions 8
▁coron 8
▁cosmopol 8
▁costume 8
▁coun 8
▁cour 8
▁crayons 8
▁deg 8
▁delta 8
▁dermat 8
▁diarrhe 8
▁diesel 8
▁discontin 8
▁dissert 8
▁dissonance 8
▁distributions 8
▁dit 8
▁diverg 8
▁doctrine 8
▁dragon 8
▁dum 8
▁enj 8
▁enthusi 8
▁entit 8
▁err 8
▁estimation 8
▁euphor 8
▁exempl 8
▁explos 8
▁fant 8
▁fid 8
▁fist 8
▁formations 8
▁forums 8
▁fracture 8
▁freed 8
▁fright 8
▁frustr 8
▁gasp 8
▁geys 8
▁gradients 8
▁grands 8
▁gyre 8
▁halluc 8
▁hamburgers 8
▁humming 8
▁ille 8
▁implic 8
▁impossi 8
▁industri 8
▁infiltr 8
▁instinctive 8
▁interstell 8
▁intrig 8
▁laparoscop 8
▁liqu 8
▁lux 8
▁mafia 8
▁mart 8
▁massacre 8
▁menus 8
▁microfluid 8
▁miser 8
▁mono 8
▁mov 8
▁muffin 8
▁multicell 8
▁muse 8
▁mutants 8
▁nanopart 8
▁nav 8
▁neutr 8
▁neutrino 8
▁neutrinos 8
▁niches 8
▁nos 8
▁oasis 8
▁oct 8
▁oppos 8
▁ornith 8
▁ot 8
▁pap 8
▁parap 8
▁pens 8
▁phen 8
▁photocop 8
▁photosynth 8
▁photov 8
▁placenta 8
▁podium 8
▁pointer 8
▁porridge 8
▁positives 8
▁possession 8
▁prairie 8
▁presum 8
▁prototy 8
▁purg 8
▁rails 8
▁recogn 8
▁redef 8
▁refr 8
▁rejo 8
▁remar 8
▁resident 8
▁restriction 8
▁rude 8
▁sacr 8
▁saint 8
▁sched 8
▁scrotum 8
▁sermon 8
▁sever 8
▁spat 8
▁spectacle 8
▁storyte 8
▁strugg 8
▁suicid 8
▁sulf 8
▁tant 8
▁tempo 8
▁tempt 8
▁tir 8
▁transplantation 8
▁traumat 8
▁tub 8
▁ug 8
▁unst 8
▁valent 8
▁vant 8
▁vect 8
▁venue 8
▁volunt 8
▁wal 8
▁ware 8
▁webcam 8
▁zinc 8
100 7
16 7
18 7
Art 7
EF 7
Es 7
GF 7
Hell 7
ISA 7
TTP 7
abo 7
about 7
abus 7
acas 7
aced 7
achy 7
acqu 7
adap 7
adema 7
adi 7
aig 7
ando 7
anti 7
anz 7
ardi 7
aret 7
arez 7
arta 7
asso 7
atement 7
atif 7
atom 7
atr 7
atures 7
atz 7
aurus 7
bec 7
bi 7
cas 7
chester 7
clamation 7
colon 7
cope 7
corn 7
cre 7
dale 7
dig 7
dinger 7
dou 7
elcome 7
emb 7
enne 7
enter 7
ertain 7
ertips 7
erves 7
erving 7
esc 7
esia 7
estro 7
etes 7
eties 7
fect 7
feld 7
gger 7
gh 7
gian 7
hern 7
hero 7
iately 7
iazza 7
iba 7
ibuprof 7
icelli 7
icket 7
ida 7
idation 7
iffel 7
ighth 7
igner 7
ikes 7
illiard 7
illusion 7
inct 7
inda 7
inea 7
inson 7
inst 7
interp 7
introdu 7
ione 7
ipel 7
iphytes 7
irling 7
irlwind 7
isit 7
isp 7
itage 7
itations 7
itches 7
iti 7
izational 7
jet 7
kman 7
lication 7
machine 7
mets 7
mpt 7
ocken 7
ocort 7
odox 7
okines 7
olon 7
omen 7
omic 7
onf 7
open 7
opol 7
opolit 7
orable 7
orden 7
orestation 7
oret 7
orient 7
orter 7
osia 7
osn 7
otho 7
otypes 7
ounts 7
ouver 7
owder 7
phen 7
pol 7
ptop 7
qa 7
quer 7
quez 7
qui 7
ription 7
riptions 7
road 7
rodu 7
rowning 7
roy 7
sch 7
sen 7
sens 7
stop 7
tem 7
tree 7
uary 7
ucks 7
ucky 7
uctor 7
ufact 7
ully 7
umor 7
univers 7
unta 7
uros 7
ursion 7
usions 7
vard 7
via 7
viv 7
wl 7
xim 7
yan 7
yer 7
yright 7
zo 7
▁"... 7
▁, 7
▁/ 7
▁1,7 7
▁102 7
▁103 7
▁145 7
▁1500 7
▁165 7
▁1900, 7
▁1928, 7
▁1945. 7
▁1957, 7
▁1985 7
▁1986. 7
▁1991. 7
▁204 7
▁59 7
▁69 7
▁77 7
▁88 7
▁= 7
▁AMD 7
▁Abs 7
▁Aless 7
▁Ans 7
▁Argentine 7
▁Aristote 7
▁Arnold 7
▁Ave 7
▁Ay 7
▁Bau 7
▁Beijerinck 7
▁Belg 7
▁Bert 7
▁Bezos 7
▁Biaf 7
▁Bog 7
▁Bombay 7
▁Bradley 7
▁Buen 7
▁Buick 7
▁Cambod 7
▁Carr 7
▁Certain 7
▁Chan 7
▁Cheetos 7
▁Chen 7
▁Ches 7
▁Chron 7
▁Cliff 7
▁Cloud 7
▁Cody 7
▁Command 7
▁Contin 7
▁Cousteau 7
▁DAR 7
▁Dai 7
▁Dakota 7
▁Dar 7
▁Dav 7
▁Den 7
▁Descartes 7
▁Dig 7
▁Discover 7
▁Donna 7
▁Dracorex 7
▁Durkheim 7
▁ELA 7
▁Engelbart 7
▁Extre 7
▁Fildes 7
▁Fluctus 7
▁Fore 7
▁Gard 7
▁Goldberg 7
▁Gui 7
▁HD 7
▁Hab 7
▁Harri 7
▁Heinz 7
▁Herman 7
▁Hist 7
▁Holly 7
▁III 7
▁Idris 7
▁Images 7
▁Indra 7
▁Inte 7
▁Intelligent 7
▁Jans 7
▁Jet 7
▁Joplin 7
▁Josh 7
▁Kath 7
▁Katie 7
▁Kazakhstan 7
▁Keene 7
▁Knee 7
▁Krypton 7
▁LC 7
▁LOL 7
▁Leban 7
▁Lifesaver 7
▁Linked 7
▁Liz 7
▁Locke 7
▁Lucas 7
▁MTV 7
▁Mahabharata 7
▁Malé 7
▁Manju 7
▁Marie 7
▁Maya 7
▁McDon 7
▁McMurdo 7
▁Merc 7
▁Mercedes 7
▁Milly 7
▁Mmm 7
▁Moh 7
▁Moi 7
▁Molly 7
▁Monte 7
▁Myhrvold 7
▁NBA 7
▁Nash 7
▁Nich 7
▁Niels 7
▁Nin 7
▁Nint 7
▁Oldenburg 7
▁Ols 7
▁PMT 7
▁PSA 7
▁Palin 7
▁Patriot 7
▁Pei 7
▁Pixar 7
▁Pleo 7
▁Popcorn 7
▁Prin 7
▁Queens 7
▁RW 7
▁Ragu 7
▁Randy 7
▁Ras 7
▁Reddit 7
▁Reuters 7
▁Rh 7
▁Rita 7
▁Ritchie 7
▁Robinson 7
▁Rockwell 7
▁Rossy 7
▁Sai 7
▁Sans 7
▁Sarg 7
▁Sculpe 7
▁Seva 7
▁Ske 7
▁Sophia 7
▁Sovi 7
▁Spir 7
▁Stre 7
▁Stuart 7
▁TE 7
▁Tib 7
▁Treasure 7
▁Tro 7
▁Ug 7
▁Ven 7
▁Vir 7
▁Voyager 7
▁Yam 7
▁Yanke 7
▁Yellowstone 7
▁Zapp 7
▁absent 7
▁abus 7
▁acade 7
▁adequ 7
▁alliances 7
▁analyt 7
▁ancest 7
▁antenn 7
▁appli 7
▁approximation 7
▁arist 7
▁ascend 7
▁assurance 7
▁attent 7
▁au 7
▁bandages 7
▁barbecue 7
▁ben 7
▁bifur 7
▁bion 7
▁biscuits 7
▁bla 7
▁brochure 7
▁calend 7
▁canon 7
▁canyon 7
▁cape 7
▁capsules 7
▁carc 7
▁carte 7
▁centrifuge 7
▁cerv 7
▁cig 7
▁climat 7
▁clitoris 7
▁clos 7
▁cocktails 7
▁coff 7
▁conduit 7
▁confirmation 7
▁connot 7
▁conserv 7
▁consid 7
▁consortium 7
▁contro 7
▁costumes 7
▁coy 7
▁crocodiles 7
▁delic 7
▁descends 7
▁dessert 7
▁destin 7
▁diaspora 7
▁dign 7
▁diner 7
▁disag 7
▁dispose 7
▁disputes 7
▁doc 7
▁doctrines 7
▁dors 7
▁eh 7
▁emerg 7
▁erad 7
▁evol 7
▁excite 7
▁extern 7
▁fai 7
▁fam 7
▁fantas 7
▁favela 7
▁fermentation 7
▁filament 7
▁fir 7
▁fischeri 7
▁fluctu 7
▁fluorescence 7
▁foyer 7
▁fragmentation 7
▁frat 7
▁gavage 7
▁geomet 7
▁gly 7
▁gradu 7
▁gratuit 7
▁guer 7
▁gym 7
▁heav 7
▁hectare 7
▁hel 7
▁hers 7
▁hmm 7
▁horizont 7
▁hous 7
▁iTunes 7
▁idiots 7
▁illustrations 7
▁imag 7
▁imb 7
▁impro 7
▁improb 7
▁insid 7
▁interconnect 7
▁interrup 7
▁invari 7
▁irrespons 7
▁isotopes 7
▁issu 7
▁juven 7
▁kang 7
▁lar 7
▁lest 7
▁lou 7
▁lumines 7
▁mach 7
▁mak 7
▁mangrove 7
▁mant 7
▁maths 7
▁medic 7
▁mens 7
▁miner 7
▁mixt 7
▁mosquit 7
▁motel 7
▁motive 7
▁muff 7
▁municipal 7
▁mush 7
▁nar 7
▁narc 7
▁ni 7
▁ont 7
▁ore 7
▁penc 7
▁pent 7
▁phenomen 7
▁pins 7
▁pirates 7
▁placement 7
▁plumes 7
▁professions 7
▁prog 7
▁prolifer 7
▁pulmon 7
▁reconfig 7
▁relig 7
▁restrictions 7
▁restru 7
▁rhin 7
▁rhyth 7
▁roy 7
▁rudiment 7
▁sari 7
▁scorp 7
▁sculp 7
▁segments 7
▁spectac 7
▁stagnation 7
▁stumble 7
▁stun 7
▁summ 7
▁superstar 7
▁supervision 7
▁symph 7
▁tamp 7
▁techno 7
▁teen 7
▁thor 7
▁toler 7
▁trainer 7
▁transg 7
▁transpl 7
▁trave 7
▁trim 7
▁triv 7
▁unpre 7
▁vaccination 7
▁val 7
▁vas 7
▁vigil 7
▁vint 7
▁violations 7
▁volat 7
▁wheelch 7
▁ya 7
@ 6
AT 6
Ab 6
Arab 6
Bot 6
EP 6
El 6
Har 6
Iraq 6
Islam 6
Je 6
LA 6
NES 6
PI 6
PT 6
Qu 6
ST 6
abes 6
ahar 6
aits 6
alent 6
ambigu 6
amis 6
anne 6
anth 6
anze 6
areness 6
asant 6
astics 6
atlant 6
atre 6
attach 6
auv 6
bure 6
cation 6
chers 6
chlor 6
cipation 6
cter 6
dimension 6
duct 6
edom 6
educ 6
ela 6
engage 6
enue 6
epend 6
ept 6
equ 6
ergy 6
estone 6
etheless 6
ettes 6
etz 6
fil 6
gard 6
garde 6
geria 6
gest 6
going 6
govern 6
grow 6
hod 6
iam 6
iazz 6
ications 6
ictions 6
ige 6
ii 6
ilians 6
ilo 6
impl 6
inement 6
information 6
isans 6
ishna 6
issi 6
itant 6
itchen 6
ither 6
keys 6
lant 6
lict 6
liest 6
lles 6
llig 6
lobal 6
mart 6
member 6
mergence 6
nu 6
obiles 6
ogr 6
olutely 6
omo 6
onges 6
onstr 6
onstru 6
ophiles 6
opot 6
oque 6
oran 6
ortex 6
osity 6
oule 6
ources 6
ouss 6
outer 6
ovirus 6
pa 6
percussions 6
pless 6
por 6
pour 6
ppe 6
prit 6
rait 6
rer 6
respons 6
rines 6
rique 6
rite 6
roir 6
ropol 6
rov 6
rypt 6
sembly 6
ses 6
soci 6
ss 6
stitut 6
stitution 6
suff 6
tein 6
tell 6
teries 6
til 6
tit 6
uds 6
ument 6
umes 6
undi 6
union 6
upt 6
uras 6
urban 6
usement 6
vasive 6
version 6
vey 6
vie 6
vous 6
wis 6
xi 6
yons 6
zu 6
é 6
▁1,4 6
▁1000 6
▁1800, 6
▁1900. 6
▁1982, 6
▁2015. 6
▁51 6
▁80, 6
▁9, 6
▁99, 6
▁Ath 6
▁Aur 6
▁Beat 6
▁Blackberry 6
▁Bow 6
▁Camb 6
▁Charl 6
▁Cher 6
▁Compar 6
▁Connect 6
▁Crai 6
▁DC 6
▁DD 6
▁Diff 6
▁Dj 6
▁Dou 6
▁Dublin 6
▁ET 6
▁Eis 6
▁Extr 6
▁FM 6
▁Foster 6
▁Ghan 6
▁Giacometti 6
▁Gro 6
▁Haven 6
▁Heidi 6
▁Hil 6
▁Hous 6
▁Hub 6
▁Ill 6
▁Ka 6
▁Kenn 6
▁Kosov 6
▁LA 6
▁Labor 6
▁Lang 6
▁Lest 6
▁Lester 6
▁Li 6
▁Libert 6
▁Lin 6
▁Magn 6
▁Mess 6
▁Milli 6
▁Morgan 6
▁Motors 6
▁Mut 6
▁Nam 6
▁Nord 6
▁Orient 6
▁Parks 6
▁Philips 6
▁Place 6
▁Platon 6
▁Ple 6
▁Prom 6
▁Rajasthan 6
▁Robot 6
▁SU 6
▁Sac 6
▁Sah 6
▁Secret 6
▁Serge 6
▁Ses 6
▁Siber 6
▁Spider 6
▁Stevens 6
▁Tanzan 6
▁Technologies 6
▁Temple 6
▁Toy 6
▁Vel 6
▁Wik 6
▁Zach 6
▁absorbent 6
▁abstr 6
▁adorable 6
▁agit 6
▁ais 6
▁analy 6
▁antic 6
▁antiqu 6
▁arb 6
▁assim 6
▁assis 6
▁astr 6
▁auth 6
▁avant 6
▁backp 6
▁bacter 6
▁batter 6
▁ber 6
▁bluff 6
▁brev 6
▁caf 6
▁calcul 6
▁cathed 6
▁cert 6
▁coco 6
▁combin 6
▁console 6
▁contam 6
▁convulsions 6
▁corp 6
▁corps 6
▁cum 6
▁deme 6
▁democr 6
▁demograph 6
▁dete 6
▁determin 6
▁divisions 6
▁doubl 6
▁dragonf 6
▁dur 6
▁enr 6
▁estim 6
▁eup 6
▁eut 6
▁explorations 6
▁fem 6
▁filaments 6
▁fol 6
▁foul 6
▁frank 6
▁fut 6
▁futur 6
▁gau 6
▁gaz 6
▁glam 6
▁guit 6
▁handicap 6
▁hipp 6
▁hydrocar 6
▁immed 6
▁incar 6
▁incess 6
▁insens 6
▁instit 6
▁insuff 6
▁lame 6
▁lifesp 6
▁lig 6
▁marath 6
▁migraines 6
▁mir 6
▁modifications 6
▁moist 6
▁mons 6
▁monstr 6
▁municip 6
▁nostalg 6
▁occupations 6
▁outc 6
▁overwhelm 6
▁parab 6
▁parachutes 6
▁passages 6
▁pauses 6
▁pend 6
▁pi 6
▁pict 6
▁pixel 6
▁plantation 6
▁plume 6
▁poign 6
▁polit 6
▁pou 6
▁profane 6
▁propane 6
▁propositions 6
▁proto 6
▁provin 6
▁ps 6
▁purp 6
▁quadrill 6
▁radios 6
▁rein 6
▁rend 6
▁repr 6
▁rept 6
▁resp 6
▁retard 6
▁revel 6
▁rhinovirus 6
▁sage 6
▁saints 6
▁shel 6
▁signatures 6
▁signif 6
▁simult 6
▁sla 6
▁stad 6
▁struct 6
▁stud 6
▁stup 6
▁subatom 6
▁submerg 6
▁susp 6
▁synd 6
▁thresh 6
▁trib 6
▁trig 6
▁turb 6
▁vase 6
▁vel 6
▁veloc 6
▁venge 6
▁viscer 6
▁voila 6
▁volant 6
▁volum 6
▁vou 6
▁voy 6
▁– 6
'. 5
* 5
At 5
Ben 5
DF 5
Des 5
ET 5
Internet 5
Iran 5
Map 5
OD 5
PTC 5
PTCHA 5
SS 5
US 5
aci 5
adder 5
agas 5
akery 5
aland 5
aller 5
altitude 5
amie 5
anas 5
apest 5
apol 5
apon 5
apor 5
articul 5
artisan 5
assi 5
associ 5
ateg 5
atever 5
atters 5
aucr 5
authent 5
avo 5
bean 5
cession 5
chell 5
cill 5
contr 5
cro 5
cue 5
culture 5
eday 5
effect 5
ellow 5
esaver 5
esterday 5
estimate 5
estimation 5
fare 5
fi 5
gas 5
geant 5
giving 5
gypt 5
hib 5
houette 5
hyl 5
iale 5
iana 5
iday 5
idi 5
iences 5
ifice 5
inci 5
inctions 5
inid 5
inse 5
invest 5
ipl 5
ique 5
iques 5
irement 5
isco 5
isse 5
itives 5
lace 5
lav 5
lib 5
mann 5
mim 5
minist 5
mony 5
mos 5
nant 5
neath 5
normal 5
ochond 5
ocide 5
odel 5
odore 5
ographies 5
olars 5
ologues 5
onna 5
onner 5
onnexions 5
onst 5
opter 5
orch 5
orie 5
orp 5
orr 5
ossi 5
oufl 5
ouvre 5
pain 5
phins 5
pora 5
ported 5
pris 5
prits 5
quet 5
rete 5
rets 5
rez 5
ripp 5
ronom 5
ropos 5
rors 5
rus 5
sembles 5
serv 5
sible 5
sour 5
techn 5
tz 5
uge 5
uin 5
uition 5
uler 5
ulse 5
ulum 5
uments 5
uptions 5
uries 5
usage 5
usses 5
uture 5
viewer 5
wart 5
ã 5
ü 5
▁1980. 5
▁1990. 5
▁6, 5
▁Abe 5
▁Baron 5
▁Belle 5
▁Blanc 5
▁Bomb 5
▁Braz 5
▁Broad 5
▁Canad 5
▁Ces 5
▁Cheval 5
▁Coch 5
▁Comment 5
▁Conn 5
▁Cost 5
▁Coun 5
▁Dub 5
▁Entre 5
▁Fal 5
▁Fran 5
▁GP 5
▁Georg 5
▁Hun 5
▁Ja 5
▁Jam 5
▁Jour 5
▁Lank 5
▁Leonard 5
▁Madame 5
▁Mell 5
▁Mi 5
▁Nab 5
▁Namib 5
▁Narr 5
▁Object 5
▁Particul 5
▁Pent 5
▁Perm 5
▁Porto 5
▁Pug 5
▁Quant 5
▁Qui 5
▁Raj 5
▁Russ 5
▁SLA 5
▁Sarajevo 5
▁Sec 5
▁Sep 5
▁Stan 5
▁Swed 5
▁Vers 5
▁Vis 5
▁Wood 5
▁ack 5
▁admir 5
▁affirmation 5
▁alcoh 5
▁ambitions 5
▁antip 5
▁appro 5
▁architectures 5
▁arrog 5
▁audit 5
▁barrage 5
▁biomim 5
▁bor 5
▁bord 5
▁cac 5
▁cann 5
▁capit 5
▁captiv 5
▁caval 5
▁centen 5
▁chariot 5
▁chute 5
▁cing 5
▁coc 5
▁coch 5
▁coffe 5
▁coh 5
▁compil 5
▁conject 5
▁conse 5
▁constru 5
▁contempor 5
▁contours 5
▁cot 5
▁coupons 5
▁crimin 5
▁cuisine 5
▁cybercrimin 5
▁denomin 5
▁diap 5
▁dissim 5
▁divert 5
▁dru 5
▁dup 5
▁dus 5
▁elabor 5
▁embr 5
▁emph 5
▁enabl 5
▁encyclop 5
▁enorm 5
▁ess 5
▁eu 5
▁exemp 5
▁exper 5
▁fals 5
▁fascin 5
▁favelas 5
▁fi 5
▁finances 5
▁flor 5
▁font 5
▁formidable 5
▁gangl 5
▁grandiose 5
▁gravitation 5
▁gren 5
▁hist 5
▁hors 5
▁iP 5
▁ic 5
▁idi 5
▁incapable 5
▁inevit 5
▁interv 5
▁interviewer 5
▁intuit 5
▁inverse 5
▁invol 5
▁irrig 5
▁lament 5
▁lanc 5
▁laps 5
▁lex 5
▁lib 5
▁lud 5
▁magnific 5
▁marches 5
▁metaph 5
▁microscop 5
▁migrations 5
▁module 5
▁monot 5
▁murm 5
▁mute 5
▁nette 5
▁nit 5
▁nuis 5
▁obser 5
▁orn 5
▁ost 5
▁parce 5
▁parl 5
▁pars 5
▁partons 5
▁pasteur 5
▁pathologies 5
▁perp 5
▁phil 5
▁pneum 5
▁pollut 5
▁postal 5
▁princes 5
▁priori 5
▁provisions 5
▁pseudo 5
▁publications 5
▁quasi 5
▁rand 5
▁rapport 5
▁riches 5
▁rotor 5
▁sab 5
▁sanction 5
▁sexes 5
▁sinus 5
▁squatters 5
▁suc 5
▁suspend 5
▁symmet 5
▁tac 5
▁testim 5
▁tex 5
▁textures 5
▁tranqu 5
▁transpar 5
▁traverse 5
▁tribunal 5
▁trit 5
▁trium 5
▁trot 5
▁ubiqu 5
▁vert 5
▁yog 5
▁youn 5
▁zig 5
...] 4
Ap 4
Atlant 4
Aut 4
Av 4
Car 4
IV 4
LS 4
La 4
OC 4
OMS 4
Pr 4
Que 4
Tr 4
aband 4
aceut 4
agan 4
aimer 4
aisy 4
alie 4
alies 4
allow 4
amin 4
amus 4
ancers 4
andering 4
ansion 4
anxi 4
appropri 4
aqu 4
asha 4
asions 4
atell 4
atta 4
attr 4
avage 4
aware 4
awater 4
bage 4
bler 4
bons 4
came 4
cers 4
chev 4
ciation 4
cipher 4
cir 4
cis 4
cko 4
ctures 4
del 4
ecine 4
ees 4
elier 4
enda 4
enew 4
engagement 4
engers 4
ength 4
enser 4
ensus 4
enture 4
enty 4
erci 4
erre 4
ersion 4
esse 4
essent 4
esses 4
este 4
estin 4
etown 4
evity 4
exerc 4
exploration 4
extinction 4
fiction 4
ghan 4
hone 4
iane 4
ibi 4
icien 4
idges 4
idimension 4
iez 4
ifi 4
ihad 4
ilent 4
ilities 4
illes 4
imagine 4
infl 4
inj 4
isha 4
isons 4
istrib 4
itivity 4
ivalent 4
ivals 4
izabeth 4
jud 4
lah 4
lem 4
lopp 4
lusion 4
mails 4
mospher 4
mph 4
nants 4
nov 4
ocal 4
oder 4
odor 4
oeil 4
oenix 4
ogan 4
ogether 4
ograp 4
oie 4
olent 4
olfe 4
olia 4
oline 4
ologue 4
olution 4
oman 4
once 4
oncert 4
onsense 4
onte 4
oots 4
opard 4
opards 4
ophone 4
original 4
orking 4
osse 4
otch 4
otechn 4
otions 4
ourd 4
ourne 4
owe 4
oyant 4
rai 4
rane 4
rastru 4
rement 4
rible 4
rices 4
riment 4
robi 4
rose 4
rosh 4
roviral 4
rr 4
shore 4
sold 4
stitutions 4
tails 4
thur 4
uins 4
ulu 4
umann 4
underst 4
urgers 4
urop 4
user 4
usters 4
uum 4
vern 4
viously 4
wear 4
weeney 4
è 4
éli 4
▁--" 4
▁--- 4
▁1,2 4
▁1930, 4
▁80. 4
▁Aj 4
▁Alt 4
▁Amaz 4
▁Arr 4
▁Asi 4
▁Attention 4
▁BD 4
▁Bah 4
▁Bangl 4
▁Bibl 4
▁Bil 4
▁CN 4
▁Civ 4
▁Constru 4
▁Cour 4
▁DV 4
▁Dak 4
▁Dal 4
▁Dipl 4
▁Diver 4
▁Donne 4
▁FA 4
▁FOX 4
▁Fam 4
▁Furb 4
▁Gam 4
▁Glo 4
▁Grande 4
▁Hero 4
▁Hop 4
▁Hos 4
▁Hundred 4
▁Incred 4
▁Kaz 4
▁Lad 4
▁Manifest 4
▁Mit 4
▁Naz 4
▁Nep 4
▁Noir 4
▁Note 4
▁Oak 4
▁Pac 4
▁Que 4
▁Recent 4
▁Ren 4
▁Rog 4
▁Sadd 4
▁Sat 4
▁Soleil 4
▁Soph 4
▁TT 4
▁Trop 4
▁Une 4
▁Vict 4
▁Vo 4
▁Wa 4
▁Watt 4
▁Wo 4
▁Yah 4
▁Zip 4
▁accr 4
▁accus 4
▁aerodynam 4
▁agr 4
▁anecd 4
▁antidepress 4
▁appare 4
▁appropri 4
▁ardu 4
▁arsen 4
▁attendant 4
▁austral 4
▁authent 4
▁avail 4
▁beaut 4
▁bene 4
▁bil 4
▁bonobos 4
▁candid 4
▁carav 4
▁cascades 4
▁censors 4
▁certific 4
▁cetera 4
▁cla 4
▁cock 4
▁compart 4
▁compat 4
▁comprise 4
▁concent 4
▁concession 4
▁conclus 4
▁concurr 4
▁consequ 4
▁conspir 4
▁constell 4
▁consultation 4
▁continu 4
▁corpor 4
▁crayon 4
▁criter 4
▁critique 4
▁crowdsourcing 4
▁crypt 4
▁cu 4
▁curric 4
▁datab 4
▁dess 4
▁dir 4
▁disson 4
▁dosage 4
▁dram 4
▁dues 4
▁eld 4
▁ench 4
▁encore 4
▁ensemble 4
▁env 4
▁ethn 4
▁explan 4
▁explor 4
▁exponent 4
▁exporter 4
▁expos 4
▁facult 4
▁fas 4
▁fest 4
▁filtr 4
▁fum 4
▁fuzz 4
▁genre 4
▁glob 4
▁grandeur 4
▁grav 4
▁grin 4
▁grocer 4
▁guarante 4
▁guid 4
▁guise 4
▁hab 4
▁habitu 4
▁horizons 4
▁hormonal 4
▁impatients 4
▁improviser 4
▁incont 4
▁incred 4
▁inexpl 4
▁insul 4
▁interne 4
▁intest 4
▁intestin 4
▁intra 4
▁jung 4
▁kidnapp 4
▁lang 4
▁lith 4
▁maneu 4
▁marsh 4
▁masculin 4
▁millenn 4
▁mirac 4
▁mm 4
▁mole 4
▁mont 4
▁multim 4
▁mur 4
▁num 4
▁obst 4
▁occ 4
▁octop 4
▁ode 4
▁offs 4
▁overse 4
▁pardon 4
▁pari 4
▁partition 4
▁perplex 4
▁plac 4
▁pregn 4
▁prepar 4
▁prest 4
▁programm 4
▁prolong 4
▁quadrup 4
▁raf 4
▁raisin 4
▁raisins 4
▁ras 4
▁recharg 4
▁recl 4
▁recons 4
▁reconst 4
▁reins 4
▁relat 4
▁requis 4
▁respiration 4
▁restric 4
▁robes 4
▁roses 4
▁scaff 4
▁scen 4
▁sci 4
▁scoot 4
▁serpent 4
▁spons 4
▁sug 4
▁suic 4
▁superm 4
▁surg 4
▁synesth 4
▁tenant 4
▁tenu 4
▁thro 4
▁tox 4
▁trach 4
▁transformer 4
▁trompe 4
▁tsun 4
▁tyrann 4
▁ultr 4
▁vib 4
▁victor 4
▁vie 4
▁viv 4
▁vom 4
▁voter 4
", 3
$ 3
'" 3
.: 3
000 3
= 3
ARS 3
Air 3
Bon 3
DN 3
EA 3
Human 3
II 3
IPP 3
Il 3
Iv 3
Mon 3
ND 3
TM 3
USC 3
^ 3
acent 3
adolescence 3
agos 3
agr 3
agra 3
ailles 3
aines 3
akh 3
akistan 3
alc 3
alem 3
alous 3
aments 3
amines 3
analys 3
andis 3
angers 3
apartheid 3
apot 3
apy 3
aque 3
arb 3
arti 3
asser 3
assurance 3
assé 3
aughters 3
aure 3
auth 3
avez 3
awi 3
bors 3
bou 3
bridge 3
bru 3
cats 3
caux 3
chron 3
cit 3
clam 3
eches 3
eller 3
enburg 3
ennett 3
enrich 3
entures 3
enu 3
environ 3
eren 3
erver 3
existence 3
fund 3
gets 3
gments 3
gras 3
habit 3
hops 3
horn 3
iar 3
ibo 3
icion 3
icip 3
ideo 3
ienne 3
iens 3
ierra 3
ifully 3
igan 3
illage 3
illions 3
imat 3
impact 3
infect 3
infin 3
instru 3
intellig 3
iogen 3
irer 3
irus 3
isan 3
itime 3
iversity 3
lease 3
levant 3
lys 3
merce 3
merge 3
mie 3
mploy 3
neries 3
nons 3
nost 3
nous 3
object 3
occupation 3
occur 3
ocent 3
ohen 3
ohn 3
oire 3
olas 3
olet 3
olie 3
omin 3
onger 3
orer 3
osion 3
ossible 3
osys 3
otel 3
oust 3
oute 3
overn 3
parents 3
pas 3
pent 3
phin 3
pox 3
pte 3
quette 3
quin 3
quoi 3
raille 3
rann 3
ressions 3
rice 3
ridge 3
rir 3
rition 3
rium 3
roid 3
romos 3
sis 3
stit 3
stitute 3
store 3
strong 3
tant 3
terr 3
thers 3
trait 3
udi 3
uent 3
uild 3
uits 3
umi 3
undred 3
unte 3
uons 3
urgence 3
uste 3
ustr 3
vision 3
whe 3
wid 3
width 3
yers 3
ä 3
ès 3
▁1/ 3
▁1970. 3
▁60. 3
▁Argent 3
▁Benj 3
▁Bever 3
▁Bien 3
▁Ble 3
▁Bolt 3
▁Bon 3
▁Bravo 3
▁Bron 3
▁Buck 3
▁Californ 3
▁Capt 3
▁Caroline 3
▁Cath 3
▁Centre 3
▁Chand 3
▁Cis 3
▁Clar 3
▁Constitution 3
▁Corp 3
▁Dame 3
▁Desp 3
▁Dur 3
▁Eff 3
▁Environ 3
▁Faire 3
▁Fait 3
▁Fest 3
▁Flu 3
▁Gap 3
▁Gil 3
▁Gill 3
▁Gir 3
▁Hein 3
▁Hen 3
▁Imagin 3
▁Indones 3
▁Intern 3
▁Ira 3
▁JP 3
▁Johan 3
▁Kathryn 3
▁Kell 3
▁Keny 3
▁Lay 3
▁Lif 3
▁Mahab 3
▁McL 3
▁Mond 3
▁Naj 3
▁Neg 3
▁Num 3
▁Photosh 3
▁Prem 3
▁Rac 3
▁Saud 3
▁Schwarz 3
▁Seb 3
▁Soci 3
▁Somet 3
▁Sop 3
▁Stock 3
▁Stuxnet 3
▁Sud 3
▁Tch 3
▁Venez 3
▁Virt 3
▁Wed 3
▁Wikip 3
▁Zo 3
▁abd 3
▁absorber 3
▁abst 3
▁accomp 3
▁aesth 3
▁affl 3
▁agnost 3
▁ambul 3
▁angiogen 3
▁announ 3
▁anten 3
▁anxi 3
▁appar 3
▁ard 3
▁ascension 3
▁aster 3
▁atro 3
▁attends 3
▁aval 3
▁bapt 3
▁bes 3
▁bicycl 3
▁biod 3
▁biof 3
▁bou 3
▁bron 3
▁brow 3
▁bure 3
▁cache 3
▁calc 3
▁campaig 3
▁canop 3
▁carton 3
▁cascade 3
▁cha 3
▁changer 3
▁chauffeur 3
▁cir 3
▁clav 3
▁clich 3
▁cliché 3
▁coca 3
▁coeur 3
▁cogn 3
▁commune 3
▁compan 3
▁compris 3
▁conceptions 3
▁confection 3
▁confl 3
▁congest 3
▁consort 3
▁constituent 3
▁correspondent 3
▁cort 3
▁courte 3
▁courtes 3
▁cra 3
▁crème 3
▁decentral 3
▁disent 3
▁dop 3
▁dossiers 3
▁drogue 3
▁décor 3
▁eB 3
▁embar 3
▁enclos 3
▁entr 3
▁examin 3
▁excell 3
▁faux 3
▁fung 3
▁glimp 3
▁graves 3
▁hamb 3
▁heur 3
▁hoc 3
▁holl 3
▁illust 3
▁improv 3
▁inadequ 3
▁infantile 3
▁infirm 3
▁infr 3
▁infrastru 3
▁inher 3
▁innoc 3
▁invers 3
▁irr 3
▁irration 3
▁isot 3
▁judici 3
▁kg 3
▁kne 3
▁lac 3
▁litt 3
▁maf 3
▁maint 3
▁maladies 3
▁maquette 3
▁mi 3
▁microp 3
▁microw 3
▁milieu 3
▁minist 3
▁motifs 3
▁mou 3
▁multiplier 3
▁mun 3
▁myc 3
▁myceli 3
▁nanos 3
▁narration 3
▁nuances 3
▁oblige 3
▁paire 3
▁passer 3
▁pert 3
▁perturb 3
▁pes 3
▁phant 3
▁pix 3
▁pomm 3
▁pomp 3
▁pont 3
▁poul 3
▁propagation 3
▁prud 3
▁publ 3
▁pul 3
▁py 3
▁quin 3
▁rab 3
▁rapp 3
▁reconf 3
▁recycler 3
▁refuge 3
▁regroup 3
▁rese 3
▁rhinoc 3
▁roug 3
▁rup 3
▁rupture 3
▁résumé 3
▁sap 3
▁sauces 3
▁scrot 3
▁silicone 3
▁singul 3
▁ske 3
▁solen 3
▁solitude 3
▁sor 3
▁sou 3
▁stren 3
▁subcons 3
▁substant 3
▁superv 3
▁surve 3
▁synth 3
▁taper 3
▁tard 3
▁tat 3
▁tel 3
▁tentative 3
▁tog 3
▁tong 3
▁tou 3
▁transports 3
▁troupe 3
▁trous 3
▁turt 3
▁ub 3
▁uncom 3
▁uncomfort 3
▁unex 3
▁vag 3
▁verd 3
▁vict 3
▁vil 3
▁visc 3
▁vivre 3
▁vocab 3
▁vocation 3
▁vul 3
▁vulner 3
▁wee 3
▁whe 3
♫ 3
# 2
% 2
'1 2
..." 2
.... 2
/3 2
Albert 2
Amaz 2
Apple 2
ETI 2
Eh 2
HO 2
IN 2
Non 2
OP 2
Obama 2
Or 2
Organ 2
Par 2
RAS 2
Super 2
abandon 2
acceptable 2
acco 2
acoust 2
adh 2
adm 2
adopter 2
adult 2
agin 2
agine 2
agit 2
ahah 2
aisse 2
aites 2
allas 2
alles 2
alogue 2
alys 2
anatom 2
anche 2
anci 2
andes 2
angh 2
animation 2
ankind 2
antes 2
anzi 2
apl 2
archer 2
architecture 2
asc 2
association 2
atrina 2
atte 2
atus 2
auf 2
aule 2
aux 2
axe 2
aye 2
bao 2
belief 2
bral 2
ccoli 2
cents 2
cep 2
chelle 2
chez 2
cil 2
cipl 2
connect 2
ctus 2
eau 2
eaux 2
elson 2
ems 2
enant 2
encer 2
endant 2
endip 2
entr 2
entrepreneur 2
env 2
erce 2
ertes 2
escal 2
esearch 2
esity 2
estine 2
estra 2
esus 2
etnam 2
exc 2
existent 2
explo 2
extr 2
fashion 2
fast 2
fluid 2
ggling 2
gi 2
gramme 2
gry 2
hall 2
haps 2
heimer 2
hind 2
hos 2
hou 2
hui 2
hyp 2
hypertension 2
ibrill 2
icitations 2
icken 2
icon 2
ieu 2
igher 2
igue 2
ilience 2
imag 2
imee 2
imet 2
importance 2
impossible 2
incar 2
incoln 2
inction 2
inema 2
ingham 2
ingt 2
innovation 2
institution 2
intellect 2
intelligence 2
internet 2
invention 2
invisible 2
iphan 2
iphany 2
iphy 2
irvana 2
iry 2
isode 2
itent 2
itif 2
itorium 2
itr 2
ivre 2
izab 2
izar 2
izon 2
izza 2
ju 2
lage 2
leur 2
lever 2
liqu 2
lor 2
lot 2
mage 2
manuel 2
mento 2
mins 2
mosph 2
mous 2
mster 2
nc 2
nee 2
neur 2
obl 2
obt 2
ocaly 2
oct 2
oeing 2
oint 2
olen 2
ollo 2
ologne 2
olum 2
ompe 2
ompl 2
oncer 2
onciliation 2
ondes 2
opoly 2
opportun 2
optim 2
orama 2
orex 2
orientation 2
orig 2
orsion 2
ortunate 2
osen 2
oser 2
otrans 2
otte 2
ottes 2
ouc 2
oue 2
oui 2
oupe 2
ousse 2
oxyg 2
oyer 2
pecially 2
pital 2
quisition 2
rade 2
rage 2
raid 2
rak 2
retty 2
ril 2
rogen 2
rompt 2
ront 2
roots 2
ropri 2
ryn 2
seen 2
seur 2
shire 2
soft 2
tember 2
teur 2
though 2
tons 2
tour 2
tt 2
uels 2
uez 2
uil 2
ulence 2
umen 2
upper 2
usse 2
usual 2
uxt 2
wana 2
wey 2
xe 2
yth 2
ytocin 2
zone 2
£ 2
él 2
és 2
ñ 2
– 2
▁0, 2
▁90, 2
▁?" 2
▁Anth 2
▁Ardu 2
▁Aug 2
▁Bet 2
▁Bonn 2
▁Brig 2
▁Bru 2
▁Cet 2
▁Chez 2
▁Clint 2
▁Colle 2
▁Compr 2
▁Corne 2
▁Cub 2
▁Dans 2
▁Daw 2
▁Die 2
▁Dimit 2
▁Dix 2
▁Drac 2
▁Enlight 2
▁Ess 2
▁Geh 2
▁Giac 2
▁Hait 2
▁Hier 2
▁Honduras 2
▁IDE 2
▁Infin 2
▁Jer 2
▁Kis 2
▁Lak 2
▁Leon 2
▁Luc 2
▁Luck 2
▁Lune 2
▁MI 2
▁Mai 2
▁Marg 2
▁Matthe 2
▁McM 2
▁Merced 2
▁Mong 2
▁Muh 2
▁Nob 2
▁Notre 2
▁Nouveau 2
▁Pai 2
▁Panth 2
▁Patri 2
▁Pep 2
▁Pitts 2
▁Prob 2
▁Rivers 2
▁Roi 2
▁Sang 2
▁Scr 2
▁Scul 2
▁Syl 2
▁Tex 2
▁Ti 2
▁Trav 2
▁UNA 2
▁Und 2
▁Valle 2
▁Youn 2
▁Youtube 2
▁Zimb 2
▁absolut 2
▁abund 2
▁adul 2
▁aftern 2
▁airs 2
▁anal 2
▁anci 2
▁annivers 2
▁antiret 2
▁apparition 2
▁applic 2
▁arrond 2
▁assembler 2
▁assur 2
▁athlet 2
▁attire 2
▁avion 2
▁basses 2
▁beet 2
▁bif 2
▁biotechn 2
▁bir 2
▁bouill 2
▁bour 2
▁bran 2
▁brill 2
▁broch 2
▁bulletin 2
▁buts 2
▁cach 2
▁cadre 2
▁capac 2
▁casc 2
▁casque 2
▁catastroph 2
▁caver 2
▁cham 2
▁chang 2
▁chutes 2
▁civ 2
▁cland 2
▁clique 2
▁commiss 2
▁concer 2
▁concierge 2
▁concret 2
▁concurrent 2
▁config 2
▁conscient 2
▁convergent 2
▁convinc 2
▁coop 2
▁copier 2
▁coqu 2
▁coupe 2
▁crowdsour 2
▁cruci 2
▁dans 2
▁deli 2
▁diam 2
▁diffus 2
▁diffuser 2
▁diox 2
▁disord 2
▁disposition 2
▁dj 2
▁doct 2
▁dys 2
▁décl 2
▁eas 2
▁elimin 2
▁embl 2
▁endanger 2
▁entourage 2
▁entre 2
▁entrop 2
▁esprit 2
▁exploiter 2
▁exposé 2
▁finale 2
▁financi 2
▁flots 2
▁fortun 2
▁fran 2
▁franc 2
▁franch 2
▁frig 2
▁fruct 2
▁fu 2
▁fulf 2
▁gant 2
▁gorge 2
▁hé 2
▁identifier 2
▁il 2
▁impatience 2
▁inappropri 2
▁incap 2
▁inse 2
▁insign 2
▁inte 2
▁internation 2
▁joie 2
▁jol 2
▁las 2
▁legis 2
▁loy 2
▁lui 2
▁mam 2
▁manne 2
▁marshm 2
▁masculine 2
▁massac 2
▁mathemat 2
▁membran 2
▁minuscule 2
▁moi 2
▁montage 2
▁mots 2
▁multipl 2
▁nai 2
▁nick 2
▁noct 2
▁nov 2
▁oeuvre 2
▁opportun 2
▁pag 2
▁pais 2
▁parachut 2
▁parad 2
▁particul 2
▁partisans 2
▁pecul 2
▁pendant 2
▁pensions 2
▁permis 2
▁plaint 2
▁plaques 2
▁plur 2
▁pod 2
▁polyst 2
▁porc 2
▁postul 2
▁prairies 2
▁pren 2
▁preval 2
▁primitives 2
▁pris 2
▁privile 2
▁proced 2
▁procure 2
▁provenance 2
▁pse 2
▁quand 2
▁quotid 2
▁rabbin 2
▁reliant 2
▁repar 2
▁reve 2
▁résum 2
▁sacs 2
▁salon 2
▁salons 2
▁sca 2
▁schizoph 2
▁sembl 2
▁ses 2
▁souvenir 2
▁spont 2
▁stagger 2
▁stimulant 2
▁supporter 2
▁surfer 2
▁surn 2
▁surviv 2
▁tas 2
▁tester 2
▁therap 2
▁toil 2
▁tous 2
▁tracer 2
▁traine 2
▁transluc 2
▁troupes 2
▁tru 2
▁ult 2
▁unbelie 2
▁uni 2
▁vale 2
▁valor 2
▁vern 2
▁voyages 2
▁wat 2
.000 1
Abraham 1
Ach 1
Alex 1
Antarct 1
App 1
BA 1
BI 1
Bas 1
Ed 1
Einstein 1
Elle 1
Emp 1
Esp 1
HC 1
HIN 1
Homo 1
Hum 1
IX 1
Inc 1
Ir 1
Les 1
May 1
NU 1
Ob 1
Ok 1
Pas 1
Point 1
Queen 1
RM 1
Si 1
Union 1
Vo 1
\ 1
abbar 1
abol 1
abri 1
absorption 1
accep 1
accept 1
accomp 1
accum 1
acid 1
adapt 1
adie 1
adoles 1
affect 1
agent 1
agerie 1
agir 1
agne 1
agnes 1
agric 1
ahrenheit 1
ahu 1
aigne 1
aile 1
aill 1
ainc 1
airo 1
aiser 1
aises 1
aison 1
aitreya 1
akespeare 1
alone 1
althy 1
alumin 1
alut 1
ampl 1
anciers 1
ande 1
andin 1
angible 1
angiogenic 1
anglais 1
animal 1
anke 1
apses 1
apters 1
arante 1
archite 1
ardon 1
arduk 1
argument 1
ariat 1
ario 1
arith 1
arme 1
arsh 1
arte 1
arten 1
arters 1
article 1
artment 1
ashy 1
aska 1
assey 1
assium 1
ategy 1
ateur 1
ateurs 1
atrices 1
attention 1
auche 1
aude 1
audience 1
auff 1
aume 1
aussi 1
auto 1
autom 1
avelength 1
avis 1
azar 1
azeera 1
aï 1
bation 1
bercul 1
bis 1
brew 1
cedented 1
ceed 1
chance 1
chet 1
cie 1
cium 1
civ 1
coal 1
dit 1
div 1
ducation 1
elas 1
emark 1
emen 1
endez 1
enez 1
engr 1
enium 1
enous 1
ensable 1
entrepr 1
erana 1
erez 1
ergarten 1
ermaid 1
ersey 1
escope 1
espace 1
essel 1
essence 1
essim 1
estation 1
estock 1
eu 1
export 1
fred 1
gant 1
gebra 1
gine 1
gth 1
hait 1
hanol 1
hect 1
hemat 1
hier 1
holds 1
hom 1
hran 1
hydro 1
hyper 1
iP 1
iPhone 1
iaf 1
iances 1
iastes 1
ibera 1
icago 1
iches 1
ickr 1
icone 1
icule 1
identification 1
idote 1
ielle 1
iels 1
iennes 1
ifest 1
ifices 1
ifuge 1
igme 1
igne 1
ignon 1
ignore 1
ilibrium 1
illis 1
illon 1
ilson 1
iltr 1
ilty 1
immy 1
impression 1
improvisation 1
incl 1
individu 1
infection 1
iniest 1
initiative 1
inject 1
insi 1
inspiration 1
instein 1
instruments 1
intervention 1
intestin 1
inthe 1
intr 1
ionn 1
ipment 1
iration 1
isations 1
isent 1
isf 1
isher 1
isol 1
issement 1
issements 1
isser 1
issons 1
issors 1
isten 1
istine 1
itler 1
ixon 1
izoph 1
ière 1
jou 1
juana 1
km 1
lahoma 1
lause 1
leine 1
lications 1
limited 1
lix 1
loved 1
mala 1
mble 1
mentation 1
meric 1
minster 1
moud 1
msterdam 1
naires 1
nam 1
novation 1
novations 1
obil 1
observe 1
oce 1
oci 1
ocke 1
ocortex 1
odie 1
oen 1
ofi 1
oires 1
ollywood 1
omac 1
omi 1
omn 1
oplan 1
opposition 1
orage 1
orange 1
orce 1
orith 1
ortez 1
orthern 1
ortions 1
osov 1
otre 1
oubl 1
ouche 1
ouches 1
ouh 1
oules 1
ouv 1
oux 1
owan 1
peace 1
pha 1
phab 1
phabet 1
pire 1
ple 1
ppi 1
ptions 1
quets 1
quille 1
racies 1
ranean 1
rans 1
reens 1
rego 1
resp 1
rigation 1
rists 1
rits 1
rophe 1
ropolitan 1
roportion 1
rosse 1
ré 1
[...]
