<unk>	0
<s>	0
</s>	0
▁t	-0
▁a	-1
es	-2
▁d	-3
en	-4
ou	-5
on	-6
▁p	-7
in	-8
▁c	-9
er	-10
▁l	-11
▁s	-12
▁th	-13
re	-14
is	-15
an	-16
it	-17
▁m	-18
at	-19
qu	-20
▁w	-21
▁the	-22
ent	-23
▁f	-24
▁de	-25
or	-26
▁b	-27
▁n	-28
ll	-29
ar	-30
▁qu	-31
et	-32
▁v	-33
nd	-34
▁o	-35
om	-36
▁h	-37
un	-38
as	-39
ing	-40
le	-41
ous	-42
▁to	-43
▁in	-44
ion	-45
ve	-46
▁I	-47
▁g	-48
us	-49
est	-50
ic	-51
▁of	-52
il	-53
our	-54
ur	-55
▁un	-56
ut	-57
▁y	-58
ro	-59
al	-60
▁la	-61
▁le	-62
▁and	-63
te	-64
ai	-65
▁e	-66
▁que	-67
▁j	-68
▁r	-69
▁et	-70
▁that	-71
▁A	-72
▁en	-73
ce	-74
ment	-75
ed	-76
ir	-77
ot	-78
ant	-79
me	-80
os	-81
▁les	-82
ch	-83
▁on	-84
▁à	-85
ct	-86
▁wh	-87
ais	-88
▁re	-89
▁com	-90
▁is	-91
▁des	-92
ait	-93
ons	-94
▁be	-95
▁you	-96
ie	-97
▁it	-98
out	-99
ow	-100
▁E	-101
▁T	-102
im	-103
▁we	-104
▁ch	-105
ans	-106
id	-107
▁ce	-108
ont	-109
▁tr	-110
▁C	-111
▁se	-112
ol	-113
ig	-114
ere	-115
▁S	-116
▁par	-117
ay	-118
if	-119
▁-	-120
ers	-121
▁pl	-122
ation	-123
▁ha	-124
ét	-125
▁pas	-126
ag	-127
▁vous	-128
lle	-129
▁And	-130
▁--	-131
▁pro	-132
▁nous	-133
que	-134
▁pour	-135
▁ne	-136
▁une	-137
all	-138
ain	-139
se	-140
▁an	-141
▁qui	-142
ux	-143
▁Th	-144
and	-145
▁this	-146
▁M	-147
▁dans	-148
ver	-149
pp	-150
▁for	-151
ul	-152
▁pe	-153
▁Et	-154
▁st	-155
ri	-156
▁est	-157
am	-158
▁je	-159
res	-160
ne	-161
▁do	-162
ld	-163
ble	-164
▁L	-165
op	-166
ke	-167
▁mo	-168
ci	-169
ad	-170
▁N	-171
▁B	-172
▁ex	-173
▁il	-174
ill	-175
▁W	-176
ly	-177
end	-178
▁J	-179
ter	-180
▁me	-181
▁"	-182
ens	-183
iv	-184
▁was	-185
au	-186
ac	-187
ure	-188
▁av	-189
av	-190
▁as	-191
és	-192
▁so	-193
ally	-194
ond	-195
▁sur	-196
ith	-197
▁su	-198
ort	-199
▁are	-200
▁du	-201
▁k	-202
▁go	-203
▁not	-204
▁D	-205
ér	-206
ap	-207
ist	-208
▁can	-209
▁have	-210
▁plus	-211
▁ab	-212
▁pr	-213
▁te	-214
▁at	-215
▁with	-216
ess	-217
▁they	-218
▁all	-219
▁P	-220
▁dé	-221
▁ét	-222
▁don	-223
el	-224
ire	-225
th	-226
ions	-227
▁au	-228
▁é	-229
▁comp	-230
▁som	-231
ien	-232
um	-233
▁So	-234
aire	-235
ée	-236
imp	-237
▁what	-238
use	-239
ive	-240
ht	-241
od	-242
▁ave	-243
▁1	-244
ate	-245
og	-246
▁con	-247
ang	-248
ard	-249
▁or	-250
▁he	-251
st	-252
ust	-253
tre	-254
▁about	-255
▁wor	-256
ould	-257
▁sh	-258
ique	-259
▁fr	-260
▁vo	-261
bl	-262
▁ré	-263
▁ar	-264
ose	-265
00	-266
▁O	-267
▁li	-268
▁ma	-269
▁Il	-270
▁fait	-271
ère	-272
ès	-273
▁gr	-274
age	-275
up	-276
▁al	-277
▁The	-278
▁sont	-279
ine	-280
mp	-281
▁si	-282
ite	-283
▁avec	-284
ette	-285
▁part	-286
ue	-287
▁there	-288
▁lo	-289
▁V	-290
ight	-291
▁fa	-292
ies	-293
▁tout	-294
ide	-295
si	-296
▁my	-297
ind	-298
▁H	-299
ence	-300
ok	-301
ité	-302
ese	-303
ici	-304
pe	-305
▁It	-306
urs	-307
ca	-308
ors	-309
▁Je	-310
▁We	-311
ff	-312
mes	-313
▁sa	-314
ople	-315
▁one	-316
▁like	-317
▁ces	-318
ouv	-319
iff	-320
ça	-321
▁people	-322
▁ver	-323
▁ça	-324
."	-325
▁comme	-326
▁from	-327
able	-328
now	-329
▁out	-330
ity	-331
ich	-332
ars	-333
▁int	-334
▁cette	-335
▁faire	-336
être	-337
ouve	-338
▁know	-339
tr	-340
▁comm	-341
ées	-342
▁but	-343
▁ou	-344
ink	-345
▁diff	-346
ace	-347
▁app	-348
aient	-349
▁thing	-350
▁just	-351
oir	-352
oug	-353
▁per	-354
▁mais	-355
▁us	-356
▁act	-357
▁dis	-358
ale	-359
▁quel	-360
ore	-361
ques	-362
ez	-363
du	-364
oup	-365
ab	-366
▁Y	-367
art	-368
▁ont	-369
▁our	-370
▁imp	-371
▁2	-372
▁very	-373
cause	-374
▁cont	-375
▁see	-376
her	-377
ud	-378
▁cons	-379
▁fe	-380
ign	-381
▁avons	-382
ance	-383
▁ent	-384
ong	-385
▁these	-386
▁But	-387
▁up	-388
▁cr	-389
▁Mais	-390
▁if	-391
▁♫	-392
oin	-393
▁ye	-394
▁get	-395
▁think	-396
▁exp	-397
iss	-398
▁them	-399
▁pu	-400
olog	-401
▁pers	-402
▁going	-403
ven	-404
▁R	-405
▁G	-406
▁Nous	-407
act	-408
▁man	-409
▁?	-410
pr	-411
ier	-412
▁who	-413
une	-414
▁aut	-415
lo	-416
onde	-417
orm	-418
ound	-419
▁très	-420
ert	-421
ui	-422
▁cl	-423
▁co	-424
▁ils	-425
ge	-426
▁by	-427
rai	-428
▁pre	-429
aut	-430
▁some	-431
▁:	-432
▁person	-433
ost	-434
ten	-435
ême	-436
one	-437
ière	-438
enc	-439
▁fo	-440
la	-441
ted	-442
▁had	-443
▁when	-444
▁because	-445
ime	-446
ays	-447
ations	-448
▁which	-449
▁bien	-450
ack	-451
lles	-452
▁your	-453
▁F	-454
▁peut	-455
▁sp	-456
▁ph	-457
ants	-458
ord	-459
▁more	-460
ast	-461
▁look	-462
▁would	-463
ense	-464
▁really	-465
ult	-466
▁ever	-467
▁monde	-468
ually	-469
che	-470
▁gens	-471
▁vrai	-472
ils	-473
▁sy	-474
oi	-475
▁br	-476
én	-477
ect	-478
ents	-479
▁am	-480
▁how	-481
▁chose	-482
▁dev	-483
éc	-484
hing	-485
▁U	-486
▁were	-487
▁here	-488
king	-489
aux	-490
▁chang	-491
pt	-492
cc	-493
▁Wh	-494
▁dit	-495
ille	-496
ress	-497
▁their	-498
▁ag	-499
ème	-500
ice	-501
iz	-502
▁This	-503
▁then	-504
reat	-505
ction	-506
▁You	-507
ach	-508
▁trav	-509
▁has	-510
▁inter	-511
▁dire	-512
▁world	-513
▁cela	-514
▁ser	-515
ass	-516
▁mar	-517
are	-518
▁ta	-519
ins	-520
▁time	-521
▁être	-522
▁im	-523
itt	-524
▁peu	-525
ours	-526
ther	-527
▁actually	-528
endre	-529
▁grand	-530
onc	-531
▁Ce	-532
ough	-533
▁même	-534
aid	-535
▁pos	-536
▁quand	-537
▁mon	-538
vent	-539
▁into	-540
ise	-541
▁mill	-542
▁every	-543
▁pouv	-544
▁things	-545
app	-546
▁no	-547
auc	-548
ild	-549
▁vie	-550
chn	-551
▁res	-552
▁hum	-553
und	-554
form	-555
iques	-556
▁way	-557
▁ro	-558
▁vraiment	-559
les	-560
▁now	-561
▁suis	-562
ments	-563
▁La	-564
ussi	-565
▁ans	-566
▁could	-567
▁En	-568
▁In	-569
▁will	-570
▁Vous	-571
▁où	-572
▁car	-573
▁leur	-574
▁where	-575
▁years	-576
▁techn	-577
aucoup	-578
▁tous	-579
▁pass	-580
▁deux	-581
▁want	-582
▁notre	-583
▁work	-584
oses	-585
▁Donc	-586
▁Le	-587
▁did	-588
▁other	-589
ient	-590
ule	-591
▁mat	-592
▁somet	-593
he	-594
ical	-595
▁tou	-596
▁était	-597
▁aux	-598
ia	-599
▁ob	-600
▁donc	-601
ner	-602
▁déc	-603
▁été	-604
▁beaucoup	-605
util	-606
ip	-607
▁ter	-608
éd	-609
▁choses	-610
nes	-611
cent	-612
▁Now	-613
▁main	-614
▁parce	-615
▁ad	-616
orte	-617
▁mont	-618
▁fin	-619
▁temp	-620
▁They	-621
..	-622
▁Q	-623
▁happ	-624
wo	-625
▁reg	-626
▁any	-627
▁make	-628
so	-629
ck	-630
ome	-631
▁inc	-632
▁ve	-633
lé	-634
▁bu	-635
▁aussi	-636
▁produ	-637
ures	-638
▁litt	-639
▁said	-640
▁Al	-641
▁Ch	-642
▁been	-643
était	-644
▁import	-645
▁say	-646
oun	-647
▁quest	-648
ition	-649
tenant	-650
oint	-651
its	-652
▁là	-653
▁son	-654
tes	-655
mer	-656
gr	-657
▁jus	-658
▁bas	-659
▁something	-660
ric	-661
be	-662
ces	-663
vez	-664
▁right	-665
▁need	-666
▁quelque	-667
nées	-668
▁simp	-669
ertain	-670
▁éc	-671
▁got	-672
▁than	-673
irst	-674
ade	-675
ree	-676
▁kind	-677
▁Les	-678
▁technolog	-679
▁pet	-680
▁gen	-681
▁voir	-682
▁trans	-683
otre	-684
▁long	-685
amp	-686
▁elle	-687
▁3	-688
ber	-689
▁back	-690
éri	-691
▁ca	-692
ms	-693
▁little	-694
▁over	-695
li	-696
ouver	-697
ouvez	-698
uch	-699
ory	-700
▁vou	-701
▁dem	-702
▁two	-703
olut	-704
▁point	-705
▁prop	-706
▁On	-707
utilis	-708
ife	-709
▁call	-710
rois	-711
ivers	-712
000	-713
▁tal	-714
▁K	-715
▁much	-716
▁env	-717
▁lot	-718
▁differ	-719
ys	-720
▁soci	-721
▁first	-722
▁cent	-723
bre	-724
▁pens	-725
own	-726
▁Ils	-727
▁prem	-728
ru	-729
▁ici	-730
▁bo	-731
▁mod	-732
▁ind	-733
ile	-734
ern	-735
▁pouvez	-736
ra	-737
▁sort	-738
ex	-739
▁cour	-740
ets	-741
▁those	-742
ial	-743
▁plan	-744
▁bon	-745
elle	-746
▁sec	-747
▁pense	-748
▁votre	-749
▁enc	-750
▁new	-751
▁rec	-752
▁nouve	-753
▁temps	-754
▁cré	-755
▁That	-756
▁po	-757
ler	-758
ody	-759
▁spe	-760
ros	-761
▁sci	-762
▁also	-763
esp	-764
▁nos	-765
▁cap	-766
iron	-767
▁enf	-768
▁gu	-769
▁certain	-770
sel	-771
▁voy	-772
ict	-773
▁important	-774
bles	-775
▁she	-776
▁und	-777
ages	-778
▁différ	-779
▁fois	-780
▁mom	-781
uis	-782
▁end	-783
▁regard	-784
▁sc	-785
ob	-786
ante	-787
▁eff	-788
ature	-789
ail	-790
▁change	-791
ick	-792
▁met	-793
gan	-794
▁Vo	-795
▁mes	-796
vel	-797
▁rel	-798
▁commun	-799
▁cor	-800
▁most	-801
▁avait	-802
▁id	-803
oire	-804
▁probl	-805
▁comment	-806
ep	-807
iez	-808
▁his	-809
▁sav	-810
▁Alors	-811
▁bet	-812
rit	-813
▁life	-814
▁moi	-815
oc	-816
ject	-817
▁pol	-818
▁entre	-819
int	-820
▁ess	-821
onom	-822
ated	-823
ph	-824
ater	-825
▁off	-826
▁bl	-827
▁only	-828
▁question	-829
▁acc	-830
pl	-831
▁arri	-832
▁vis	-833
▁19	-834
▁take	-835
▁Qu	-836
ish	-837
▁He	-838
çon	-839
ase	-840
▁pourr	-841
▁simple	-842
ste	-843
▁5	-844
▁down	-845
▁sommes	-846
▁min	-847
▁different	-848
▁utilis	-849
▁good	-850
▁jour	-851
▁There	-852
ak	-853
old	-854
▁Si	-855
▁liv	-856
▁att	-857
▁put	-858
▁pat	-859
ôt	-860
▁compr	-861
▁Un	-862
▁does	-863
ib	-864
other	-865
▁10	-866
rough	-867
row	-868
▁even	-869
▁fais	-870
▁ide	-871
▁around	-872
cher	-873
▁show	-874
▁af	-875
rer	-876
alement	-877
▁seule	-878
▁hist	-879
ry	-880
▁bi	-881
ats	-882
erve	-883
▁conf	-884
aph	-885
cept	-886
sem	-887
▁many	-888
▁commenc	-889
ues	-890
endant	-891
▁nom	-892
ning	-893
▁through	-894
▁dont	-895
▁non	-896
▁her	-897
ves	-898
olution	-899
▁rest	-900
▁moment	-901
▁Par	-902
▁vais	-903
▁real	-904
aine	-905
air	-906
▁mal	-907
▁autre	-908
per	-909
▁encore	-910
llement	-911
emp	-912
▁20	-913
sez	-914
▁What	-915
ères	-916
ank	-917
▁possi	-918
▁gén	-919
▁façon	-920
▁fam	-921
aires	-922
érie	-923
▁avez	-924
▁fl	-925
ought	-926
ual	-927
ary	-928
▁use	-929
▁design	-930
▁art	-931
▁avoir	-932
▁4	-933
tru	-934
▁being	-935
ting	-936
▁mus	-937
▁rem	-938
▁ac	-939
▁maintenant	-940
rop	-941
▁bes	-942
▁tell	-943
▁va	-944
▁happen	-945
?"	-946
par	-947
▁vers	-948
▁cha	-949
▁demand	-950
▁environ	-951
▁inst	-952
ains	-953
▁«	-954
▁doing	-955
▁try	-956
▁juste	-957
▁besoin	-958
▁proble	-959
▁Af	-960
▁same	-961
▁fact	-962
▁publ	-963
▁come	-964
▁toutes	-965
icul	-966
▁place	-967
ourd	-968
lect	-969
▁leurs	-970
▁prof	-971
tern	-972
▁coun	-973
jet	-974
▁travai	-975
quoi	-976
▁sign	-977
▁Be	-978
▁cell	-979
▁personnes	-980
ren	-981
▁alors	-982
urn	-983
▁inv	-984
▁rés	-985
▁pays	-986
red	-987
▁jam	-988
▁che	-989
ible	-990
ether	-991
ower	-992
▁talk	-993
▁phot	-994
ém	-995
ically	-996
we	-997
▁dep	-998
▁rép	-999
ég	-1000
▁ins	-1001
▁puis	-1002
iste	-1003
▁big	-1004
▁doll	-1005
▁three	-1006
cer	-1007
erci	-1008
▁fem	-1009
▁lui	-1010
ts	-1011
▁start	-1012
wn	-1013
▁If	-1014
ful	-1015
day	-1016
nent	-1017
az	-1018
▁let	-1019
▁di	-1020
▁great	-1021
▁inf	-1022
arg	-1023
▁human	-1024
▁veux	-1025
hui	-1026
▁personne	-1027
▁voul	-1028
cess	-1029
ieu	-1030
oy	-1031
ics	-1032
uc	-1033
▁may	-1034
ines	-1035
ope	-1036
ésent	-1037
ites	-1038
▁trois	-1039
igh	-1040
xt	-1041
▁fil	-1042
▁compl	-1043
body	-1044
imes	-1045
▁sm	-1046
ré	-1047
iers	-1048
▁mot	-1049
▁Com	-1050
jourd	-1051
▁build	-1052
thing	-1053
▁well	-1054
▁called	-1055
erg	-1056
ète	-1057
▁sans	-1058
iment	-1059
près	-1060
▁syste	-1061
▁fut	-1062
ement	-1063
▁quelques	-1064
▁find	-1065
▁savez	-1066
▁stud	-1067
▁Ne	-1068
▁ty	-1069
▁sens	-1070
ving	-1071
▁»	-1072
▁percent	-1073
▁child	-1074
▁prob	-1075
met	-1076
▁rep	-1077
▁syst	-1078
▁pouvons	-1079
▁organ	-1080
nement	-1081
ences	-1082
▁enfants	-1083
▁sem	-1084
▁années	-1085
▁tu	-1086
▁day	-1087
▁conn	-1088
▁made	-1089
▁jamais	-1090
▁anim	-1091
▁four	-1092
mb	-1093
ute	-1094
▁dec	-1095
▁again	-1096
▁dollars	-1097
▁inform	-1098
pect	-1099
erst	-1100
▁parler	-1101
way	-1102
▁star	-1103
...	-1104
▁Well	-1105
ates	-1106
▁particul	-1107
ah	-1108
▁eu	-1109
▁nature	-1110
▁Voici	-1111
ific	-1112
ogr	-1113
▁dern	-1114
née	-1115
ois	-1116
fore	-1117
erre	-1118
▁Pour	-1119
▁num	-1120
su	-1121
ved	-1122
▁supp	-1123
self	-1124
▁bel	-1125
▁contin	-1126
▁pendant	-1127
▁problème	-1128
▁sol	-1129
jours	-1130
alis	-1131
lex	-1132
ious	-1133
▁exemp	-1134
▁pres	-1135
▁rais	-1136
▁year	-1137
ating	-1138
▁cas	-1139
ft	-1140
▁moins	-1141
▁should	-1142
▁extr	-1143
ative	-1144
▁constru	-1145
▁toujours	-1146
▁underst	-1147
▁imag	-1148
▁lear	-1149
▁seulement	-1150
ave	-1151
▁ord	-1152
▁mean	-1153
ards	-1154
êtes	-1155
▁form	-1156
▁course	-1157
ty	-1158
agn	-1159
▁viv	-1160
▁méd	-1161
alité	-1162
onn	-1163
autres	-1164
▁op	-1165
roy	-1166
▁why	-1167
▁chaque	-1168
▁thought	-1169
uit	-1170
▁expl	-1171
▁own	-1172
▁travaill	-1173
▁emp	-1174
▁sû	-1175
ident	-1176
▁pré	-1177
▁sch	-1178
▁disc	-1179
att	-1180
ole	-1181
▁after	-1182
,000	-1183
ork	-1184
entre	-1185
▁sou	-1186
▁peuvent	-1187
ame	-1188
▁last	-1189
▁ven	-1190
ules	-1191
▁interest	-1192
▁voyez	-1193
ls	-1194
▁feel	-1195
▁partie	-1196
▁soit	-1197
▁idea	-1198
illes	-1199
▁sub	-1200
ec	-1201
▁play	-1202
vous	-1203
▁second	-1204
quer	-1205
▁didn	-1206
ool	-1207
aiss	-1208
èmes	-1209
▁év	-1210
cture	-1211
▁cult	-1212
▁200	-1213
▁Elle	-1214
auv	-1215
▁went	-1216
▁train	-1217
lopp	-1218
▁cond	-1219
▁hom	-1220
▁elles	-1221
ieux	-1222
▁différent	-1223
ands	-1224
acc	-1225
▁pri	-1226
aines	-1227
als	-1228
▁today	-1229
autre	-1230
velopp	-1231
▁coup	-1232
▁essay	-1233
ities	-1234
ath	-1235
▁quoi	-1236
rent	-1237
cle	-1238
▁dist	-1239
▁St	-1240
▁après	-1241
▁him	-1242
anc	-1243
ateur	-1244
▁creat	-1245
▁cet	-1246
ian	-1247
▁its	-1248
▁exper	-1249
▁started	-1250
▁turn	-1251
▁progr	-1252
▁inté	-1253
ied	-1254
idé	-1255
▁process	-1256
▁toute	-1257
aces	-1258
▁ask	-1259
▁première	-1260
▁another	-1261
arch	-1262
▁wom	-1263
oth	-1264
▁autres	-1265
▁give	-1266
▁aujourd	-1267
▁understand	-1268
▁ses	-1269
▁hel	-1270
▁pop	-1271
▁scient	-1272
▁before	-1273
ograph	-1274
ility	-1275
▁aff	-1276
ps	-1277
ience	-1278
▁conne	-1279
min	-1280
▁dép	-1281
ches	-1282
▁De	-1283
▁sûr	-1284
▁polit	-1285
▁story	-1286
▁pris	-1287
▁contr	-1288
▁mor	-1289
▁manière	-1290
▁z	-1291
▁system	-1292
▁exemple	-1293
▁commencé	-1294
▁bit	-1295
▁problem	-1296
▁développ	-1297
,"	-1298
êt	-1299
iles	-1300
▁examp	-1301
▁millions	-1302
▁avant	-1303
rib	-1304
▁able	-1305
volution	-1306
▁never	-1307
ris	-1308
ives	-1309
▁6	-1310
ational	-1311
▁Thank	-1312
arge	-1313
ables	-1314
étais	-1315
ulation	-1316
itu	-1317
▁power	-1318
▁sent	-1319
▁Main	-1320
▁Merci	-1321
▁million	-1322
▁étaient	-1323
ids	-1324
▁nombre	-1325
▁jou	-1326
▁possible	-1327
▁ret	-1328
▁travail	-1329
ête	-1330
▁brain	-1331
ists	-1332
▁vol	-1333
▁came	-1334
ange	-1335
▁Ind	-1336
duc	-1337
ités	-1338
▁Maintenant	-1339
▁Cel	-1340
semble	-1341
▁better	-1342
▁lang	-1343
ED	-1344
▁ke	-1345
▁étud	-1346
▁belie	-1347
▁ass	-1348
▁mach	-1349
insi	-1350
ène	-1351
▁meille	-1352
▁système	-1353
eau	-1354
▁ago	-1355
él	-1356
suite	-1357
▁voit	-1358
uses	-1359
ières	-1360
▁trouv	-1361
▁might	-1362
kes	-1363
▁bec	-1364
▁déf	-1365
▁deven	-1366
roit	-1367
▁êtes	-1368
man	-1369
▁few	-1370
atique	-1371
▁appel	-1372
▁program	-1373
▁resp	-1374
▁esp	-1375
▁sorte	-1376
▁water	-1377
ales	-1378
▁univers	-1379
▁dur	-1380
velop	-1381
▁cre	-1382
▁tog	-1383
cte	-1384
iter	-1385
▁together	-1386
ilà	-1387
▁str	-1388
équ	-1389
▁cerve	-1390
▁next	-1391
ather	-1392
▁public	-1393
ression	-1394
ily	-1395
▁ec	-1396
▁conc	-1397
ention	-1398
▁vi	-1399
▁high	-1400
▁sl	-1401
▁still	-1402
utes	-1403
▁fon	-1404
ends	-1405
▁New	-1406
▁found	-1407
▁jusqu	-1408
▁live	-1409
vers	-1410
▁science	-1411
▁school	-1412
▁test	-1413
▁stru	-1414
ween	-1415
ks	-1416
oute	-1417
▁pourquoi	-1418
▁colle	-1419
▁petit	-1420
▁phys	-1421
▁aur	-1422
▁sais	-1423
▁An	-1424
ital	-1425
▁sous	-1426
ix	-1427
▁déb	-1428
▁rien	-1429
ited	-1430
▁Because	-1431
▁travers	-1432
iness	-1433
▁technology	-1434
▁col	-1435
▁font	-1436
▁comput	-1437
▁TED	-1438
▁ple	-1439
élé	-1440
▁grande	-1441
▁each	-1442
io	-1443
▁eng	-1444
▁develop	-1445
▁comb	-1446
▁assez	-1447
▁Une	-1448
read	-1449
▁devr	-1450
meric	-1451
▁used	-1452
ider	-1453
▁tant	-1454
▁15	-1455
▁prin	-1456
▁grow	-1457
▁done	-1458
avais	-1459
▁vu	-1460
▁rob	-1461
ull	-1462
▁depuis	-1463
▁50	-1464
ivid	-1465
▁between	-1466
▁Cela	-1467
ié	-1468
▁7	-1469
▁trouver	-1470
▁9	-1471
▁small	-1472
▁learn	-1473
arm	-1474
né	-1475
cul	-1476
ross	-1477
▁vir	-1478
▁six	-1479
▁lors	-1480
▁help	-1481
▁Afric	-1482
▁whole	-1483
anted	-1484
rique	-1485
ger	-1486
ings	-1487
▁looking	-1488
▁intéress	-1489
ov	-1490
▁100	-1491
▁OK	-1492
ablement	-1493
▁Parce	-1494
alth	-1495
▁dés	-1496
▁fond	-1497
▁pourrait	-1498
ateurs	-1499
▁love	-1500
uel	-1501
▁coll	-1502
ata	-1503
ways	-1504
▁When	-1505
▁light	-1506
▁Americ	-1507
▁too	-1508
uss	-1509
▁dét	-1510
led	-1511
▁wr	-1512
▁prendre	-1513
▁example	-1514
ably	-1515
hist	-1516
▁fonction	-1517
▁30	-1518
▁group	-1519
▁rend	-1520
▁technologie	-1521
arly	-1522
antes	-1523
▁8	-1524
▁dess	-1525
▁souv	-1526
▁quelqu	-1527
uff	-1528
▁glo	-1529
▁doesn	-1530
▁genre	-1531
Ça	-1532
▁cerveau	-1533
▁old	-1534
ots	-1535
▁med	-1536
ision	-1537
▁rapp	-1538
▁Quand	-1539
▁passe	-1540
▁bus	-1541
Un	-1542
ug	-1543
▁gl	-1544
▁moy	-1545
▁How	-1546
ape	-1547
ized	-1548
▁read	-1549
ode	-1550
ural	-1551
▁march	-1552
▁suiv	-1553
▁génér	-1554
▁Ça	-1555
▁présent	-1556
▁men	-1557
▁tour	-1558
▁inte	-1559
été	-1560
oule	-1561
▁sel	-1562
▁face	-1563
▁sk	-1564
▁[	-1565
▁move	-1566
over	-1567
▁serv	-1568
▁vos	-1569
▁prot	-1570
▁cal	-1571
▁complex	-1572
cip	-1573
ize	-1574
asse	-1575
erv	-1576
▁peux	-1577
▁effect	-1578
ark	-1579
ances	-1580
ds	-1581
oney	-1582
▁wanted	-1583
▁fer	-1584
ret	-1585
▁Dans	-1586
▁ceci	-1587
ones	-1588
▁faut	-1589
▁crois	-1590
ene	-1591
ude	-1592
▁sing	-1593
▁réf	-1594
▁devons	-1595
ries	-1596
gl	-1597
ième	-1598
de	-1599
ness	-1600
▁children	-1601
▁comprendre	-1602
▁el	-1603
▁idée	-1604
arr	-1605
▁cher	-1606
ilité	-1607
arth	-1608
▁sour	-1609
ép	-1610
▁créer	-1611
▁port	-1612
▁reas	-1613
▁dém	-1614
ood	-1615
ices	-1616
▁beh	-1617
▁away	-1618
▁montrer	-1619
▁minutes	-1620
ari	-1621
▁déj	-1622
▁rap	-1623
▁trying	-1624
▁ref	-1625
▁pict	-1626
▁gener	-1627
▁cancer	-1628
▁passé	-1629
▁project	-1630
face	-1631
▁opp	-1632
▁abs	-1633
▁always	-1634
▁book	-1635
▁donner	-1636
▁data	-1637
▁working	-1638
▁information	-1639
iner	-1640
▁premier	-1641
iens	-1642
▁hard	-1643
▁exc	-1644
▁beaut	-1645
▁mis	-1646
▁care	-1647
▁lead	-1648
▁trait	-1649
▁hand	-1650
aî	-1651
▁Re	-1652
▁em	-1653
ron	-1654
▁ste	-1655
▁lab	-1656
ordin	-1657
▁believe	-1658
▁Is	-1659
igne	-1660
▁obs	-1661
▁dir	-1662
▁gros	-1663
▁under	-1664
▁femmes	-1665
▁eux	-1666
".	-1667
atch	-1668
▁culture	-1669
selves	-1670
▁space	-1671
wh	-1672
▁open	-1673
▁nouveau	-1674
ortun	-1675
▁Tout	-1676
ternet	-1677
▁econom	-1678
▁less	-1679
anger	-1680
▁mort	-1681
▁voici	-1682
ye	-1683
▁permet	-1684
▁es	-1685
ager	-1686
ell	-1687
▁type	-1688
▁dom	-1689
iel	-1690
▁données	-1691
▁pouvoir	-1692
▁questions	-1693
▁simplement	-1694
aur	-1695
ustr	-1696
▁cro	-1697
▁cur	-1698
mber	-1699
oud	-1700
▁dr	-1701
ducation	-1702
▁mettre	-1703
lez	-1704
▁imm	-1705
▁histoire	-1706
▁bonne	-1707
utôt	-1708
▁ensuite	-1709
gin	-1710
▁film	-1711
▁mic	-1712
▁télé	-1713
▁five	-1714
ouse	-1715
▁stuff	-1716
try	-1717
▁took	-1718
▁individ	-1719
▁aller	-1720
▁ai	-1721
▁mag	-1722
▁everything	-1723
▁Ar	-1724
▁côt	-1725
cial	-1726
▁glob	-1727
▁biolog	-1728
vé	-1729
isse	-1730
▁mil	-1731
hip	-1732
▁ris	-1733
▁ress	-1734
▁trad	-1735
▁social	-1736
▁kids	-1737
▁trop	-1738
action	-1739
▁thinking	-1740
quelle	-1741
ount	-1742
▁rad	-1743
▁run	-1744
▁puiss	-1745
▁money	-1746
ories	-1747
ran	-1748
▁using	-1749
▁problèmes	-1750
▁bill	-1751
ients	-1752
▁plutôt	-1753
ifs	-1754
▁women	-1755
▁dro	-1756
▁large	-1757
▁laquelle	-1758
omb	-1759
upart	-1760
▁plupart	-1761
qué	-1762
▁One	-1763
▁food	-1764
▁mark	-1765
tres	-1766
▁repr	-1767
▁super	-1768
▁concept	-1769
▁déjà	-1770
érieur	-1771
▁clim	-1772
▁maybe	-1773
▁Au	-1774
exp	-1775
▁image	-1776
▁means	-1777
▁teach	-1778
▁left	-1779
ely	-1780
▁fun	-1781
▁lum	-1782
temp	-1783
iennent	-1784
▁respons	-1785
▁air	-1786
▁country	-1787
▁ceux	-1788
alf	-1789
llez	-1790
▁auc	-1791
▁create	-1792
▁projet	-1793
▁interesting	-1794
▁ev	-1795
▁quite	-1796
▁health	-1797
▁getting	-1798
ergy	-1799
▁pay	-1800
▁situ	-1801
▁petite	-1802
era	-1803
▁jours	-1804
▁future	-1805
ince	-1806
▁sense	-1807
▁transform	-1808
istes	-1809
▁moyen	-1810
▁head	-1811
▁chez	-1812
▁val	-1813
▁As	-1814
▁These	-1815
▁organis	-1816
ub	-1817
▁rég	-1818
▁mess	-1819
▁savoir	-1820
▁Pe	-1821
▁mind	-1822
onne	-1823
▁enough	-1824
nous	-1825
▁sim	-1826
▁comes	-1827
▁fri	-1828
▁propos	-1829
▁mois	-1830
▁raison	-1831
orn	-1832
han	-1833
▁fig	-1834
sembl	-1835
▁ég	-1836
ution	-1837
vie	-1838
▁force	-1839
▁ordin	-1840
▁contro	-1841
▁recher	-1842
oupe	-1843
▁tot	-1844
acte	-1845
llig	-1846
▁happened	-1847
▁count	-1848
▁probably	-1849
aps	-1850
ides	-1851
▁building	-1852
▁ép	-1853
▁cir	-1854
▁pot	-1855
itions	-1856
▁nive	-1857
▁forme	-1858
onder	-1859
ament	-1860
mment	-1861
▁best	-1862
sy	-1863
▁Here	-1864
▁expéri	-1865
èg	-1866
▁ach	-1867
▁home	-1868
ote	-1869
agit	-1870
▁lim	-1871
▁pret	-1872
▁become	-1873
▁number	-1874
▁loc	-1875
▁wal	-1876
ente	-1877
▁parf	-1878
▁energy	-1879
▁18	-1880
▁occ	-1881
▁machine	-1882
▁nouvelle	-1883
▁cle	-1884
▁mieux	-1885
ze	-1886
reen	-1887
histoire	-1888
▁She	-1889
cted	-1890
▁blo	-1891
▁bre	-1892
▁fab	-1893
▁succ	-1894
llow	-1895
▁serait	-1896
▁talking	-1897
▁population	-1898
gg	-1899
▁ainsi	-1900
▁dri	-1901
▁month	-1902
▁000	-1903
endu	-1904
▁doit	-1905
▁quat	-1906
▁stand	-1907
▁compan	-1908
▁princip	-1909
▁près	-1910
là	-1911
omp	-1912
▁making	-1913
ash	-1914
uer	-1915
quel	-1916
▁corps	-1917
▁milli	-1918
▁...	-1919
▁penser	-1920
▁dou	-1921
▁room	-1922
nov	-1923
br	-1924
ird	-1925
rir	-1926
▁Chin	-1927
▁modè	-1928
▁complet	-1929
▁York	-1930
▁avaient	-1931
ocr	-1932
ieurs	-1933
ument	-1934
▁pren	-1935
▁Africa	-1936
▁connect	-1937
▁entrepr	-1938
▁pap	-1939
▁vide	-1940
▁compte	-1941
▁vont	-1942
▁front	-1943
▁My	-1944
▁times	-1945
lic	-1946
▁côté	-1947
eng	-1948
▁invent	-1949
▁terr	-1950
▁veut	-1951
▁coming	-1952
▁contre	-1953
▁passer	-1954
▁elect	-1955
▁business	-1956
▁pie	-1957
▁All	-1958
▁reven	-1959
ward	-1960
idée	-1961
▁mét	-1962
▁neur	-1963
même	-1964
▁prov	-1965
▁économ	-1966
▁cours	-1967
▁cause	-1968
▁class	-1969
▁far	-1970
ott	-1971
ever	-1972
itive	-1973
▁allons	-1974
ook	-1975
▁typ	-1976
wer	-1977
▁No	-1978
▁else	-1979
▁seul	-1980
▁hy	-1981
isme	-1982
▁side	-1983
▁extra	-1984
▁lieu	-1985
▁wee	-1986
▁wonder	-1987
▁'	-1988
orme	-1989
▁set	-1990
ôle	-1991
omm	-1992
anté	-1993
▁For	-1994
▁12	-1995
▁nour	-1996
▁says	-1997
▁appro	-1998
▁imagine	-1999
▁Internet	-2000
▁anything	-2001
▁top	-2002
enir	-2003
▁rac	-2004
▁réc	-2005
oles	-2006
▁Que	-2007
▁disp	-2008
▁pretty	-2009
▁desc	-2010
▁half	-2011
▁incroy	-2012
aille	-2013
▁body	-2014
▁capac	-2015
oh	-2016
jets	-2017
▁surface	-2018
▁norm	-2019
▁femme	-2020
▁changer	-2021
▁model	-2022
▁def	-2023
▁keep	-2024
▁trouve	-2025
▁bad	-2026
avons	-2027
vern	-2028
érer	-2029
▁without	-2030
lu	-2031
▁cin	-2032
elles	-2033
iquement	-2034
ission	-2035
▁gouver	-2036
avoir	-2037
▁goes	-2038
▁experience	-2039
▁govern	-2040
▁add	-2041
▁product	-2042
▁arch	-2043
▁possib	-2044
▁maj	-2045
▁prote	-2046
lui	-2047
idd	-2048
ety	-2049
eter	-2050
▁pain	-2051
▁préc	-2052
▁viol	-2053
▁quant	-2054
▁propre	-2055
▁réalis	-2056
▁représent	-2057
▁mond	-2058
▁autour	-2059
em	-2060
tant	-2061
▁malad	-2062
▁allow	-2063
land	-2064
▁saw	-2065
▁reason	-2066
kay	-2067
▁fall	-2068
▁donne	-2069
▁Fr	-2070
▁utiliser	-2071
▁ant	-2072
▁char	-2073
▁connaiss	-2074
êmes	-2075
ately	-2076
icile	-2077
env	-2078
orth	-2079
▁répons	-2080
▁différentes	-2081
▁sera	-2082
▁bring	-2083
ying	-2084
▁told	-2085
▁picture	-2086
Unis	-2087
▁celui	-2088
▁basically	-2089
▁40	-2090
▁équ	-2091
▁seen	-2092
ton	-2093
▁cam	-2094
ension	-2095
▁object	-2096
▁happens	-2097
▁planète	-2098
▁sé	-2099
çons	-2100
rodu	-2101
▁faisons	-2102
èce	-2103
▁across	-2104
▁faites	-2105
▁certains	-2106
▁scientif	-2107
▁begin	-2108
▁quatre	-2109
cies	-2110
oque	-2111
oires	-2112
énerg	-2113
▁countries	-2114
where	-2115
▁global	-2116
aug	-2117
▁rapide	-2118
▁découver	-2119
▁haut	-2120
▁such	-2121
argent	-2122
▁Earth	-2123
eur	-2124
▁pi	-2125
▁laiss	-2126
sych	-2127
rais	-2128
énergie	-2129
pir	-2130
▁log	-2131
arri	-2132
éric	-2133
▁photo	-2134
▁niveau	-2135
▁communaut	-2136
uge	-2137
▁25	-2138
▁computer	-2139
▁activ	-2140
▁images	-2141
▁parl	-2142
ax	-2143
▁job	-2144
▁structure	-2145
▁invest	-2146
▁planet	-2147
▁dise	-2148
▁tend	-2149
▁tard	-2150
▁difficile	-2151
▁technologies	-2152
▁hope	-2153
encont	-2154
yn	-2155
▁;	-2156
▁Or	-2157
▁music	-2158
éré	-2159
▁Go	-2160
▁case	-2161
▁parents	-2162
▁Des	-2163
▁Let	-2164
▁surv	-2165
▁makes	-2166
▁youn	-2167
▁É	-2168
oul	-2169
▁rich	-2170
ises	-2171
itude	-2172
urope	-2173
member	-2174
▁obten	-2175
ox	-2176
▁chance	-2177
▁having	-2178
▁problems	-2179
aw	-2180
▁giv	-2181
▁voulez	-2182
▁celle	-2183
▁sound	-2184
ames	-2185
▁vér	-2186
▁ville	-2187
▁sex	-2188
▁camp	-2189
▁Comment	-2190
most	-2191
ization	-2192
▁diffic	-2193
▁rese	-2194
auvais	-2195
importe	-2196
▁signif	-2197
▁vidé	-2198
▁living	-2199
iser	-2200
▁days	-2201
▁santé	-2202
▁réalité	-2203
▁dim	-2204
▁ideas	-2205
▁lumière	-2206
▁eas	-2207
▁level	-2208
▁ensemble	-2209
ètres	-2210
▁heure	-2211
▁relig	-2212
vert	-2213
▁surpr	-2214
▁allez	-2215
▁tra	-2216
▁stat	-2217
▁Sh	-2218
▁commence	-2219
▁rencont	-2220
▁ways	-2221
▁ident	-2222
▁langu	-2223
▁parle	-2224
▁psych	-2225
▁appr	-2226
▁lives	-2227
▁intellig	-2228
teur	-2229
▁civ	-2230
▁later	-2231
▁mauvais	-2232
▁sure	-2233
appelle	-2234
ush	-2235
▁début	-2236
▁reste	-2237
▁table	-2238
▁complète	-2239
",	-2240
ock	-2241
rez	-2242
▁hab	-2243
rait	-2244
▁thous	-2245
▁consci	-2246
ake	-2247
uck	-2248
▁cho	-2249
Wh	-2250
▁Bon	-2251
▁base	-2252
▁asked	-2253
▁robot	-2254
▁trouvé	-2255
lev	-2256
▁net	-2257
▁intern	-2258
unes	-2259
▁mass	-2260
▁market	-2261
tent	-2262
ession	-2263
▁essent	-2264
▁lorsque	-2265
ination	-2266
▁figure	-2267
▁list	-2268
urg	-2269
work	-2270
▁bro	-2271
▁thé	-2272
lus	-2273
assion	-2274
▁single	-2275
▁souvent	-2276
▁truc	-2277
▁Cette	-2278
▁family	-2279
▁saying	-2280
ism	-2281
▁mult	-2282
isation	-2283
▁incred	-2284
▁répond	-2285
▁probablement	-2286
▁conv	-2287
▁answer	-2288
▁amaz	-2289
▁vill	-2290
▁arr	-2291
▁idées	-2292
▁produit	-2293
ilt	-2294
▁cost	-2295
▁micro	-2296
▁partir	-2297
ium	-2298
▁cy	-2299
▁Ces	-2300
▁mater	-2301
▁sujet	-2302
▁savons	-2303
▁relations	-2304
ât	-2305
▁Am	-2306
agne	-2307
omes	-2308
▁environment	-2309
oss	-2310
prit	-2311
▁guy	-2312
▁situation	-2313
ken	-2314
▁marché	-2315
▁appar	-2316
▁groupe	-2317
ury	-2318
iale	-2319
▁emb	-2320
▁commencer	-2321
ream	-2322
▁travailler	-2323
ality	-2324
▁inside	-2325
▁ill	-2326
érique	-2327
▁maison	-2328
inter	-2329
▁cellules	-2330
ctions	-2331
▁opportun	-2332
gs	-2333
▁billion	-2334
léch	-2335
urb	-2336
▁rée	-2337
▁milliards	-2338
avi	-2339
▁equ	-2340
riture	-2341
▁exist	-2342
▁Voilà	-2343
▁résult	-2344
▁regardez	-2345
▁bat	-2346
univers	-2347
▁young	-2348
▁looks	-2349
▁discover	-2350
▁tellement	-2351
▁exact	-2352
▁couple	-2353
very	-2354
indre	-2355
▁both	-2356
▁self	-2357
▁remember	-2358
▁jeu	-2359
▁vue	-2360
iful	-2361
▁gir	-2362
▁hear	-2363
0,	-2364
▁élect	-2365
▁opt	-2366
▁share	-2367
▁wrong	-2368
▁société	-2369
▁Pourquoi	-2370
ener	-2371
▁yet	-2372
▁devez	-2373
▁voilà	-2374
ready	-2375
▁dest	-2376
▁within	-2377
oll	-2378
▁également	-2379
▁aud	-2380
▁fas	-2381
▁news	-2382
moi	-2383
▁almost	-2384
enn	-2385
▁CA	-2386
ided	-2387
▁red	-2388
orter	-2389
▁line	-2390
aud	-2391
▁Can	-2392
ément	-2393
▁suff	-2394
▁research	-2395
ane	-2396
▁én	-2397
▁cells	-2398
▁potent	-2399
ienne	-2400
▁presque	-2401
▁construire	-2402
unch	-2403
▁communic	-2404
▁Z	-2405
til	-2406
▁once	-2407
▁matter	-2408
▁changement	-2409
cale	-2410
▁looked	-2411
▁history	-2412
▁compassion	-2413
▁At	-2414
▁war	-2415
▁faci	-2416
▁regarder	-2417
▁solution	-2418
▁différents	-2419
▁!	-2420
▁math	-2421
▁watch	-2422
▁donné	-2423
▁whether	-2424
▁Elles	-2425
▁prom	-2426
espace	-2427
▁petits	-2428
▁amazing	-2429
ield	-2430
▁siè	-2431
inform	-2432
▁heart	-2433
▁archite	-2434
accord	-2435
issent	-2436
▁terre	-2437
▁nat	-2438
ering	-2439
▁circ	-2440
▁homme	-2441
▁enfant	-2442
▁innov	-2443
▁rev	-2444
▁mère	-2445
▁vient	-2446
▁tas	-2447
▁true	-2448
▁heard	-2449
▁already	-2450
ili	-2451
▁Bien	-2452
▁carb	-2453
▁orig	-2454
ator	-2455
▁coû	-2456
▁while	-2457
▁ment	-2458
▁lib	-2459
▁nouvelles	-2460
cl	-2461
ogn	-2462
less	-2463
▁cinq	-2464
▁livre	-2465
▁photograph	-2466
▁guerre	-2467
ossi	-2468
▁arrive	-2469
▁nothing	-2470
▁réfléch	-2471
▁beautiful	-2472
enf	-2473
▁pauv	-2474
iant	-2475
gment	-2476
▁everybody	-2477
▁extraordin	-2478
▁kill	-2479
▁magn	-2480
usement	-2481
▁complètement	-2482
▁endroit	-2483
▁facile	-2484
▁places	-2485
▁attention	-2486
mat	-2487
▁works	-2488
orer	-2489
side	-2490
▁months	-2491
ced	-2492
outh	-2493
▁requ	-2494
▁signifie	-2495
nel	-2496
acter	-2497
▁writ	-2498
▁retr	-2499
▁video	-2500
▁Ou	-2501
▁demandé	-2502
▁foc	-2503
▁material	-2504
eff	-2505
éro	-2506
▁God	-2507
▁Mon	-2508
▁gal	-2509
▁iss	-2510
vious	-2511
▁treat	-2512
▁hommes	-2513
▁patient	-2514
▁community	-2515
▁sau	-2516
▁web	-2517
▁série	-2518
▁pouvait	-2519
ipe	-2520
▁bât	-2521
▁universe	-2522
▁vari	-2523
▁order	-2524
▁piece	-2525
▁dernière	-2526
▁plusieurs	-2527
▁prés	-2528
▁India	-2529
▁remar	-2530
▁points	-2531
▁vision	-2532
bes	-2533
▁fai	-2534
▁tre	-2535
▁must	-2536
▁ligne	-2537
▁année	-2538
▁often	-2539
ctor	-2540
uelle	-2541
▁Car	-2542
osed	-2543
iddle	-2544
▁built	-2545
▁concent	-2546
▁famille	-2547
▁Eh	-2548
▁continu	-2549
▁entendu	-2550
▁Why	-2551
otion	-2552
▁chall	-2553
▁réponse	-2554
▁patients	-2555
▁site	-2556
▁voud	-2557
▁United	-2558
acy	-2559
esse	-2560
istan	-2561
▁language	-2562
▁walk	-2563
ièrement	-2564
▁hor	-2565
uf	-2566
undred	-2567
▁calcul	-2568
▁species	-2569
avant	-2570
▁heures	-2571
line	-2572
▁Ceci	-2573
▁difficult	-2574
▁Se	-2575
▁anal	-2576
ources	-2577
▁Europe	-2578
▁follow	-2579
▁rendre	-2580
▁tradition	-2581
▁land	-2582
▁entire	-2583
icip	-2584
▁kil	-2585
temps	-2586
▁humains	-2587
Af	-2588
avor	-2589
stead	-2590
▁instit	-2591
▁retour	-2592
▁processus	-2593
ully	-2594
iction	-2595
▁crit	-2596
▁stop	-2597
▁myself	-2598
▁cop	-2599
▁major	-2600
éli	-2601
cev	-2602
▁ém	-2603
omme	-2604
▁Est	-2605
▁quelle	-2606
▁control	-2607
▁voiture	-2608
ande	-2609
▁emplo	-2610
▁humain	-2611
ume	-2612
▁quick	-2613
▁disent	-2614
▁somebody	-2615
▁tête	-2616
▁Terre	-2617
▁spect	-2618
▁199	-2619
▁age	-2620
▁consid	-2621
▁engine	-2622
▁oce	-2623
▁appris	-2624
▁hundred	-2625
▁someone	-2626
get	-2627
imer	-2628
▁arg	-2629
▁until	-2630
ige	-2631
▁gar	-2632
▁bout	-2633
étique	-2634
▁comporte	-2635
thers	-2636
▁fund	-2637
▁const	-2638
▁passion	-2639
▁words	-2640
▁Man	-2641
▁proch	-2642
▁individual	-2643
oph	-2644
intérieur	-2645
iqu	-2646
▁sw	-2647
▁kinds	-2648
abord	-2649
ibles	-2650
▁modèle	-2651
▁partout	-2652
▁gard	-2653
▁taking	-2654
▁collect	-2655
ras	-2656
rès	-2657
ouss	-2658
▁tool	-2659
▁vidéo	-2660
▁happening	-2661
avez	-2662
▁city	-2663
▁yeux	-2664
▁mouve	-2665
oix	-2666
▁Gr	-2667
▁incre	-2668
▁appelé	-2669
▁nourriture	-2670
èces	-2671
ivité	-2672
rière	-2673
▁night	-2674
▁recherche	-2675
ivent	-2676
▁itself	-2677
▁deal	-2678
▁name	-2679
▁Every	-2680
rill	-2681
onter	-2682
▁atte	-2683
▁state	-2684
inc	-2685
▁mer	-2686
▁capable	-2687
▁completely	-2688
port	-2689
▁chac	-2690
▁deep	-2691
▁fant	-2692
▁gets	-2693
abilité	-2694
▁exacte	-2695
▁musique	-2696
▁intéressant	-2697
mis	-2698
▁isn	-2699
▁Goog	-2700
▁voulais	-2701
mi	-2702
▁Ét	-2703
▁nuc	-2704
▁kne	-2705
▁sud	-2706
auche	-2707
▁huge	-2708
▁wasn	-2709
▁decided	-2710
▁exactly	-2711
▁éch	-2712
▁Then	-2713
▁result	-2714
▁lequel	-2715
▁simil	-2716
▁States	-2717
▁behavi	-2718
▁60	-2719
▁view	-2720
▁animal	-2721
▁education	-2722
▁développement	-2723
ired	-2724
▁cat	-2725
els	-2726
▁indust	-2727
▁students	-2728
liquer	-2729
▁pensé	-2730
▁rése	-2731
▁though	-2732
▁voyons	-2733
etic	-2734
fect	-2735
▁fly	-2736
▁élé	-2737
ivement	-2738
iments	-2739
af	-2740
bas	-2741
▁etc	-2742
▁instru	-2743
▁poll	-2744
▁wind	-2745
▁mesure	-2746
▁particular	-2747
▁dig	-2748
▁Comme	-2749
▁chois	-2750
▁?"	-2751
urer	-2752
▁touch	-2753
▁expérience	-2754
▁ele	-2755
urité	-2756
▁Dieu	-2757
▁word	-2758
▁success	-2759
▁government	-2760
év	-2761
âce	-2762
came	-2763
érence	-2764
▁woman	-2765
wards	-2766
▁vale	-2767
▁croy	-2768
▁priv	-2769
▁house	-2770
▁spend	-2771
ability	-2772
▁disease	-2773
▁essayer	-2774
▁meilleur	-2775
▁Oh	-2776
▁merve	-2777
▁avions	-2778
▁Do	-2779
ulent	-2780
▁game	-2781
▁became	-2782
▁montre	-2783
ular	-2784
▁ban	-2785
▁syn	-2786
▁médic	-2787
▁virus	-2788
▁Google	-2789
▁tom	-2790
▁meet	-2791
▁since	-2792
▁animaux	-2793
▁perform	-2794
▁stories	-2795
▁certaines	-2796
reg	-2797
itation	-2798
▁marche	-2799
▁America	-2800
rible	-2801
▁chem	-2802
▁meas	-2803
▁ext	-2804
▁ball	-2805
▁guys	-2806
oration	-2807
▁mother	-2808
▁ones	-2809
▁along	-2810
ony	-2811
osph	-2812
▁adv	-2813
▁règ	-2814
▁journ	-2815
▁communauté	-2816
ouvrir	-2817
▁jouer	-2818
▁exactement	-2819
▁lég	-2820
▁Ainsi	-2821
▁écrit	-2822
▁source	-2823
▁voulons	-2824
ik	-2825
éf	-2826
ology	-2827
▁turns	-2828
▁animals	-2829
▁bab	-2830
idence	-2831
▁company	-2832
▁Oui	-2833
teurs	-2834
▁décidé	-2835
▁11	-2836
ettes	-2837
▁close	-2838
▁médec	-2839
▁capacité	-2840
▁won	-2841
▁sugg	-2842
itting	-2843
▁dernier	-2844
▁ourselves	-2845
▁réellement	-2846
aff	-2847
ware	-2848
▁bott	-2849
▁learned	-2850
▁div	-2851
olved	-2852
▁free	-2853
▁prim	-2854
▁labor	-2855
▁rather	-2856
▁téléph	-2857
ma	-2858
▁perd	-2859
▁vivre	-2860
▁augment	-2861
▁village	-2862
▁compos	-2863
icle	-2864
isions	-2865
▁photos	-2866
▁rapport	-2867
▁dernières	-2868
▁sil	-2869
heure	-2870
▁cart	-2871
▁dois	-2872
▁vois	-2873
▁États	-2874
▁grands	-2875
▁arriver	-2876
▁rédu	-2877
▁sembl	-2878
▁divers	-2879
▁dessus	-2880
▁message	-2881
aimer	-2882
▁loin	-2883
▁liter	-2884
▁study	-2885
▁merveille	-2886
rire	-2887
▁fre	-2888
▁prix	-2889
ished	-2890
The	-2891
▁bar	-2892
▁cool	-2893
▁civil	-2894
▁focus	-2895
▁centre	-2896
▁rapidement	-2897
▁past	-2898
▁graph	-2899
▁least	-2900
▁gouvernement	-2901
çu	-2902
haps	-2903
orie	-2904
ister	-2905
▁devenir	-2906
▁friends	-2907
ades	-2908
▁access	-2909
▁ni	-2910
▁oil	-2911
▁lots	-2912
den	-2913
orld	-2914
▁ann	-2915
roits	-2916
▁créat	-2917
▁jeunes	-2918
▁ressemble	-2919
▁themselves	-2920
▁Quel	-2921
▁conte	-2922
je	-2923
opp	-2924
merg	-2925
▁néc	-2926
▁favor	-2927
▁fac	-2928
▁knew	-2929
▁futur	-2930
▁couldn	-2931
▁post	-2932
▁pred	-2933
environ	-2934
▁politique	-2935
▁Okay	-2936
▁present	-2937
ossible	-2938
▁impact	-2939
▁continue	-2940
aître	-2941
▁hold	-2942
▁hours	-2943
ception	-2944
▁record	-2945
▁created	-2946
hab	-2947
▁sait	-2948
▁découvert	-2949
années	-2950
▁aucun	-2951
▁galax	-2952
▁happy	-2953
▁él	-2954
▁créé	-2955
▁trou	-2956
▁early	-2957
▁worked	-2958
▁regarde	-2959
not	-2960
▁gauche	-2961
▁petites	-2962
▁cut	-2963
▁peur	-2964
▁grâce	-2965
▁local	-2966
Oh	-2967
erm	-2968
▁arriv	-2969
▁prend	-2970
▁semble	-2971
▁natural	-2972
▁Non	-2973
issez	-2974
éan	-2975
école	-2976
▁week	-2977
▁histoires	-2978
▁area	-2979
▁gave	-2980
issons	-2981
▁speak	-2982
▁nécess	-2983
▁80	-2984
▁third	-2985
▁society	-2986
▁wonderful	-2987
▁suite	-2988
▁systems	-2989
hum	-2990
▁oper	-2991
▁père	-2992
▁sold	-2993
▁China	-2994
▁difference	-2995
astic	-2996
▁Some	-2997
▁types	-2998
▁Im	-2999
▁American	-3000
▁milliers	-3001
▁incroyable	-3002
▁remp	-3003
▁choix	-3004
▁ressembl	-3005
▁longtemps	-3006
▁16	-3007
▁grandes	-3008
▁bal	-3009
▁seem	-3010
▁fille	-3011
▁taken	-3012
▁terms	-3013
▁outside	-3014
ront	-3015
▁din	-3016
▁sal	-3017
▁reconn	-3018
vention	-3019
▁siècle	-3020
▁against	-3021
▁apprendre	-3022
cier	-3023
apt	-3024
ival	-3025
▁pan	-3026
▁Puis	-3027
▁seven	-3028
▁sometimes	-3029
rog	-3030
étro	-3031
▁aurait	-3032
▁distrib	-3033
irer	-3034
agine	-3035
▁fur	-3036
▁prog	-3037
endent	-3038
▁beginning	-3039
occ	-3040
pital	-3041
▁défin	-3042
▁everyone	-3043
▁différence	-3044
rés	-3045
▁amis	-3046
▁moving	-3047
▁sout	-3048
ologie	-3049
atiques	-3050
▁aucune	-3051
▁pattern	-3052
▁learning	-3053
▁position	-3054
omet	-3055
▁confl	-3056
▁fabri	-3057
▁porte	-3058
▁taille	-3059
▁cou	-3060
▁black	-3061
▁behavior	-3062
▁thousands	-3063
ohn	-3064
▁larg	-3065
▁field	-3066
▁impro	-3067
▁pensez	-3068
iants	-3069
▁coule	-3070
uv	-3071
iger	-3072
▁incl	-3073
▁aider	-3074
▁listen	-3075
aime	-3076
▁convers	-3077
écurité	-3078
▁entier	-3079
▁version	-3080
Well	-3081
rons	-3082
ither	-3083
▁ocean	-3084
▁arrivé	-3085
▁century	-3086
▁leaders	-3087
▁dru	-3088
amb	-3089
ias	-3090
ération	-3091
▁demande	-3092
yg	-3093
▁press	-3094
Afrique	-3095
aimerais	-3096
olutions	-3097
▁interact	-3098
yes	-3099
▁compris	-3100
▁support	-3101
uellement	-3102
éb	-3103
ared	-3104
▁dépl	-3105
▁mots	-3106
▁améric	-3107
▁veulent	-3108
▁ge	-3109
▁finan	-3110
▁Pas	-3111
▁World	-3112
rew	-3113
▁der	-3114
nelle	-3115
aque	-3116
aller	-3117
▁West	-3118
▁effic	-3119
▁direction	-3120
ènes	-3121
▁Pro	-3122
▁envoy	-3123
▁others	-3124
iné	-3125
itié	-3126
▁code	-3127
▁ense	-3128
▁short	-3129
▁devant	-3130
▁ir	-3131
▁green	-3132
▁devrait	-3133
▁dra	-3134
esprit	-3135
▁takes	-3136
▁devient	-3137
▁programme	-3138
ram	-3139
▁low	-3140
organ	-3141
▁foot	-3142
▁instead	-3143
iver	-3144
▁sat	-3145
▁anci	-3146
▁parts	-3147
▁lesque	-3148
airement	-3149
ases	-3150
▁ing	-3151
amour	-3152
▁fort	-3153
▁full	-3154
▁milieu	-3155
▁meilleure	-3156
▁travaille	-3157
▁importante	-3158
liqu	-3159
▁oui	-3160
▁direct	-3161
leil	-3162
▁Chris	-3163
ouge	-3164
▁law	-3165
▁poor	-3166
▁péri	-3167
▁contrib	-3168
▁parfois	-3169
▁conditions	-3170
▁relationship	-3171
atic	-3172
▁Engl	-3173
▁impossible	-3174
▁chim	-3175
▁Chine	-3176
▁seeing	-3177
ling	-3178
▁Cal	-3179
▁John	-3180
▁centr	-3181
▁venir	-3182
▁compar	-3183
▁production	-3184
▁hon	-3185
▁eyes	-3186
Je	-3187
▁bou	-3188
▁sun	-3189
▁phil	-3190
▁plein	-3191
▁recent	-3192
0.	-3193
aig	-3194
isc	-3195
▁14	-3196
▁page	-3197
▁needs	-3198
▁parlé	-3199
verage	-3200
▁leave	-3201
▁finally	-3202
▁obvious	-3203
▁perfect	-3204
▁demander	-3205
amm	-3206
ove	-3207
▁énorme	-3208
chelle	-3209
▁termes	-3210
▁appelle	-3211
▁service	-3212
ama	-3213
eurs	-3214
ifier	-3215
usion	-3216
▁perhaps	-3217
eah	-3218
▁Not	-3219
▁card	-3220
ency	-3221
▁mem	-3222
▁eight	-3223
▁collab	-3224
issement	-3225
▁voudrais	-3226
information	-3227
▁17	-3228
▁util	-3229
▁humaine	-3230
▁whatever	-3231
ann	-3232
▁Ph	-3233
▁Ste	-3234
▁souff	-3235
▁middle	-3236
▁endroits	-3237
cles	-3238
▁mob	-3239
▁fasc	-3240
▁team	-3241
▁habit	-3242
▁salle	-3243
▁dispar	-3244
éh	-3245
ney	-3246
rup	-3247
▁flo	-3248
▁préf	-3249
▁hands	-3250
▁visual	-3251
▁ressent	-3252
▁droite	-3253
▁particip	-3254
▁particulier	-3255
▁Ge	-3256
▁buy	-3257
ially	-3258
▁sortes	-3259
▁profession	-3260
▁vite	-3261
▁break	-3262
▁selon	-3263
▁amount	-3264
▁ble	-3265
▁champ	-3266
▁milit	-3267
▁common	-3268
▁unique	-3269
▁experiment	-3270
▁arm	-3271
▁cannot	-3272
▁minute	-3273
▁systèmes	-3274
▁X	-3275
ike	-3276
âge	-3277
view	-3278
ustrie	-3279
▁directe	-3280
▁produits	-3281
▁wait	-3282
icated	-3283
ulaire	-3284
▁puisse	-3285
▁absolut	-3286
ero	-3287
▁mol	-3288
outer	-3289
▁easy	-3290
▁turned	-3291
▁network	-3292
▁parfait	-3293
▁influ	-3294
dess	-3295
▁changed	-3296
▁mouvement	-3297
soci	-3298
▁sac	-3299
▁étr	-3300
▁sortir	-3301
▁%	-3302
▁bure	-3303
▁existe	-3304
▁origin	-3305
ails	-3306
▁sécurité	-3307
aged	-3308
▁cit	-3309
▁clin	-3310
▁size	-3311
▁vert	-3312
▁longer	-3313
▁statist	-3314
bres	-3315
gard	-3316
▁chacun	-3317
of	-3318
lam	-3319
▁death	-3320
abl	-3321
▁fix	-3322
avait	-3323
cevoir	-3324
▁combien	-3325
▁.	-3326
▁ait	-3327
aught	-3328
▁Just	-3329
▁wall	-3330
▁evolution	-3331
▁dû	-3332
▁leg	-3333
▁ton	-3334
lling	-3335
▁path	-3336
▁given	-3337
▁reach	-3338
▁scientifiques	-3339
NA	-3340
erez	-3341
▁feet	-3342
▁robots	-3343
yer	-3344
▁500	-3345
ancer	-3346
▁blue	-3347
▁gone	-3348
▁machines	-3349
▁perspect	-3350
▁interested	-3351
aît	-3352
ynam	-3353
iting	-3354
ledge	-3355
▁Mars	-3356
▁pick	-3357
ctures	-3358
▁droit	-3359
▁profond	-3360
▁deuxième	-3361
▁comportement	-3362
hy	-3363
ires	-3364
ture	-3365
èrent	-3366
▁afin	-3367
▁compren	-3368
elt	-3369
ghan	-3370
▁pur	-3371
▁stre	-3372
▁inspir	-3373
▁eat	-3374
▁fore	-3375
utions	-3376
évolution	-3377
atif	-3378
▁kid	-3379
▁tiss	-3380
ration	-3381
▁explain	-3382
sh	-3383
▁ap	-3384
▁spé	-3385
aring	-3386
▁carte	-3387
▁color	-3388
▁tried	-3389
▁devenu	-3390
▁signific	-3391
▁finalement	-3392
▁maladie	-3393
▁yourself	-3394
oudre	-3395
▁rent	-3396
amment	-3397
▁jeune	-3398
▁morce	-3399
▁nation	-3400
▁repres	-3401
ué	-3402
acer	-3403
▁ear	-3404
▁nuit	-3405
▁behind	-3406
▁during	-3407
▁concern	-3408
▁personn	-3409
année	-3410
êtres	-3411
▁began	-3412
ifique	-3413
▁event	-3414
▁affect	-3415
ined	-3416
▁Jap	-3417
▁bir	-3418
▁conse	-3419
▁scale	-3420
▁action	-3421
▁villes	-3422
▁90	-3423
▁virt	-3424
▁extre	-3425
▁environnement	-3426
▁aj	-3427
itch	-3428
▁dark	-3429
aissez	-3430
▁doivent	-3431
aves	-3432
ivity	-3433
▁corre	-3434
▁normal	-3435
▁ability	-3436
▁contrôle	-3437
▁May	-3438
▁memb	-3439
▁media	-3440
▁croiss	-3441
men	-3442
oon	-3443
▁nu	-3444
oser	-3445
fully	-3446
iance	-3447
▁coin	-3448
▁feed	-3449
▁pouss	-3450
▁Imagine	-3451
▁quickly	-3452
▁powerful	-3453
fe	-3454
aking	-3455
▁commerci	-3456
▁physique	-3457
▁flu	-3458
▁vit	-3459
mêmes	-3460
utiliser	-3461
▁noir	-3462
▁Right	-3463
▁paper	-3464
▁informations	-3465
Ind	-3466
▁needed	-3467
▁measure	-3468
▁respect	-3469
▁relation	-3470
▁fonctionne	-3471
aie	-3472
▁Co	-3473
▁allé	-3474
▁vent	-3475
▁livres	-3476
year	-3477
▁pied	-3478
▁sang	-3479
▁shows	-3480
▁expect	-3481
▁spir	-3482
▁symp	-3483
▁Afrique	-3484
▁realized	-3485
ève	-3486
▁fish	-3487
▁People	-3488
▁father	-3489
▁utilisé	-3490
▁personal	-3491
▁198	-3492
▁autom	-3493
▁friend	-3494
▁simply	-3495
▁pouvais	-3496
ump	-3497
▁13	-3498
▁béb	-3499
▁sum	-3500
inte	-3501
▁fast	-3502
▁solutions	-3503
▁changé	-3504
▁incredible	-3505
oms	-3506
aide	-3507
▁heureux	-3508
▁seconde	-3509
▁mondiale	-3510
rée	-3511
▁Ma	-3512
▁fourn	-3513
▁pétro	-3514
▁moitié	-3515
What	-3516
▁vies	-3517
▁moléc	-3518
astique	-3519
▁appare	-3520
▁équipe	-3521
▁produire	-3522
▁transport	-3523
DN	-3524
▁appe	-3525
▁zone	-3526
onomie	-3527
▁brill	-3528
▁laborat	-3529
▁laisser	-3530
You	-3531
aster	-3532
▁Certain	-3533
bers	-3534
▁slow	-3535
▁special	-3536
inf	-3537
▁blog	-3538
▁final	-3539
▁pract	-3540
▁ground	-3541
▁journal	-3542
▁sitting	-3543
▁known	-3544
aper	-3545
▁poss	-3546
▁repl	-3547
to	-3548
▁sus	-3549
▁gars	-3550
▁dynam	-3551
▁pièce	-3552
▁danger	-3553
▁recogn	-3554
▁semaines	-3555
▁fondament	-3556
▁Ex	-3557
▁box	-3558
bor	-3559
uth	-3560
▁21	-3561
▁ten	-3562
▁mole	-3563
▁tent	-3564
▁miles	-3565
▁pensons	-3566
▁étudiants	-3567
isé	-3568
▁Br	-3569
▁doc	-3570
▁lire	-3571
▁write	-3572
▁Ensuite	-3573
In	-3574
▁gé	-3575
▁squ	-3576
anche	-3577
▁nice	-3578
▁symb	-3579
▁aspect	-3580
▁troisième	-3581
▁To	-3582
cell	-3583
rote	-3584
▁effet	-3585
▁voyage	-3586
œur	-3587
▁draw	-3588
expéri	-3589
▁phone	-3590
▁spent	-3591
▁expert	-3592
▁semaine	-3593
▁economic	-3594
▁différente	-3595
opt	-3596
ators	-3597
▁éner	-3598
▁chiff	-3599
▁famil	-3600
▁nouveaux	-3601
ift	-3602
ered	-3603
inté	-3604
itable	-3605
▁areas	-3606
▁either	-3607
▁humans	-3608
▁littér	-3609
▁observ	-3610
▁derrière	-3611
▁ordinateur	-3612
icles	-3613
▁progress	-3614
iny	-3615
▁Sud	-3616
homme	-3617
▁terme	-3618
▁mètres	-3619
▁economy	-3620
▁construit	-3621
▁pourrions	-3622
alle	-3623
amed	-3624
▁urb	-3625
▁felt	-3626
▁dream	-3627
▁weeks	-3628
▁raisons	-3629
50	-3630
▁er	-3631
▁aim	-3632
▁ice	-3633
▁girl	-3634
ensions	-3635
▁filles	-3636
▁brought	-3637
▁feeling	-3638
▁approach	-3639
▁Sec	-3640
▁lost	-3641
époque	-3642
▁Etats	-3643
▁matéri	-3644
▁strong	-3645
▁propres	-3646
▁serious	-3647
▁bâtiment	-3648
▁certaine	-3649
Th	-3650
oty	-3651
▁DNA	-3652
▁inse	-3653
▁rempl	-3654
idge	-3655
istic	-3656
uring	-3657
éducation	-3658
▁partager	-3659
cé	-3660
▁pal	-3661
▁tit	-3662
▁réun	-3663
▁adult	-3664
▁enseign	-3665
▁restaur	-3666
▁centaines	-3667
▁ay	-3668
▁rê	-3669
omen	-3670
ript	-3671
▁gas	-3672
▁changes	-3673
aise	-3674
▁absol	-3675
▁bottom	-3676
▁effort	-3677
▁consomm	-3678
▁obtenir	-3679
▁opportunity	-3680
▁construction	-3681
itter	-3682
mosph	-3683
▁autant	-3684
▁encour	-3685
▁essayé	-3686
ubl	-3687
lant	-3688
▁Mal	-3689
ensive	-3690
▁mêmes	-3691
▁trucs	-3692
▁conséqu	-3693
▁deb	-3694
essay	-3695
▁attr	-3696
▁sudden	-3697
▁content	-3698
onf	-3699
rom	-3700
▁Sp	-3701
enge	-3702
ettez	-3703
▁associ	-3704
▁raconter	-3705
Am	-3706
ung	-3707
▁24	-3708
▁Mar	-3709
erson	-3710
▁rock	-3711
▁théorie	-3712
eth	-3713
uls	-3714
hood	-3715
êter	-3716
▁Har	-3717
▁Yeah	-3718
▁soft	-3719
▁step	-3720
▁soient	-3721
▁valeur	-3722
▁companies	-3723
▁knowledge	-3724
ID	-3725
▁Tr	-3726
ried	-3727
▁based	-3728
▁national	-3729
étés	-3730
resse	-3731
▁wrote	-3732
▁réseau	-3733
▁extrême	-3734
▁reality	-3735
▁pourriez	-3736
SA	-3737
ey	-3738
ipl	-3739
head	-3740
izing	-3741
▁bene	-3742
▁bomb	-3743
▁growth	-3744
▁longue	-3745
▁transf	-3746
▁étions	-3747
▁extreme	-3748
iellement	-3749
▁starting	-3750
▁Cl	-3751
▁mur	-3752
▁préd	-3753
▁blood	-3754
▁réuss	-3755
▁démocr	-3756
▁pensent	-3757
▁violence	-3758
▁croissance	-3759
▁perspective	-3760
▁forces	-3761
▁aliment	-3762
▁instant	-3763
▁morning	-3764
▁terrible	-3765
ext	-3766
êts	-3767
iate	-3768
▁auth	-3769
▁disait	-3770
▁viennent	-3771
ills	-3772
▁ram	-3773
▁books	-3774
▁average	-3775
stit	-3776
▁fro	-3777
▁réel	-3778
▁value	-3779
agement	-3780
▁Regard	-3781
▁center	-3782
▁cities	-3783
▁prison	-3784
▁theory	-3785
▁contact	-3786
ification	-3787
èse	-3788
▁ras	-3789
▁proc	-3790
▁haute	-3791
▁soleil	-3792
gy	-3793
▁send	-3794
osition	-3795
▁domaine	-3796
▁developed	-3797
ibly	-3798
ores	-3799
itesse	-3800
▁guess	-3801
▁caract	-3802
▁faisait	-3803
▁audience	-3804
▁electric	-3805
ored	-3806
iller	-3807
▁crée	-3808
espère	-3809
▁énerg	-3810
▁consum	-3811
▁fascin	-3812
▁literally	-3813
iod	-3814
▁Lond	-3815
ulture	-3816
▁capital	-3817
xte	-3818
▁Dr	-3819
▁bén	-3820
▁évol	-3821
▁commen	-3822
▁spread	-3823
ghanistan	-3824
▁political	-3825
▁communication	-3826
▁,	-3827
cep	-3828
▁196	-3829
▁ang	-3830
▁donn	-3831
▁stay	-3832
▁forward	-3833
appe	-3834
▁key	-3835
▁bord	-3836
▁vict	-3837
dessus	-3838
▁South	-3839
▁thank	-3840
▁English	-3841
▁discuss	-3842
▁services	-3843
▁oh	-3844
▁tw	-3845
▁uns	-3846
▁décl	-3847
▁flow	-3848
▁vacc	-3849
▁termin	-3850
▁wouldn	-3851
▁consider	-3852
▁résoudre	-3853
▁résultat	-3854
▁challenge	-3855
▁pourraient	-3856
oke	-3857
book	-3858
uels	-3859
▁300	-3860
▁pull	-3861
atives	-3862
▁mention	-3863
▁scientists	-3864
▁text	-3865
▁matin	-3866
▁modern	-3867
▁growing	-3868
▁physical	-3869
▁CO	-3870
hemat	-3871
▁init	-3872
▁motiv	-3873
nements	-3874
▁police	-3875
hi	-3876
asion	-3877
▁song	-3878
▁tools	-3879
▁classe	-3880
▁introdu	-3881
▁vitesse	-3882
aly	-3883
enne	-3884
▁sho	-3885
▁miss	-3886
▁avail	-3887
▁dinos	-3888
▁giving	-3889
▁suggest	-3890
▁résultats	-3891
cope	-3892
▁hos	-3893
ively	-3894
▁déch	-3895
cially	-3896
▁shape	-3897
lection	-3898
▁democr	-3899
▁devrions	-3900
▁quantité	-3901
▁architect	-3902
bo	-3903
▁born	-3904
▁dead	-3905
▁mari	-3906
▁voix	-3907
▁faisant	-3908
ett	-3909
val	-3910
▁plant	-3911
▁white	-3912
▁compét	-3913
▁playing	-3914
icy	-3915
pped	-3916
▁det	-3917
▁rid	-3918
rastru	-3919
▁parties	-3920
▁maladies	-3921
▁économique	-3922
rim	-3923
▁die	-3924
▁grav	-3925
▁spec	-3926
▁philos	-3927
ché	-3928
irm	-3929
▁Ab	-3930
rist	-3931
▁baby	-3932
▁jeux	-3933
regist	-3934
ustain	-3935
▁showed	-3936
▁journée	-3937
▁matière	-3938
▁scientifique	-3939
ios	-3940
isent	-3941
occup	-3942
erence	-3943
▁gives	-3944
▁positive	-3945
▁développer	-3946
com	-3947
▁alg	-3948
▁mut	-3949
▁caus	-3950
▁sept	-3951
▁absolutely	-3952
▁Tu	-3953
asser	-3954
iforn	-3955
light	-3956
ously	-3957
▁running	-3958
▁réfléchir	-3959
inct	-3960
rant	-3961
resp	-3962
uits	-3963
▁knows	-3964
▁parmi	-3965
▁seems	-3966
▁montré	-3967
▁règles	-3968
▁pétrole	-3969
▁surpris	-3970
▁nombreuses	-3971
ips	-3972
ters	-3973
▁demi	-3974
▁histor	-3975
▁climate	-3976
▁nombreux	-3977
ina	-3978
▁map	-3979
▁nég	-3980
▁parc	-3981
▁assis	-3982
▁zones	-3983
▁compet	-3984
▁mathém	-3985
▁period	-3986
▁tendance	-3987
▁developing	-3988
qui	-3989
udes	-3990
▁marcher	-3991
zz	-3992
▁contrô	-3993
▁notion	-3994
▁realize	-3995
▁premiers	-3996
▁religion	-3997
▁travaillé	-3998
▁dimensions	-3999
environnement	-4000
▁–	-4001
ague	-4002
▁197	-4003
▁var	-4004
erver	-4005
▁parad	-4006
▁talked	-4007
▁computers	-4008
imag	-4009
▁chans	-4010
▁stage	-4011
▁Chinese	-4012
▁understanding	-4013
▁pil	-4014
▁exam	-4015
▁conférence	-4016
▁conscience	-4017
win	-4018
▁ed	-4019
anda	-4020
avid	-4021
heur	-4022
▁Nord	-4023
▁gent	-4024
▁taux	-4025
▁mains	-4026
▁accept	-4027
riv	-4028
▁chef	-4029
▁agric	-4030
▁worth	-4031
▁infect	-4032
▁général	-4033
▁ordinateurs	-4034
▁conversation	-4035
▁70	-4036
▁Ici	-4037
liqué	-4038
▁moral	-4039
▁numbers	-4040
▁qualité	-4041
▁incredibly	-4042
▁institutions	-4043
▁aw	-4044
odes	-4045
▁Brit	-4046
▁fils	-4047
▁kilom	-4048
▁rendu	-4049
▁bonnes	-4050
▁projets	-4051
▁voulait	-4052
▁Californ	-4053
▁discovered	-4054
▁ressources	-4055
aï	-4056
▁i	-4057
▁Rich	-4058
▁mour	-4059
▁neigh	-4060
▁compagn	-4061
▁espèces	-4062
▁similar	-4063
mble	-4064
tenir	-4065
▁road	-4066
▁movement	-4067
Inde	-4068
▁cri	-4069
▁Char	-4070
▁grat	-4071
▁stup	-4072
▁tomb	-4073
▁faite	-4074
▁produce	-4075
▁téléphone	-4076
▁amb	-4077
▁feu	-4078
▁gag	-4079
entes	-4080
▁sand	-4081
▁clear	-4082
▁issue	-4083
▁formes	-4084
▁install	-4085
▁available	-4086
▁fundament	-4087
▁Bl	-4088
hait	-4089
▁sea	-4090
élect	-4091
▁Inde	-4092
iciens	-4093
▁radio	-4094
ication	-4095
▁modèles	-4096
▁moments	-4097
▁utilisant	-4098
mar	-4099
aill	-4100
like	-4101
▁aura	-4102
▁chemin	-4103
▁propri	-4104
▁langage	-4105
▁meaning	-4106
▁telling	-4107
the	-4108
▁aren	-4109
▁fini	-4110
▁fight	-4111
▁scène	-4112
▁période	-4113
▁innovation	-4114
▁ox	-4115
ainc	-4116
▁rate	-4117
▁scul	-4118
issant	-4119
▁anyone	-4120
oust	-4121
▁eye	-4122
▁ign	-4123
▁bras	-4124
▁cuis	-4125
▁mine	-4126
▁groupes	-4127
gré	-4128
auff	-4129
▁Rob	-4130
▁sit	-4131
▁Peut	-4132
▁risk	-4133
rement	-4134
▁outils	-4135
▁terror	-4136
▁reprodu	-4137
import	-4138
▁benef	-4139
▁hundreds	-4140
▁professe	-4141
ôte	-4142
▁haven	-4143
▁track	-4144
▁charge	-4145
▁insect	-4146
▁mission	-4147
▁pictures	-4148
▁development	-4149
!"	-4150
aul	-4151
ief	-4152
éch	-4153
lear	-4154
ified	-4155
iquer	-4156
▁réalisé	-4157
▁involved	-4158
▁entreprene	-4159
eté	-4160
let	-4161
▁optim	-4162
▁pourtant	-4163
ops	-4164
urt	-4165
apes	-4166
rice	-4167
▁soon	-4168
▁voie	-4169
▁films	-4170
▁travel	-4171
▁souhait	-4172
▁subject	-4173
▁chercher	-4174
▁mathemat	-4175
rupt	-4176
▁Our	-4177
▁Was	-4178
ester	-4179
urity	-4180
▁cover	-4181
▁plais	-4182
▁allait	-4183
▁manger	-4184
▁multip	-4185
▁corresp	-4186
▁reasons	-4187
erc	-4188
▁Ag	-4189
▁bur	-4190
▁ren	-4191
▁bact	-4192
▁prév	-4193
▁achie	-4194
▁savent	-4195
économie	-4196
▁becomes	-4197
▁Ad	-4198
ètre	-4199
▁quart	-4200
▁protég	-4201
▁époque	-4202
▁industry	-4203
▁represent	-4204
acle	-4205
océan	-4206
▁bons	-4207
▁soir	-4208
▁wish	-4209
▁lorsqu	-4210
▁pratique	-4211
▁correspond	-4212
▁entreprises	-4213
5,	-4214
ADN	-4215
▁bud	-4216
▁sup	-4217
▁farm	-4218
▁venu	-4219
▁Après	-4220
▁objets	-4221
▁pouvaient	-4222
▁traitement	-4223
izar	-4224
asing	-4225
▁alone	-4226
▁celles	-4227
▁espèce	-4228
▁putting	-4229
▁recently	-4230
ght	-4231
off	-4232
▁lif	-4233
▁save	-4234
▁succès	-4235
pecially	-4236
▁confiance	-4237
eux	-4238
atie	-4239
▁App	-4240
▁étant	-4241
▁applic	-4242
▁carbon	-4243
aissance	-4244
▁condition	-4245
ifi	-4246
▁sty	-4247
llect	-4248
▁cars	-4249
▁colon	-4250
cemment	-4251
▁batter	-4252
▁dépens	-4253
▁seront	-4254
▁National	-4255
▁extrêmement	-4256
ami	-4257
ube	-4258
▁Pr	-4259
ford	-4260
▁deg	-4261
ected	-4262
▁grad	-4263
▁poser	-4264
▁prise	-4265
▁secret	-4266
impression	-4267
obs	-4268
chan	-4269
wood	-4270
▁fle	-4271
▁emerg	-4272
▁truth	-4273
▁distance	-4274
▁relative	-4275
eny	-4276
ery	-4277
icon	-4278
▁fail	-4279
issions	-4280
▁conten	-4281
▁visage	-4282
▁bonheur	-4283
étr	-4284
uter	-4285
▁Dar	-4286
onstr	-4287
ormes	-4288
▁appren	-4289
▁artist	-4290
▁towards	-4291
▁creating	-4292
▁voitures	-4293
▁character	-4294
▁génération	-4295
cks	-4296
▁redu	-4297
▁condu	-4298
▁occup	-4299
▁perdu	-4300
▁rules	-4301
▁sustain	-4302
▁structures	-4303
oo	-4304
ède	-4305
oure	-4306
aisse	-4307
▁cœur	-4308
▁mode	-4309
▁tiny	-4310
▁bizar	-4311
▁defin	-4312
▁drive	-4313
▁issues	-4314
▁current	-4315
▁document	-4316
▁meilleurs	-4317
by	-4318
▁tel	-4319
▁moder	-4320
▁device	-4321
yr	-4322
ceive	-4323
▁logic	-4324
▁anybody	-4325
▁pauvres	-4326
▁mauvaise	-4327
▁découvrir	-4328
▁révolution	-4329
où	-4330
gest	-4331
▁Any	-4332
▁lit	-4333
ublic	-4334
▁molec	-4335
ilities	-4336
▁groups	-4337
▁couleur	-4338
ètes	-4339
▁méc	-4340
oring	-4341
▁gest	-4342
▁rare	-4343
▁bigger	-4344
▁necess	-4345
▁rester	-4346
▁mondial	-4347
▁remarqu	-4348
tem	-4349
▁Mo	-4350
▁neg	-4351
▁preu	-4352
▁améli	-4353
▁peine	-4354
▁smart	-4355
▁speed	-4356
▁bureau	-4357
▁emotion	-4358
▁absolument	-4359
ana	-4360
▁anc	-4361
▁died	-4362
▁girls	-4363
▁libert	-4364
▁suivre	-4365
▁vivent	-4366
▁cherche	-4367
▁conserv	-4368
ny	-4369
mit	-4370
xim	-4371
▁Mc	-4372
enez	-4373
expl	-4374
état	-4375
▁Qui	-4376
ource	-4377
▁déte	-4378
▁vérité	-4379
▁conception	-4380
▁international	-4381
osé	-4382
▁Ave	-4383
▁Mus	-4384
▁nav	-4385
icians	-4386
▁adapt	-4387
▁among	-4388
▁diagn	-4389
▁predict	-4390
▁utilise	-4391
▁représente	-4392
▁Ira	-4393
arily	-4394
cteur	-4395
▁Cong	-4396
otions	-4397
▁David	-4398
▁lived	-4399
▁région	-4400
expérience	-4401
tu	-4402
▁hyp	-4403
▁ult	-4404
▁rouge	-4405
▁general	-4406
▁schools	-4407
▁writing	-4408
ulf	-4409
ased	-4410
▁mir	-4411
▁route	-4412
▁resources	-4413
▁1,	-4414
▁radi	-4415
▁happiness	-4416
▁Of	-4417
inst	-4418
orge	-4419
tein	-4420
▁rue	-4421
ermin	-4422
icule	-4423
▁With	-4424
ishing	-4425
▁Christ	-4426
▁signal	-4427
▁digital	-4428
▁express	-4429
▁moyenne	-4430
▁designed	-4431
▁materials	-4432
.,	-4433
▁Ca	-4434
room	-4435
▁hyd	-4436
▁rele	-4437
avenir	-4438
▁movie	-4439
▁solve	-4440
▁attend	-4441
▁bacter	-4442
▁risque	-4443
▁article	-4444
▁continuer	-4445
▁generation	-4446
ray	-4447
▁rév	-4448
▁sym	-4449
▁batt	-4450
▁fire	-4451
▁medic	-4452
▁pages	-4453
▁trial	-4454
idemment	-4455
oe	-4456
yez	-4457
ivre	-4458
▁400	-4459
▁War	-4460
▁Web	-4461
après	-4462
▁link	-4463
▁games	-4464
▁glace	-4465
▁wants	-4466
▁nobody	-4467
▁imaginer	-4468
▁À	-4469
▁Gu	-4470
▁bed	-4471
▁mamm	-4472
itaire	-4473
▁breat	-4474
▁espace	-4475
▁screen	-4476
▁morceau	-4477
▁especially	-4478
agé	-4479
ancé	-4480
hors	-4481
leep	-4482
▁vul	-4483
▁fear	-4484
▁sculpt	-4485
▁showing	-4486
▁challeng	-4487
▁sentiment	-4488
▁effectivement	-4489
▁tâ	-4490
vest	-4491
yond	-4492
▁gam	-4493
pping	-4494
▁dipl	-4495
aments	-4496
▁attack	-4497
▁Richard	-4498
▁revenir	-4499
▁obviously	-4500
itif	-4501
▁yes	-4502
ently	-4503
▁boug	-4504
▁crise	-4505
istance	-4506
▁asking	-4507
▁papier	-4508
▁protect	-4509
des	-4510
airs	-4511
ball	-4512
lier	-4513
▁suc	-4514
human	-4515
▁trib	-4516
▁basic	-4517
▁throw	-4518
▁camera	-4519
▁pensais	-4520
▁certainly	-4521
how	-4522
son	-4523
yst	-4524
▁By	-4525
▁Tw	-4526
énom	-4527
▁ded	-4528
▁Avec	-4529
▁deli	-4530
▁erre	-4531
▁nuclé	-4532
▁sever	-4533
Amérique	-4534
▁changing	-4535
▁function	-4536
▁climatique	-4537
▁Afghanistan	-4538
▁œ	-4539
ompl	-4540
irurg	-4541
▁doig	-4542
▁huit	-4543
lement	-4544
▁constr	-4545
▁further	-4546
▁evidence	-4547
▁designers	-4548
▁philosoph	-4549
▁prochaine	-4550
▁psycholog	-4551
imm	-4552
▁Sc	-4553
onte	-4554
▁Fin	-4555
▁Yes	-4556
▁ner	-4557
isson	-4558
▁tort	-4559
isible	-4560
▁finir	-4561
mission	-4562
▁double	-4563
▁except	-4564
▁starts	-4565
▁transl	-4566
▁convainc	-4567
▁software	-4568
▁lesquelles	-4569
▁totalement	-4570
▁—	-4571
▁iP	-4572
fois	-4573
▁Sch	-4574
ielle	-4575
▁Bang	-4576
▁vieux	-4577
▁étonn	-4578
▁terrain	-4579
▁recherches	-4580
IT	-4581
vi	-4582
ify	-4583
▁rôle	-4584
▁skin	-4585
▁état	-4586
▁réussi	-4587
▁examples	-4588
▁expliquer	-4589
IV	-4590
go	-4591
▁Me	-4592
▁ut	-4593
akes	-4594
edia	-4595
▁Ben	-4596
▁unf	-4597
▁Deux	-4598
▁scan	-4599
tement	-4600
▁capables	-4601
▁projects	-4602
▁Mex	-4603
▁San	-4604
imate	-4605
▁Lors	-4606
▁solar	-4607
▁dispon	-4608
▁office	-4609
▁exciting	-4610
▁galaxies	-4611
▁récemment	-4612
▁revolution	-4613
term	-4614
ground	-4615
▁First	-4616
▁moved	-4617
▁appelée	-4618
▁prototy	-4619
▁infrastru	-4620
▁potential	-4621
▁scientific	-4622
aim	-4623
anz	-4624
iot	-4625
tout	-4626
▁écl	-4627
▁mécan	-4628
▁vraie	-4629
▁beyond	-4630
▁croire	-4631
▁Aujourd	-4632
▁several	-4633
▁totally	-4634
▁complexe	-4635
more	-4636
▁gaz	-4637
▁nut	-4638
▁Plus	-4639
▁magaz	-4640
▁synth	-4641
▁total	-4642
▁altern	-4643
▁intellect	-4644
cop	-4645
fort	-4646
▁gri	-4647
▁fair	-4648
▁Where	-4649
▁doute	-4650
▁peace	-4651
▁spirit	-4652
▁justice	-4653
▁Regardez	-4654
▁suivante	-4655
esth	-4656
▁dér	-4657
▁hot	-4658
▁Mich	-4659
▁défi	-4660
▁blanc	-4661
▁street	-4662
▁architecture	-4663
ows	-4664
▁150	-4665
▁hit	-4666
▁East	-4667
▁frag	-4668
▁gagn	-4669
▁accord	-4670
▁employ	-4671
▁tempér	-4672
▁deviennent	-4673
▁changements	-4674
8,	-4675
ky	-4676
▁Pl	-4677
▁fat	-4678
▁coût	-4679
▁onto	-4680
▁plate	-4681
▁plants	-4682
▁prenez	-4683
▁volont	-4684
▁favorite	-4685
▁standard	-4686
▁NA	-4687
nant	-4688
▁mél	-4689
▁soi	-4690
▁Paul	-4691
▁fine	-4692
▁hour	-4693
▁nine	-4694
▁vend	-4695
▁Maybe	-4696
▁cross	-4697
▁dites	-4698
▁chirurg	-4699
▁impression	-4700
▁merveilleux	-4701
▁particularly	-4702
▁rom	-4703
▁Most	-4704
▁pros	-4705
▁spéc	-4706
▁séqu	-4707
▁separ	-4708
▁choice	-4709
▁everywhere	-4710
▁littéralement	-4711
écu	-4712
nels	-4713
▁rat	-4714
igner	-4715
▁foss	-4716
issage	-4717
▁belle	-4718
▁clean	-4719
▁mount	-4720
▁named	-4721
▁student	-4722
▁chemical	-4723
▁supposed	-4724
▁ep	-4725
▁HIV	-4726
▁hun	-4727
▁win	-4728
▁sequ	-4729
▁earth	-4730
▁fabric	-4731
▁mechan	-4732
▁thousand	-4733
▁$	-4734
▁éle	-4735
▁fing	-4736
▁merci	-4737
ibility	-4738
étaient	-4739
▁dirige	-4740
▁online	-4741
▁précis	-4742
▁quality	-4743
▁enregist	-4744
▁éléments	-4745
▁extremely	-4746
▁possibilité	-4747
2,	-4748
7,	-4749
ada	-4750
ison	-4751
ners	-4752
éros	-4753
atell	-4754
▁dang	-4755
▁Notre	-4756
▁court	-4757
▁voice	-4758
▁disant	-4759
▁langue	-4760
▁notice	-4761
▁écrire	-4762
▁walking	-4763
▁directement	-4764
ino	-4765
uly	-4766
imin	-4767
▁Act	-4768
▁Cor	-4769
▁ray	-4770
▁beau	-4771
▁stim	-4772
▁carry	-4773
▁report	-4774
aj	-4775
▁Cent	-4776
▁Même	-4777
▁near	-4778
▁Japan	-4779
▁sépar	-4780
▁doctor	-4781
▁phénom	-4782
▁prépar	-4783
▁nuclear	-4784
2.	-4785
ev	-4786
▁201	-4787
▁pai	-4788
▁Mont	-4789
▁plat	-4790
▁sell	-4791
vision	-4792
▁enfin	-4793
▁cherch	-4794
▁chanson	-4795
▁medical	-4796
▁Certains	-4797
▁création	-4798
mic	-4799
▁Sur	-4800
▁aid	-4801
▁cer	-4802
▁tri	-4803
aging	-4804
orith	-4805
osing	-4806
▁bunch	-4807
hington	-4808
iversity	-4809
▁surtout	-4810
▁utilisent	-4811
▁extraordinaire	-4812
isf	-4813
▁TV	-4814
▁tap	-4815
▁Pers	-4816
▁telle	-4817
▁dehors	-4818
▁chiffres	-4819
▁Washington	-4820
yl	-4821
ges	-4822
anim	-4823
▁swe	-4824
▁tax	-4825
▁reçu	-4826
ivalent	-4827
▁entend	-4828
▁satell	-4829
▁activity	-4830
▁développé	-4831
▁incroyablement	-4832
éra	-4833
onent	-4834
espoir	-4835
▁sorts	-4836
▁suffis	-4837
▁temper	-4838
▁traiter	-4839
▁sociétés	-4840
▁teachers	-4841
▁rencontré	-4842
▁technique	-4843
▁travaillent	-4844
alk	-4845
oie	-4846
▁ami	-4847
▁cru	-4848
appel	-4849
▁2000	-4850
▁door	-4851
▁capit	-4852
▁libre	-4853
▁accident	-4854
▁pou	-4855
▁tir	-4856
▁Bill	-4857
▁peau	-4858
▁pire	-4859
avaient	-4860
▁disons	-4861
▁likely	-4862
▁rappel	-4863
▁plantes	-4864
▁profonde	-4865
fin	-4866
uler	-4867
▁cach	-4868
▁fill	-4869
▁join	-4870
▁purp	-4871
▁qual	-4872
▁cycle	-4873
▁durant	-4874
▁acheter	-4875
▁central	-4876
▁médicaments	-4877
cal	-4878
cing	-4879
uvre	-4880
▁cad	-4881
▁pen	-4882
▁pack	-4883
▁bénéf	-4884
▁meant	-4885
▁objet	-4886
▁stick	-4887
instein	-4888
▁Chaque	-4889
▁Second	-4890
▁pensée	-4891
▁African	-4892
▁biggest	-4893
▁teacher	-4894
▁entreprise	-4895
▁kilomètres	-4896
▁techniques	-4897
▁extraordinary	-4898
iat	-4899
aving	-4900
▁cogn	-4901
▁médias	-4902
▁ouvert	-4903
▁protection	-4904
▁expériences	-4905
▁performance	-4906
mé	-4907
oid	-4908
▁Es	-4909
appr	-4910
▁cos	-4911
▁loi	-4912
ortex	-4913
▁push	-4914
cteurs	-4915
▁strat	-4916
▁trees	-4917
archite	-4918
▁devait	-4919
▁moyens	-4920
▁savais	-4921
▁objects	-4922
▁collabor	-4923
▁commencent	-4924
ley	-4925
igher	-4926
▁peup	-4927
▁North	-4928
▁liste	-4929
▁dollar	-4930
▁esprit	-4931
▁includ	-4932
▁sounds	-4933
▁Beaucoup	-4934
▁détermin	-4935
▁rassembl	-4936
9,	-4937
▁Ob	-4938
▁sn	-4939
êche	-4940
▁tôt	-4941
avère	-4942
▁anti	-4943
▁lent	-4944
▁lose	-4945
idents	-4946
ricité	-4947
▁sites	-4948
▁dessin	-4949
▁allowed	-4950
▁politiques	-4951
▁Dan	-4952
▁boy	-4953
ctors	-4954
▁cook	-4955
▁goal	-4956
▁mang	-4957
▁sein	-4958
▁connu	-4959
▁genes	-4960
▁immed	-4961
▁waste	-4962
▁façons	-4963
▁higher	-4964
▁carbone	-4965
▁portable	-4966
▁influence	-4967
▁essentially	-4968
eed	-4969
▁mém	-4970
▁Face	-4971
▁sauv	-4972
▁soul	-4973
▁warm	-4974
▁apart	-4975
▁birth	-4976
▁causes	-4977
▁faster	-4978
industrie	-4979
▁cultures	-4980
▁pourrais	-4981
▁security	-4982
ordinateur	-4983
ço	-4984
ror	-4985
érêt	-4986
▁MIT	-4987
ropri	-4988
▁amen	-4989
▁cris	-4990
▁domin	-4991
▁active	-4992
▁dinosa	-4993
▁context	-4994
▁partage	-4995
▁suddenly	-4996
▁connected	-4997
▁puissance	-4998
▁intelligent	-4999
1,	-5000
lin	-5001
▁».	-5002
▁led	-5003
▁nan	-5004
ained	-5005
oiles	-5006
▁drug	-5007
▁grew	-5008
▁webs	-5009
▁Franc	-5010
▁masse	-5011
▁proté	-5012
▁somme	-5013
▁surve	-5014
▁Darwin	-5015
▁écoles	-5016
paravant	-5017
▁journey	-5018
▁évident	-5019
▁exemples	-5020
▁somewhere	-5021
▁uniquement	-5022
We	-5023
ged	-5024
iend	-5025
▁Don	-5026
▁Who	-5027
▁lat	-5028
image	-5029
▁City	-5030
▁aide	-5031
ustral	-5032
▁ready	-5033
échelle	-5034
▁arrière	-5035
▁results	-5036
▁caractér	-5037
▁utilisons	-5038
▁eventually	-5039
rial	-5040
érons	-5041
▁amus	-5042
▁craz	-5043
ilités	-5044
▁gènes	-5045
▁search	-5046
▁matériaux	-5047
▁permettre	-5048
▁premières	-5049
▁laboratoire	-5050
▁transformation	-5051
ians	-5052
▁enj	-5053
▁fit	-5054
▁obl	-5055
▁Look	-5056
▁hall	-5057
▁wife	-5058
▁vivant	-5059
▁conclus	-5060
▁hospital	-5061
ha	-5062
olf	-5063
élè	-5064
▁da	-5065
▁ju	-5066
▁coop	-5067
▁ended	-5068
pendant	-5069
▁mental	-5070
▁Pendant	-5071
▁Imaginez	-5072
▁conflict	-5073
▁secondes	-5074
▁atteindre	-5075
▁â	-5076
▁Av	-5077
anch	-5078
▁dix	-5079
▁okay	-5080
▁arrêt	-5081
▁drugs	-5082
▁infin	-5083
▁price	-5084
▁sleep	-5085
▁spéci	-5086
▁stars	-5087
▁subst	-5088
▁dispos	-5089
▁gagner	-5090
▁études	-5091
▁excited	-5092
▁algorith	-5093
▁fabriquer	-5094
▁commercial	-5095
car	-5096
pro	-5097
umb	-5098
▁né	-5099
▁Bar	-5100
▁har	-5101
▁tox	-5102
agues	-5103
▁cens	-5104
▁autor	-5105
▁lower	-5106
akistan	-5107
▁destru	-5108
▁simples	-5109
▁interview	-5110
pit	-5111
▁dès	-5112
▁vas	-5113
useum	-5114
▁stri	-5115
▁dépend	-5116
ulations	-5117
▁certainement	-5118
dy	-5119
hib	-5120
raî	-5121
agir	-5122
ging	-5123
orig	-5124
▁dam	-5125
cience	-5126
minist	-5127
▁bless	-5128
▁shown	-5129
▁génial	-5130
▁neighbor	-5131
▁répondre	-5132
▁buildings	-5133
back	-5134
reté	-5135
▁Big	-5136
ander	-5137
ifest	-5138
▁note	-5139
▁oubl	-5140
▁pose	-5141
▁tree	-5142
▁Which	-5143
▁collèg	-5144
▁former	-5145
▁series	-5146
▁vivons	-5147
▁laissez	-5148
▁réaliser	-5149
▁intéressante	-5150
IH	-5151
▁Ok	-5152
▁Sw	-5153
roph	-5154
ounds	-5155
▁Keny	-5156
▁late	-5157
▁role	-5158
▁above	-5159
▁imméd	-5160
▁solaire	-5161
▁suppose	-5162
con	-5163
rig	-5164
▁Là	-5165
erman	-5166
▁bébé	-5167
▁insp	-5168
▁liqu	-5169
▁nord	-5170
▁upon	-5171
▁After	-5172
▁charg	-5173
▁tests	-5174
▁killed	-5175
▁efficace	-5176
▁transpar	-5177
rentissage	-5178
bien	-5179
▁sky	-5180
▁méth	-5181
▁prêt	-5182
▁sport	-5183
▁urban	-5184
▁analys	-5185
▁parten	-5186
ensemble	-5187
ographie	-5188
▁liberté	-5189
▁somehow	-5190
▁surprise	-5191
▁watching	-5192
▁continent	-5193
▁democracy	-5194
▁complicated	-5195
▁fundamental	-5196
▁transformer	-5197
▁essentiellement	-5198
▁sph	-5199
ended	-5200
▁dete	-5201
▁phen	-5202
▁ingén	-5203
▁manip	-5204
▁morts	-5205
▁concer	-5206
▁atmosph	-5207
▁cellule	-5208
▁connaissance	-5209
No	-5210
dom	-5211
mon	-5212
▁mig	-5213
odies	-5214
éries	-5215
▁Iran	-5216
▁bate	-5217
▁race	-5218
ressed	-5219
▁Islam	-5220
▁chant	-5221
▁coeur	-5222
▁match	-5223
▁attach	-5224
▁larger	-5225
▁mobile	-5226
▁sauver	-5227
▁biology	-5228
▁survive	-5229
▁biologie	-5230
▁contexte	-5231
▁military	-5232
▁auparavant	-5233
bon	-5234
▁Te	-5235
▁caf	-5236
▁spr	-5237
icial	-5238
▁Even	-5239
▁rain	-5240
▁surf	-5241
onstru	-5242
▁forms	-5243
▁pieces	-5244
▁sentir	-5245
ara	-5246
der	-5247
cape	-5248
cipe	-5249
▁eth	-5250
oming	-5251
▁aband	-5252
▁crazy	-5253
▁tells	-5254
▁actual	-5255
▁brains	-5256
▁models	-5257
▁recomm	-5258
▁satisf	-5259
▁individuals	-5260
gel	-5261
come	-5262
tons	-5263
vard	-5264
▁boî	-5265
iliar	-5266
▁oxyg	-5267
▁town	-5268
▁Niger	-5269
▁coûte	-5270
▁combin	-5271
▁décenn	-5272
▁forest	-5273
▁please	-5274
▁remark	-5275
▁plastic	-5276
▁sociaux	-5277
ortunately	-5278
▁institution	-5279
Le	-5280
eness	-5281
▁acqu	-5282
▁angl	-5283
▁neuf	-5284
ôpital	-5285
▁indeed	-5286
▁region	-5287
▁choisir	-5288
▁formation	-5289
▁distribution	-5290
té	-5291
por	-5292
▁hop	-5293
ician	-5294
verty	-5295
▁mist	-5296
though	-5297
▁dimin	-5298
▁désir	-5299
▁droits	-5300
▁symbol	-5301
▁tomber	-5302
▁poverty	-5303
▁intelligence	-5304
ouvre	-5305
▁céré	-5306
▁myst	-5307
▁yeah	-5308
ormais	-5309
▁enorm	-5310
▁stock	-5311
▁vendre	-5312
humanité	-5313
▁bizarre	-5314
▁répondu	-5315
▁sociale	-5316
▁medicine	-5317
▁products	-5318
▁programm	-5319
▁démocratie	-5320
4,	-5321
ica	-5322
▁amp	-5323
▁obt	-5324
cient	-5325
▁choc	-5326
▁chimp	-5327
▁enjoy	-5328
▁forth	-5329
▁trust	-5330
▁entrer	-5331
▁conscious	-5332
Is	-5333
ffe	-5334
▁Fe	-5335
hern	-5336
uste	-5337
▁Dep	-5338
▁Min	-5339
urent	-5340
▁Isra	-5341
▁Tous	-5342
▁lois	-5343
▁trem	-5344
▁Times	-5345
▁magic	-5346
▁minds	-5347
▁stopp	-5348
▁viens	-5349
▁étude	-5350
▁micros	-5351
▁taught	-5352
▁contemp	-5353
▁smaller	-5354
▁Pakistan	-5355
▁phenomen	-5356
▁response	-5357
▁electricity	-5358
▁importantes	-5359
rot	-5360
▁mi	-5361
ieuse	-5362
▁heav	-5363
▁safe	-5364
▁plong	-5365
actions	-5366
▁decision	-5367
▁prennent	-5368
importance	-5369
▁instrument	-5370
▁pa	-5371
▁zero	-5372
▁alive	-5373
▁occur	-5374
▁perman	-5375
▁descend	-5376
▁fallait	-5377
▁regardé	-5378
▁studies	-5379
▁trouble	-5380
▁Einstein	-5381
▁anywhere	-5382
▁concevoir	-5383
Ar	-5384
cs	-5385
▁́	-5386
▁Wik	-5387
▁Like	-5388
▁hors	-5389
▁paix	-5390
icient	-5391
▁cases	-5392
▁glass	-5393
▁lands	-5394
aujourd	-5395
novation	-5396
▁massive	-5397
▁standing	-5398
heureusement	-5399
yth	-5400
▁dog	-5401
▁rej	-5402
▁capt	-5403
▁crow	-5404
▁entr	-5405
▁clair	-5406
▁beauté	-5407
▁threat	-5408
▁station	-5409
▁échelle	-5410
▁Facebook	-5411
▁successful	-5412
del	-5413
put	-5414
élo	-5415
ére	-5416
▁35	-5417
▁Fl	-5418
èque	-5419
▁cham	-5420
▁gang	-5421
▁oise	-5422
▁panne	-5423
▁prior	-5424
entrepr	-5425
ruption	-5426
▁beings	-5427
▁revenu	-5428
▁college	-5429
▁pauvreté	-5430
▁imagination	-5431
ded	-5432
itor	-5433
émie	-5434
étud	-5435
▁reb	-5436
▁worse	-5437
▁apport	-5438
▁launch	-5439
▁largest	-5440
▁plaisir	-5441
▁sources	-5442
▁bacteria	-5443
▁perception	-5444
▁jet	-5445
raight	-5446
▁école	-5447
▁faible	-5448
▁lancer	-5449
▁racont	-5450
▁suivant	-5451
▁usually	-5452
▁written	-5453
▁straight	-5454
▁restaurant	-5455
alt	-5456
ior	-5457
upp	-5458
grad	-5459
ster	-5460
enses	-5461
▁luck	-5462
▁Those	-5463
▁slide	-5464
enfants	-5465
étiques	-5466
▁allows	-5467
▁beauty	-5468
▁marque	-5469
imension	-5470
▁himself	-5471
▁improve	-5472
▁essayons	-5473
▁imaginez	-5474
▁milliard	-5475
▁communities	-5476
ifié	-5477
▁VIH	-5478
▁jud	-5479
▁Arab	-5480
▁kept	-5481
▁recy	-5482
▁vécu	-5483
ending	-5484
▁analy	-5485
▁crisis	-5486
▁achieve	-5487
▁dangere	-5488
▁earlier	-5489
▁reading	-5490
▁concerne	-5491
▁entendre	-5492
▁familiar	-5493
▁manifest	-5494
▁original	-5495
▁oe	-5496
▁Nob	-5497
▁rot	-5498
aison	-5499
verse	-5500
▁poin	-5501
▁term	-5502
uelles	-5503
▁truly	-5504
▁Another	-5505
▁matérie	-5506
▁seconds	-5507
▁professeur	-5508
lim	-5509
orb	-5510
ignes	-5511
▁ciel	-5512
▁célè	-5513
▁educ	-5514
▁legs	-5515
allais	-5516
▁dance	-5517
▁détru	-5518
▁store	-5519
érieure	-5520
▁return	-5521
▁récomp	-5522
▁skills	-5523
▁surger	-5524
▁atteint	-5525
▁courant	-5526
▁tourner	-5527
▁constant	-5528
▁médecine	-5529
▁fantastic	-5530
uré	-5531
ares	-5532
cipl	-5533
▁Gal	-5534
▁fou	-5535
aurais	-5536
▁démar	-5537
▁parti	-5538
▁tirer	-5539
▁êtres	-5540
▁couver	-5541
▁hypoth	-5542
▁mourir	-5543
▁genetic	-5544
▁communautés	-5545
apprentissage	-5546
cy	-5547
for	-5548
nés	-5549
aign	-5550
erie	-5551
▁orb	-5552
▁tun	-5553
▁boul	-5554
▁cold	-5555
▁jobs	-5556
▁jump	-5557
mettre	-5558
aissent	-5559
▁imagin	-5560
▁permis	-5561
▁policy	-5562
▁Laissez	-5563
▁finding	-5564
▁pousser	-5565
▁magazine	-5566
▁poissons	-5567
▁sciences	-5568
▁expensive	-5569
6,	-5570
do	-5571
ieur	-5572
▁Col	-5573
▁pén	-5574
appro	-5575
▁NASA	-5576
lément	-5577
▁Somet	-5578
▁George	-5579
▁grandi	-5580
izations	-5581
▁physics	-5582
▁painting	-5583
▁Americans	-5584
▁caractérist	-5585
▁km	-5586
delà	-5587
dire	-5588
ribe	-5589
▁Mes	-5590
▁drop	-5591
▁rand	-5592
▁vote	-5593
issait	-5594
riques	-5595
▁Kenya	-5596
▁lines	-5597
▁afford	-5598
▁budget	-5599
▁devoir	-5600
▁famous	-5601
▁intégr	-5602
▁Anderson	-5603
▁critical	-5604
▁trouvent	-5605
▁immédiate	-5606
▁nécessaire	-5607
▁infrastructure	-5608
str	-5609
ysi	-5610
ège	-5611
▁45	-5612
ateg	-5613
iced	-5614
▁Tod	-5615
▁vot	-5616
▁chaî	-5617
▁oppos	-5618
▁payer	-5619
▁telev	-5620
▁cartes	-5621
▁manque	-5622
▁Charles	-5623
▁contenu	-5624
▁experts	-5625
▁réduire	-5626
▁stratég	-5627
▁creative	-5628
▁listening	-5629
▁potentiel	-5630
▁recognize	-5631
électricité	-5632
▁facilement	-5633
▁temperature	-5634
▁traditional	-5635
hter	-5636
iling	-5637
orrow	-5638
ulate	-5639
▁aime	-5640
▁bank	-5641
atures	-5642
▁frapp	-5643
▁voler	-5644
endroit	-5645
▁Twitter	-5646
▁réseaux	-5647
▁including	-5648
▁significant	-5649
▁température	-5650
usc	-5651
▁fi	-5652
olly	-5653
▁sop	-5654
▁whe	-5655
quent	-5656
▁check	-5657
▁range	-5658
▁Lorsque	-5659
▁anymore	-5660
▁conduit	-5661
▁cuisine	-5662
▁greater	-5663
▁strange	-5664
▁patterns	-5665
▁training	-5666
▁numérique	-5667
▁University	-5668
iels	-5669
isés	-5670
lled	-5671
▁Are	-5672
▁unc	-5673
▁Life	-5674
▁astr	-5675
▁cand	-5676
▁dial	-5677
▁aille	-5678
▁choose	-5679
▁verrez	-5680
▁propert	-5681
▁website	-5682
▁étudier	-5683
▁decisions	-5684
▁increasing	-5685
▁actuellement	-5686
▁1.	-5687
aman	-5688
isco	-5689
▁mas	-5690
▁mid	-5691
venir	-5692
▁Très	-5693
▁band	-5694
▁dram	-5695
▁lien	-5696
▁plac	-5697
▁rise	-5698
▁shot	-5699
▁older	-5700
▁trick	-5701
▁author	-5702
▁proche	-5703
▁souris	-5704
▁naturel	-5705
▁Personne	-5706
▁réponses	-5707
▁treatment	-5708
Et	-5709
nu	-5710
ham	-5711
key	-5712
orry	-5713
▁mix	-5714
céans	-5715
▁quot	-5716
▁élev	-5717
pected	-5718
▁anyway	-5719
▁Harvard	-5720
▁increase	-5721
▁construis	-5722
▁personnel	-5723
▁créativité	-5724
ael	-5725
▁Ed	-5726
▁os	-5727
edom	-5728
▁pig	-5729
▁wild	-5730
▁blind	-5731
▁faits	-5732
▁moteur	-5733
▁océans	-5734
▁healthy	-5735
▁various	-5736
▁campagne	-5737
▁génétique	-5738
▁therefore	-5739
--	-5740
fs	-5741
osh	-5742
rees	-5743
uite	-5744
▁cot	-5745
▁véh	-5746
ption	-5747
▁faux	-5748
▁harm	-5749
▁concl	-5750
▁doule	-5751
▁soins	-5752
▁tenir	-5753
▁arbres	-5754
▁catast	-5755
▁stress	-5756
▁compréh	-5757
▁sérieux	-5758
▁approche	-5759
▁families	-5760
▁désormais	-5761
▁magnifique	-5762
▁évidemment	-5763
usse	-5764
▁inj	-5765
inois	-5766
▁Iraq	-5767
▁crime	-5768
▁pieds	-5769
▁worry	-5770
▁pièces	-5771
▁walked	-5772
▁Combien	-5773
▁balance	-5774
▁deliver	-5775
▁décisions	-5776
▁fonctionner	-5777
▁entrepreneurs	-5778
ago	-5779
oes	-5780
aria	-5781
lock	-5782
▁veh	-5783
isant	-5784
onner	-5785
▁Will	-5786
▁rule	-5787
lation	-5788
▁accès	-5789
▁style	-5790
▁procéd	-5791
▁étrang	-5792
atically	-5793
iversité	-5794
▁clearly	-5795
▁invented	-5796
▁lesquels	-5797
▁television	-5798
ral	-5799
tra	-5800
rase	-5801
▁Two	-5802
estre	-5803
▁opin	-5804
▁trip	-5805
iately	-5806
▁aimer	-5807
▁ouver	-5808
▁parent	-5809
▁besoins	-5810
▁poisson	-5811
▁provide	-5812
▁respond	-5813
▁teaching	-5814
▁dangerous	-5815
▁organization	-5816
Al	-5817
abb	-5818
eren	-5819
onie	-5820
▁Bro	-5821
eless	-5822
▁cele	-5823
▁desp	-5824
▁surr	-5825
arrière	-5826
▁London	-5827
▁formid	-5828
▁slight	-5829
éricains	-5830
▁aspects	-5831
▁driving	-5832
▁puissent	-5833
▁compagnie	-5834
oré	-5835
▁Ah	-5836
▁ly	-5837
resh	-5838
▁Mil	-5839
▁Pac	-5840
▁Roy	-5841
▁biom	-5842
▁board	-5843
▁précéd	-5844
▁courage	-5845
▁valeurs	-5846
▁étrange	-5847
extérieur	-5848
▁convince	-5849
berg	-5850
▁arts	-5851
▁date	-5852
▁floor	-5853
▁dedans	-5854
▁numéro	-5855
▁oxygen	-5856
▁parlons	-5857
▁énergie	-5858
▁appropri	-5859
▁décision	-5860
▁microbes	-5861
▁devraient	-5862
▁following	-5863
▁marketing	-5864
▁plastique	-5865
▁voulaient	-5866
fer	-5867
aint	-5868
▁cord	-5869
▁enth	-5870
▁rout	-5871
▁ryth	-5872
▁citiz	-5873
▁enter	-5874
▁navig	-5875
▁récup	-5876
essayer	-5877
▁accompl	-5878
▁disappe	-5879
▁importe	-5880
▁retrouv	-5881
▁discours	-5882
▁bactéries	-5883
▁Asi	-5884
▁Pal	-5885
▁joy	-5886
▁lut	-5887
▁riv	-5888
adore	-5889
▁Stre	-5890
▁citoy	-5891
▁fréqu	-5892
▁mange	-5893
▁minim	-5894
▁weren	-5895
▁cortex	-5896
▁remind	-5897
▁address	-5898
▁clairement	-5899
▁connection	-5900
▁throughout	-5901
▁engineering	-5902
It	-5903
éma	-5904
▁ax	-5905
aume	-5906
time	-5907
wers	-5908
▁dév	-5909
atifs	-5910
▁fuel	-5911
▁heat	-5912
ortion	-5913
équipe	-5914
▁costs	-5915
▁levels	-5916
▁clients	-5917
▁meeting	-5918
▁appareil	-5919
▁confront	-5920
hod	-5921
yons	-5922
alent	-5923
aries	-5924
▁isol	-5925
▁suit	-5926
▁tuer	-5927
▁auxque	-5928
▁cardia	-5929
▁flying	-5930
▁integr	-5931
▁command	-5932
▁inventé	-5933
▁willing	-5934
▁étoiles	-5935
▁enormous	-5936
▁specific	-5937
▁faisaient	-5938
▁industrie	-5939
▁immediately	-5940
▁gouvernements	-5941
bal	-5942
raz	-5943
anth	-5944
core	-5945
▁600	-5946
▁dég	-5947
▁atta	-5948
▁vast	-5949
▁afric	-5950
▁drink	-5951
▁membres	-5952
▁moderne	-5953
▁neurons	-5954
▁spécial	-5955
▁instance	-5956
innovation	-5957
▁nucléaire	-5958
▁zo	-5959
amin	-5960
ancy	-5961
ioth	-5962
▁brû	-5963
▁Wikip	-5964
▁facte	-5965
▁physi	-5966
▁étape	-5967
▁garder	-5968
▁pleine	-5969
▁Michael	-5970
▁progrès	-5971
▁complexité	-5972
▁importance	-5973
▁situations	-5974
▁understood	-5975
▁environmental	-5976
abs	-5977
▁lu	-5978
▁Cam	-5979
améli	-5980
▁ahead	-5981
▁explo	-5982
▁lancé	-5983
▁voulu	-5984
▁Indian	-5985
▁connex	-5986
▁decade	-5987
ologique	-5988
▁actions	-5989
▁sophist	-5990
▁although	-5991
▁diagnost	-5992
▁pouvions	-5993
▁protéger	-5994
architecture	-5995
ût	-5996
IDS	-5997
ola	-5998
rem	-5999
tar	-6000
uted	-6001
ordre	-6002
ufact	-6003
▁pont	-6004
▁task	-6005
▁sorti	-6006
▁Quelle	-6007
▁commit	-6008
▁implic	-6009
▁lignes	-6010
▁muscle	-6011
ailleurs	-6012
▁médecin	-6013
▁prevent	-6014
▁tremend	-6015
▁affaires	-6016
▁arrivent	-6017
abe	-6018
▁75	-6019
bert	-6020
rown	-6021
▁194	-6022
▁Tur	-6023
▁rou	-6024
▁diap	-6025
▁spat	-6026
enfant	-6027
▁airpl	-6028
▁oblig	-6029
▁print	-6030
▁servir	-6031
▁weight	-6032
▁limites	-6033
▁messages	-6034
université	-6035
▁Francisco	-6036
▁conference	-6037
▁remarkable	-6038
▁télévision	-6039
▁présentation	-6040
▁immédiatement	-6041
uie	-6042
▁99	-6043
ogue	-6044
ésie	-6045
▁bag	-6046
▁fen	-6047
▁toi	-6048
acles	-6049
ensez	-6050
▁diss	-6051
▁fold	-6052
▁abord	-6053
▁allés	-6054
▁inqui	-6055
▁maint	-6056
aughter	-6057
érences	-6058
▁celebr	-6059
▁profit	-6060
▁capture	-6061
▁comfort	-6062
▁correct	-6063
▁describ	-6064
▁présenter	-6065
▁ul	-6066
▁vib	-6067
▁bois	-6068
▁cosm	-6069
▁puzz	-6070
▁soud	-6071
raient	-6072
▁ayant	-6073
▁noire	-6074
▁trade	-6075
▁memory	-6076
▁values	-6077
▁evolved	-6078
▁finance	-6079
▁parlent	-6080
▁passent	-6081
▁private	-6082
▁tableau	-6083
▁élément	-6084
▁demonstr	-6085
▁electron	-6086
▁principe	-6087
▁collective	-6088
▁permettent	-6089
▁destruction	-6090
3,	-6091
unk	-6092
Vous	-6093
isée	-6094
umes	-6095
▁lev	-6096
▁tum	-6097
cence	-6098
cular	-6099
▁hole	-6100
▁pier	-6101
▁rêve	-6102
▁uses	-6103
▁weap	-6104
▁perdre	-6105
▁waiting	-6106
▁émotion	-6107
▁becoming	-6108
▁concepts	-6109
▁directly	-6110
uns	-6111
itan	-6112
▁beg	-6113
arter	-6114
ousse	-6115
▁Cons	-6116
▁mise	-6117
▁agree	-6118
▁poids	-6119
▁bateau	-6120
▁bodies	-6121
▁frustr	-6122
▁monter	-6123
▁random	-6124
▁useful	-6125
ographic	-6126
dimension	-6127
▁particules	-6128
▁entièrement	-6129
Qu	-6130
anes	-6131
olve	-6132
▁ran	-6133
▁tur	-6134
right	-6135
anging	-6136
▁climb	-6137
▁estim	-6138
▁notes	-6139
▁Toutes	-6140
▁départ	-6141
▁Western	-6142
▁account	-6143
▁nations	-6144
▁popular	-6145
▁visible	-6146
▁horrible	-6147
▁produced	-6148
▁invisible	-6149
▁naissance	-6150
▁convention	-6151
▁électrique	-6152
▁différences	-6153
1.	-6154
How	-6155
▁Où	-6156
▁Vi	-6157
▁Per	-6158
▁Red	-6159
naire	-6160
uille	-6161
▁pian	-6162
▁pure	-6163
▁exerc	-6164
▁Street	-6165
▁income	-6166
▁considér	-6167
▁practice	-6168
▁molécules	-6169
▁regardant	-6170
▁satellite	-6171
▁véritable	-6172
▁organismes	-6173
ka	-6174
.000	-6175
oyer	-6176
éter	-6177
▁bio	-6178
écran	-6179
▁impl	-6180
▁laug	-6181
▁susp	-6182
▁loved	-6183
▁10,000	-6184
▁sommet	-6185
▁square	-6186
▁summer	-6187
▁supply	-6188
▁anglais	-6189
▁compare	-6190
▁explore	-6191
▁prenons	-6192
▁conclusion	-6193
pes	-6194
ppe	-6195
ulé	-6196
rier	-6197
uins	-6198
user	-6199
▁195	-6200
▁fol	-6201
▁las	-6202
▁bibl	-6203
▁bleu	-6204
▁dens	-6205
▁samp	-6206
▁below	-6207
▁displ	-6208
▁raise	-6209
ifiques	-6210
▁bought	-6211
▁devais	-6212
▁humanity	-6213
▁internet	-6214
▁occasion	-6215
▁corruption	-6216
▁discussion	-6217
▁découverte	-6218
▁collaboration	-6219
ams	-6220
org	-6221
▁diz	-6222
agers	-6223
ingly	-6224
▁Your	-6225
▁toil	-6226
▁Angel	-6227
▁Today	-6228
▁bébés	-6229
▁débat	-6230
▁limit	-6231
▁riche	-6232
▁tâche	-6233
ulaires	-6234
èrement	-6235
▁forget	-6236
▁laisse	-6237
▁method	-6238
▁donnent	-6239
▁durable	-6240
▁ailleurs	-6241
▁compréhension	-6242
ald	-6243
▁py	-6244
rict	-6245
▁gla	-6246
▁lic	-6247
▁tag	-6248
eties	-6249
isons	-6250
▁narr	-6251
ashion	-6252
▁riches	-6253
habitude	-6254
ological	-6255
▁détails	-6256
▁purpose	-6257
▁argument	-6258
▁observer	-6259
▁creativity	-6260
elf	-6261
iés	-6262
▁Los	-6263
▁Sup	-6264
agent	-6265
arian	-6266
ingén	-6267
phone	-6268
▁hair	-6269
▁hier	-6270
▁host	-6271
▁myth	-6272
anches	-6273
attend	-6274
chauff	-6275
▁apply	-6276
▁broad	-6277
▁sympt	-6278
▁établ	-6279
origine	-6280
▁Canada	-6281
▁bouger	-6282
▁decide	-6283
▁played	-6284
▁rights	-6285
▁freedom	-6286
▁familles	-6287
▁manufact	-6288
▁possibly	-6289
▁pression	-6290
▁encourage	-6291
▁organisms	-6292
▁instruments	-6293
wise	-6294
▁Ber	-6295
▁dos	-6296
ville	-6297
▁YouT	-6298
▁cust	-6299
▁obst	-6300
▁sauf	-6301
▁sick	-6302
iences	-6303
▁birds	-6304
▁forte	-6305
▁verre	-6306
▁closer	-6307
▁désert	-6308
▁volume	-6309
▁chinois	-6310
▁surgery	-6311
▁seraient	-6312
▁regardons	-6313
▁concentrer	-6314
▁mathématiques	-6315
▁responsabilité	-6316
ym	-6317
▁AB	-6318
▁Mr	-6319
ceed	-6320
aider	-6321
board	-6322
▁Thom	-6323
▁boys	-6324
▁diag	-6325
▁flex	-6326
▁prec	-6327
illion	-6328
▁catch	-6329
▁amener	-6330
▁explos	-6331
▁neuros	-6332
▁phrase	-6333
▁répand	-6334
▁vidéos	-6335
▁visite	-6336
▁chambre	-6337
▁revenus	-6338
▁couleurs	-6339
▁politics	-6340
▁président	-6341
▁published	-6342
▁complexity	-6343
▁connaissez	-6344
van	-6345
▁od	-6346
▁ast	-6347
▁fus	-6348
ograp	-6349
rical	-6350
▁chap	-6351
▁shar	-6352
▁targ	-6353
▁tele	-6354
▁Think	-6355
▁twice	-6356
inction	-6357
▁sujets	-6358
activité	-6359
avantage	-6360
▁Nigeria	-6361
▁YouTube	-6362
▁passait	-6363
▁toucher	-6364
▁designer	-6365
▁disaient	-6366
▁occident	-6367
▁sequence	-6368
▁naturelle	-6369
▁phénomène	-6370
▁atmosphere	-6371
▁governments	-6372
load	-6373
▁sad	-6374
êcher	-6375
ilibre	-6376
▁gross	-6377
▁moust	-6378
▁outil	-6379
▁polio	-6380
▁whose	-6381
▁Middle	-6382
▁flight	-6383
▁states	-6384
▁traite	-6385
▁destroy	-6386
▁effects	-6387
▁entière	-6388
▁mesurer	-6389
▁California	-6390
▁commençons	-6391
▁experiments	-6392
▁consommation	-6393
5.	-6394
Why	-6395
tez	-6396
▁pun	-6397
exist	-6398
iving	-6399
rient	-6400
▁Again	-6401
▁gradu	-6402
▁combat	-6403
▁devriez	-6404
▁derniers	-6405
▁majorité	-6406
▁complexes	-6407
▁sélection	-6408
▁rencontrer	-6409
▁fantastique	-6410
La	-6411
ech	-6412
ila	-6413
lie	-6414
nam	-6415
▁2,	-6416
▁Sm	-6417
▁kn	-6418
▁Mic	-6419
▁Sun	-6420
▁ouv	-6421
icago	-6422
istry	-6423
ouill	-6424
épend	-6425
▁Park	-6426
▁Stan	-6427
▁bale	-6428
▁diam	-6429
▁iron	-6430
▁joue	-6431
▁trag	-6432
onnect	-6433
▁artif	-6434
▁ferme	-6435
▁frame	-6436
▁nerve	-6437
▁quitt	-6438
▁rapid	-6439
▁rough	-6440
▁règle	-6441
▁Israel	-6442
▁adoles	-6443
▁genome	-6444
▁hasard	-6445
▁mostly	-6446
▁consequ	-6447
▁douleur	-6448
▁envoyer	-6449
▁Amérique	-6450
▁diseases	-6451
▁greatest	-6452
▁bâtiments	-6453
▁collègues	-6454
▁effective	-6455
▁financial	-6456
▁transition	-6457
▁internation	-6458
▁possibilités	-6459
An	-6460
▁»,	-6461
▁His	-6462
rogen	-6463
▁basis	-6464
▁block	-6465
▁résol	-6466
▁Austral	-6467
▁Chicago	-6468
▁artific	-6469
▁devenue	-6470
▁capacity	-6471
▁pressure	-6472
▁importants	-6473
▁connaissons	-6474
bs	-6475
mm	-6476
ôme	-6477
▁mâ	-6478
▁Sat	-6479
▁Bush	-6480
▁chien	-6481
▁pleas	-6482
▁studio	-6483
▁wealth	-6484
ependent	-6485
▁degrees	-6486
▁addition	-6487
▁cultural	-6488
▁exponent	-6489
▁neurones	-6490
▁pourcent	-6491
▁publique	-6492
▁économie	-6493
▁challenges	-6494
▁23	-6495
▁Du	-6496
Pour	-6497
abol	-6498
llem	-6499
oman	-6500
▁Pri	-6501
▁Vir	-6502
▁lay	-6503
▁spl	-6504
aphor	-6505
ennes	-6506
erait	-6507
lands	-6508
▁côte	-6509
▁paid	-6510
▁wire	-6511
▁ajout	-6512
▁aware	-6513
▁suivi	-6514
▁évolué	-6515
▁paradig	-6516
mentation	-6517
▁constitu	-6518
lly	-6519
erce	-6520
esis	-6521
ulte	-6522
érit	-6523
▁inn	-6524
▁élè	-6525
uments	-6526
▁James	-6527
▁Mexic	-6528
▁Steve	-6529
▁boîte	-6530
▁chaud	-6531
▁seuls	-6532
▁visit	-6533
utilise	-6534
▁German	-6535
▁chauss	-6536
▁corner	-6537
▁engage	-6538
▁rythme	-6539
intellig	-6540
▁Londres	-6541
▁discipl	-6542
▁déplace	-6543
▁faisais	-6544
▁matériel	-6545
▁profound	-6546
▁réchauff	-6547
▁speaking	-6548
▁diversité	-6549
▁emotional	-6550
▁individus	-6551
▁biological	-6552
As	-6553
unt	-6554
umer	-6555
▁gre	-6556
▁sca	-6557
iding	-6558
▁gene	-6559
▁reço	-6560
▁spin	-6561
Europe	-6562
antill	-6563
▁coffe	-6564
▁conçu	-6565
▁simpl	-6566
▁babies	-6567
▁gentle	-6568
▁shared	-6569
▁obtenez	-6570
▁complete	-6571
▁rappelle	-6572
▁graphique	-6573
▁définition	-6574
gar	-6575
▁Cet	-6576
▁élo	-6577
icket	-6578
ommes	-6579
rimer	-6580
▁appré	-6581
▁honest	-6582
▁laissé	-6583
▁marchés	-6584
▁replace	-6585
attention	-6586
▁appelons	-6587
▁cerveaux	-6588
▁remarqué	-6589
▁slightly	-6590
▁dimension	-6591
▁pollution	-6592
▁tremendous	-6593
▁profondément	-6594
loy	-6595
jour	-6596
▁rig	-6597
▁vac	-6598
ening	-6599
outez	-6600
ueill	-6601
▁pile	-6602
▁stem	-6603
▁Japon	-6604
▁boute	-6605
▁bread	-6606
▁cents	-6607
▁gagné	-6608
▁magas	-6609
▁plans	-6610
▁élevé	-6611
ription	-6612
▁breast	-6613
▁effets	-6614
▁excell	-6615
▁génome	-6616
▁intuit	-6617
▁venait	-6618
▁doctors	-6619
apprendre	-6620
▁préoccup	-6621
▁chimiques	-6622
▁molecules	-6623
▁meilleures	-6624
▁neighborhood	-6625
8.	-6626
▁Sa	-6627
▁gig	-6628
▁gras	-6629
▁crash	-6630
ibilité	-6631
▁argent	-6632
▁démont	-6633
▁pollen	-6634
▁advance	-6635
▁célèbre	-6636
▁financi	-6637
▁montrent	-6638
▁networks	-6639
▁souviens	-6640
▁villages	-6641
▁électron	-6642
▁prototype	-6643
▁El	-6644
▁ja	-6645
ened	-6646
hone	-6647
oxyg	-6648
aling	-6649
icien	-6650
▁café	-6651
▁loss	-6652
▁mons	-6653
▁neut	-6654
nelles	-6655
▁Great	-6656
▁avion	-6657
▁chair	-6658
▁cheap	-6659
stitute	-6660
▁bridge	-6661
▁croyez	-6662
▁gotten	-6663
▁grosse	-6664
▁peuple	-6665
▁window	-6666
ollywood	-6667
▁bringing	-6668
▁puissant	-6669
▁créatures	-6670
▁reconstru	-6671
▁travaillons	-6672
cée	-6673
igu	-6674
ked	-6675
▁Ro	-6676
rets	-6677
rench	-6678
romos	-6679
urant	-6680
▁King	-6681
aining	-6682
▁funny	-6683
▁pyram	-6684
▁Encore	-6685
▁France	-6686
▁coffee	-6687
▁eating	-6688
▁mettez	-6689
▁hearing	-6690
▁quelles	-6691
▁logiciel	-6692
▁surround	-6693
▁background	-6694
▁conséquences	-6695
my	-6696
émin	-6697
▁idé	-6698
▁sme	-6699
acité	-6700
house	-6701
oston	-6702
▁auto	-6703
▁none	-6704
▁danse	-6705
▁tradu	-6706
▁Boston	-6707
▁custom	-6708
▁diplom	-6709
▁fairly	-6710
▁garçons	-6711
▁comprend	-6712
▁mountain	-6713
▁expression	-6714
▁alimentaire	-6715
▁alternative	-6716
▁sustainable	-6717
▁statistiques	-6718
oot	-6719
este	-6720
ogen	-6721
▁rét	-6722
aitre	-6723
▁More	-6724
▁burn	-6725
▁embr	-6726
▁ferm	-6727
▁prep	-6728
ceived	-6729
icking	-6730
invent	-6731
▁Frank	-6732
▁maxim	-6733
ography	-6734
▁Thanks	-6735
▁chaîne	-6736
▁choisi	-6737
▁leader	-6738
▁quotid	-6739
▁seemed	-6740
▁circuit	-6741
▁pensait	-6742
▁actuelle	-6743
▁elements	-6744
▁contrôler	-6745
▁américains	-6746
▁programmes	-6747
MS	-6748
PA	-6749
zed	-6750
▁Bas	-6751
▁hous	-6752
▁rues	-6753
▁seas	-6754
itives	-6755
▁Grand	-6756
▁crack	-6757
▁forêt	-6758
▁lever	-6759
oxygène	-6760
▁Thomas	-6761
▁appear	-6762
▁jambes	-6763
▁dessous	-6764
▁focused	-6765
▁fournir	-6766
▁planets	-6767
▁spectac	-6768
▁stopped	-6769
▁déplacer	-6770
▁américain	-6771
▁scientist	-6772
▁Californie	-6773
▁prochaines	-6774
▁responsibility	-6775
ae	-6776
uil	-6777
▁Ec	-6778
▁hi	-6779
alys	-6780
çant	-6781
▁250	-6782
▁Her	-6783
▁Hum	-6784
▁mos	-6785
▁cert	-6786
▁jard	-6787
▁posé	-6788
invest	-6789
▁brand	-6790
▁pêche	-6791
▁Pensez	-6792
▁career	-6793
▁chocol	-6794
▁cérébr	-6795
▁déclar	-6796
▁expand	-6797
▁fusion	-6798
▁garçon	-6799
▁minist	-6800
▁preuve	-6801
ignement	-6802
▁arrêter	-6803
▁chromos	-6804
▁connais	-6805
▁creates	-6806
▁niveaux	-6807
▁pouviez	-6808
▁silence	-6809
▁workers	-6810
▁humaines	-6811
▁réaction	-6812
▁formidable	-6813
▁supplément	-6814
▁differences	-6815
Est	-6816
bel	-6817
▁câ	-6818
verg	-6819
érap	-6820
▁Tom	-6821
▁dad	-6822
▁hus	-6823
lever	-6824
obile	-6825
▁Alex	-6826
▁Many	-6827
▁drag	-6828
▁quas	-6829
▁zéro	-6830
icules	-6831
▁morte	-6832
▁shoot	-6833
▁utile	-6834
▁Muslim	-6835
▁broken	-6836
▁easily	-6837
▁poursu	-6838
▁British	-6839
▁choices	-6840
▁concert	-6841
▁farmers	-6842
▁inspired	-6843
▁médecins	-6844
▁collection	-6845
▁leadership	-6846
▁possibility	-6847
▁applications	-6848
▁merveilleuse	-6849
ih	-6850
▁Lad	-6851
▁cab	-6852
essor	-6853
étude	-6854
▁beat	-6855
▁ther	-6856
atrice	-6857
tembre	-6858
étaire	-6859
▁lieux	-6860
▁mouth	-6861
▁peint	-6862
▁stade	-6863
▁vrais	-6864
▁helped	-6865
▁lights	-6866
▁yellow	-6867
▁élèves	-6868
▁noticed	-6869
▁oiseaux	-6870
▁carrière	-6871
▁critique	-6872
▁programs	-6873
▁connaître	-6874
▁mouvements	-6875
▁ressemblent	-6876
aker	-6877
urop	-6878
used	-6879
▁Aud	-6880
▁del	-6881
▁âge	-6882
celer	-6883
orted	-6884
▁From	-6885
▁Good	-6886
▁bits	-6887
▁gold	-6888
arrive	-6889
▁adopt	-6890
▁initi	-6891
▁phase	-6892
▁worst	-6893
▁entour	-6894
▁entraî	-6895
▁porter	-6896
▁ralent	-6897
▁superm	-6898
▁vieill	-6899
▁answers	-6900
▁artists	-6901
▁chances	-6902
▁malaria	-6903
▁moindre	-6904
▁passage	-6905
▁citizens	-6906
▁creatures	-6907
▁exception	-6908
▁difficiles	-6909
alu	-6910
ned	-6911
cend	-6912
iche	-6913
wich	-6914
éroï	-6915
agnes	-6916
▁Prem	-6917
▁perm	-6918
impact	-6919
▁hyper	-6920
▁pharm	-6921
▁prêts	-6922
▁échou	-6923
▁desert	-6924
▁myster	-6925
▁stream	-6926
Internet	-6927
▁chacune	-6928
▁devices	-6929
▁fashion	-6930
▁helping	-6931
▁logique	-6932
▁risques	-6933
▁dizaines	-6934
▁principal	-6935
ini	-6936
omo	-6937
▁san	-6938
itant	-6939
▁cred	-6940
▁roll	-6941
▁dying	-6942
▁tombe	-6943
▁Robert	-6944
▁analog	-6945
▁pauvre	-6946
▁savait	-6947
▁Angeles	-6948
▁Parfois	-6949
▁devenus	-6950
▁streets	-6951
▁demandez	-6952
▁spending	-6953
▁sensation	-6954
▁connaissent	-6955
▁parfaitement	-6956
▁suffisamment	-6957
olé	-6958
vis	-6959
zen	-6960
èle	-6961
assé	-6962
riez	-6963
▁Mac	-6964
▁Son	-6965
▁sin	-6966
▁golf	-6967
▁guer	-6968
▁reli	-6969
oureux	-6970
▁antib	-6971
▁bruit	-6972
▁écout	-6973
imately	-6974
▁advant	-6975
▁attemp	-6976
▁gather	-6977
▁switch	-6978
▁voient	-6979
▁adultes	-6980
▁ancient	-6981
▁lettres	-6982
▁passant	-6983
▁radical	-6984
▁artistes	-6985
▁auraient	-6986
▁contient	-6987
▁montagne	-6988
▁souvenir	-6989
▁mortalité	-6990
▁sculpture	-6991
▁industrial	-6992
▁organisation	-6993
▁consciousness	-6994
oux	-6995
âte	-6996
▁Lib	-6997
chant	-6998
▁Asia	-6999
▁Comp	-7000
▁forg	-7001
▁réve	-7002
▁tume	-7003
alisme	-7004
▁Micro	-7005
▁email	-7006
▁sages	-7007
▁sorry	-7008
▁venue	-7009
▁ancest	-7010
▁caméra	-7011
▁dirais	-7012
▁envoyé	-7013
▁talent	-7014
▁consist	-7015
▁diagram	-7016
▁erreurs	-7017
▁markets	-7018
▁secteur	-7019
▁écouter	-7020
▁studying	-7021
▁cognitive	-7022
▁diversity	-7023
▁existence	-7024
▁particles	-7025
AR	-7026
zy	-7027
Les	-7028
ota	-7029
▁DH	-7030
uent	-7031
çais	-7032
▁clé	-7033
▁emm	-7034
▁lis	-7035
▁chat	-7036
▁orch	-7037
▁seed	-7038
▁wood	-7039
▁chick	-7040
▁serve	-7041
arrêter	-7042
▁couche	-7043
▁disord	-7044
▁domest	-7045
▁presse	-7046
▁Instead	-7047
▁déchets	-7048
▁efforts	-7049
▁illustr	-7050
alisation	-7051
▁rappeler	-7052
▁contraire	-7053
▁societies	-7054
▁médicament	-7055
uh	-7056
oli	-7057
▁22	-7058
osys	-7059
▁Jul	-7060
amine	-7061
areil	-7062
based	-7063
▁bird	-7064
▁sons	-7065
▁1,000	-7066
▁Green	-7067
▁fully	-7068
▁maths	-7069
▁motor	-7070
▁plaît	-7071
▁rural	-7072
▁étiez	-7073
▁auquel	-7074
▁climat	-7075
▁vaisse	-7076
▁versus	-7077
▁étudié	-7078
▁members	-7079
▁mémoire	-7080
▁daughter	-7081
▁planètes	-7082
▁quartier	-7083
dimensional	-7084
▁necessarily	-7085
;&	-7086
cie	-7087
▁27	-7088
hand	-7089
oyen	-7090
reci	-7091
rées	-7092
urch	-7093
▁Aut	-7094
▁Haw	-7095
▁Mad	-7096
▁fal	-7097
▁org	-7098
asses	-7099
itely	-7100
itifs	-7101
▁Very	-7102
▁degr	-7103
active	-7104
atoire	-7105
▁assum	-7106
▁feels	-7107
▁piano	-7108
▁therm	-7109
▁Public	-7110
▁accomp	-7111
▁doigts	-7112
▁préfér	-7113
imaginer	-7114
intéress	-7115
▁extrait	-7116
▁missing	-7117
▁recover	-7118
▁colleagues	-7119
▁interaction	-7120
ël	-7121
hyd	-7122
▁II	-7123
erves	-7124
print	-7125
▁club	-7126
▁zoom	-7127
▁accep	-7128
▁chale	-7129
▁magie	-7130
▁shift	-7131
▁stren	-7132
anthrop	-7133
▁envers	-7134
▁highly	-7135
▁reduce	-7136
▁stimul	-7137
▁tourne	-7138
▁puisque	-7139
▁related	-7140
▁manières	-7141
▁negative	-7142
▁partners	-7143
atiquement	-7144
▁capacités	-7145
▁mauvaises	-7146
utilisation	-7147
▁communicate	-7148
▁competition	-7149
▁differently	-7150
▁î	-7151
IDA	-7152
cra	-7153
lais	-7154
▁écr	-7155
estin	-7156
state	-7157
▁Pren	-7158
▁ours	-7159
urance	-7160
▁Moyen	-7161
▁Russi	-7162
▁amené	-7163
▁cadre	-7164
▁musée	-7165
▁répar	-7166
▁solid	-7167
▁écriv	-7168
▁Center	-7169
▁passed	-7170
▁symmet	-7171
▁decades	-7172
▁maisons	-7173
▁sharing	-7174
▁administ	-7175
▁planning	-7176
▁Wikipedia	-7177
▁ressentir	-7178
▁personnage	-7179
▁fabrication	-7180
▁fonctionnent	-7181
▁organizations	-7182
oï	-7183
gth	-7184
▁mel	-7185
aches	-7186
▁Part	-7187
▁faud	-7188
▁foie	-7189
▁réal	-7190
iciper	-7191
▁Paris	-7192
▁aspir	-7193
▁expos	-7194
▁newsp	-7195
▁Quelqu	-7196
▁courbe	-7197
▁déplac	-7198
▁master	-7199
▁métaph	-7200
ervation	-7201
▁forever	-7202
▁preuves	-7203
▁transpl	-7204
▁benefits	-7205
▁consiste	-7206
▁Cependant	-7207
▁améliorer	-7208
▁produisent	-7209
▁téléphones	-7210
nér	-7211
▁BF	-7212
band	-7213
lied	-7214
raid	-7215
alism	-7216
▁Mart	-7217
▁aper	-7218
▁dign	-7219
▁flat	-7220
▁honn	-7221
▁intr	-7222
▁repe	-7223
▁seat	-7224
▁vaut	-7225
aliser	-7226
▁traff	-7227
▁French	-7228
▁boulot	-7229
▁candid	-7230
▁slowly	-7231
▁speech	-7232
mosphère	-7233
▁figured	-7234
▁trouvez	-7235
▁strength	-7236
Université	-7237
▁compliqué	-7238
▁landscape	-7239
▁principes	-7240
3.	-7241
och	-7242
set	-7243
▁32	-7244
▁bla	-7245
▁Port	-7246
▁migr	-7247
▁accél	-7248
▁bound	-7249
▁indic	-7250
▁mille	-7251
▁titre	-7252
▁dirait	-7253
▁ecosys	-7254
▁opened	-7255
▁réflex	-7256
▁vulner	-7257
▁apprend	-7258
▁biblioth	-7259
▁semblent	-7260
▁classique	-7261
▁invention	-7262
▁definition	-7263
▁motivation	-7264
informations	-7265
30	-7266
hor	-7267
▁âg	-7268
cond	-7269
édie	-7270
▁Che	-7271
▁Egy	-7272
▁eau	-7273
▁Pres	-7274
▁hell	-7275
▁wide	-7276
▁angle	-7277
▁fasse	-7278
▁queue	-7279
▁tough	-7280
▁finger	-7281
▁museum	-7282
▁proven	-7283
▁regret	-7284
▁transp	-7285
▁conflit	-7286
▁convert	-7287
▁holding	-7288
▁intense	-7289
▁knowing	-7290
▁mettent	-7291
▁rentrer	-7292
▁simplic	-7293
▁astronom	-7294
▁échantill	-7295
▁américaine	-7296
▁civilization	-7297
▁opportunities	-7298
▁relationships	-7299
ta	-7300
Don	-7301
▁Bu	-7302
▁cu	-7303
anci	-7304
ionn	-7305
know	-7306
soft	-7307
▁See	-7308
▁saf	-7309
agric	-7310
angle	-7311
étend	-7312
▁AIDS	-7313
▁adop	-7314
▁dent	-7315
▁diab	-7316
▁moon	-7317
▁pert	-7318
▁soin	-7319
avions	-7320
▁aviez	-7321
▁fallu	-7322
▁mères	-7323
▁débarr	-7324
▁events	-7325
▁letter	-7326
▁malgré	-7327
▁respir	-7328
esterday	-7329
▁muscles	-7330
▁reflect	-7331
▁turning	-7332
▁prochain	-7333
▁présente	-7334
▁surfaces	-7335
▁brilliant	-7336
▁interface	-7337
▁religions	-7338
▁Américains	-7339
▁remarquable	-7340
Non	-7341
burg	-7342
caux	-7343
hane	-7344
mère	-7345
▁10,	-7346
▁tim	-7347
▁vag	-7348
armée	-7349
effet	-7350
▁coal	-7351
▁flux	-7352
▁spot	-7353
aurait	-7354
▁Bible	-7355
▁Celui	-7356
▁catég	-7357
▁dirig	-7358
▁tissu	-7359
▁acheté	-7360
▁assist	-7361
▁grippe	-7362
Pourquoi	-7363
▁Nations	-7364
▁appreci	-7365
▁décider	-7366
▁parlait	-7367
▁possède	-7368
▁traject	-7369
▁billions	-7370
▁citoyens	-7371
▁existent	-7372
▁molecule	-7373
▁survivre	-7374
▁Everybody	-7375
▁necessary	-7376
▁religious	-7377
▁proportion	-7378
▁communiquer	-7379
▁compétences	-7380
▁importantly	-7381
▁populations	-7382
ala	-7383
itr	-7384
This	-7385
ache	-7386
cers	-7387
olds	-7388
▁lie	-7389
atory	-7390
cious	-7391
▁male	-7392
▁poet	-7393
▁brief	-7394
▁coast	-7395
▁faces	-7396
▁fonds	-7397
▁plane	-7398
▁remer	-7399
▁afraid	-7400
▁aiment	-7401
▁attrib	-7402
▁brings	-7403
▁détect	-7404
▁rappro	-7405
▁romant	-7406
▁tissue	-7407
▁devrais	-7408
▁retrait	-7409
▁revient	-7410
▁virtual	-7411
▁Actually	-7412
▁apporter	-7413
▁rencontre	-7414
▁retourner	-7415
▁biologique	-7416
▁directions	-7417
▁expériment	-7418
gal	-7419
idi	-7420
udd	-7421
▁Cop	-7422
▁Nos	-7423
▁Wal	-7424
▁maî	-7425
water	-7426
xford	-7427
▁avis	-7428
▁boat	-7429
▁laws	-7430
▁lucky	-7431
▁quote	-7432
▁tiers	-7433
itaires	-7434
▁interp	-7435
▁morale	-7436
▁sombre	-7437
▁spaces	-7438
▁tempor	-7439
éremment	-7440
▁langues	-7441
▁campaign	-7442
▁correcte	-7443
▁creation	-7444
▁morceaux	-7445
▁sandwich	-7446
▁separate	-7447
▁émotions	-7448
▁Institute	-7449
4.	-7450
▁Hy	-7451
oise	-7452
quis	-7453
▁Tal	-7454
▁abe	-7455
▁egg	-7456
▁lun	-7457
▁wis	-7458
▁évé	-7459
avion	-7460
icale	-7461
▁Ghan	-7462
▁Jack	-7463
▁Mond	-7464
▁drog	-7465
▁pand	-7466
▁scol	-7467
▁calls	-7468
▁doigt	-7469
▁horiz	-7470
▁mouse	-7471
▁moves	-7472
artment	-7473
ptembre	-7474
▁caught	-7475
▁client	-7476
▁inject	-7477
▁diction	-7478
▁enthous	-7479
▁impliqu	-7480
▁régions	-7481
▁souches	-7482
▁attendre	-7483
▁commerce	-7484
▁insectes	-7485
▁trouvons	-7486
▁étudiant	-7487
▁dangereux	-7488
▁dynamique	-7489
▁dinosaures	-7490
▁phenomenon	-7491
60	-7492
uin	-7493
uts	-7494
▁Em	-7495
abil	-7496
iqué	-7497
parg	-7498
▁Med	-7499
ising	-7500
▁ping	-7501
▁suic	-7502
▁appell	-7503
▁bouche	-7504
▁grandm	-7505
▁interd	-7506
▁posséd	-7507
▁vulnér	-7508
▁chaleur	-7509
▁espaces	-7510
▁describe	-7511
▁entirely	-7512
▁molécule	-7513
atmosphère	-7514
▁Microsoft	-7515
▁évolution	-7516
▁responsable	-7517
med	-7518
rol	-7519
▁Rw	-7520
▁Su	-7521
apse	-7522
▁Nat	-7523
▁bee	-7524
▁hur	-7525
▁ske	-7526
ouges	-7527
▁Braz	-7528
▁coté	-7529
▁ship	-7530
change	-7531
érance	-7532
▁Votre	-7533
▁envie	-7534
▁héros	-7535
▁laser	-7536
▁react	-7537
▁récol	-7538
▁weird	-7539
▁Grande	-7540
▁chauff	-7541
▁degree	-7542
▁erreur	-7543
▁membre	-7544
▁minusc	-7545
▁remote	-7546
▁décrire	-7547
▁element	-7548
▁parcour	-7549
▁trained	-7550
issements	-7551
▁Stanford	-7552
▁emotions	-7553
▁finished	-7554
▁metaphor	-7555
▁platform	-7556
▁concerned	-7557
▁engineers	-7558
▁protéines	-7559
▁septembre	-7560
▁émissions	-7561
▁application	-7562
yt	-7563
Hey	-7564
edy	-7565
meu	-7566
rel	-7567
lies	-7568
tech	-7569
craft	-7570
ierie	-7571
osyst	-7572
▁atom	-7573
▁clip	-7574
▁lapt	-7575
▁sert	-7576
rition	-7577
uition	-7578
▁Apple	-7579
▁Trois	-7580
▁Valle	-7581
▁giant	-7582
▁noise	-7583
▁perte	-7584
▁degrés	-7585
▁obtenu	-7586
▁récent	-7587
▁arrivés	-7588
▁classes	-7589
▁disting	-7590
▁foreign	-7591
▁immense	-7592
▁intérêt	-7593
▁meurent	-7594
▁surpren	-7595
▁airplane	-7596
▁changent	-7597
▁séquence	-7598
▁portables	-7599
▁suffering	-7600
▁disponible	-7601
intelligence	-7602
▁différemment	-7603
ua	-7604
ula	-7605
▁2.	-7606
▁Ke	-7607
lymp	-7608
chent	-7609
ender	-7610
▁fera	-7611
▁lamp	-7612
▁ride	-7613
▁subt	-7614
▁tire	-7615
iennes	-7616
▁Avant	-7617
▁Obama	-7618
▁achet	-7619
▁armes	-7620
▁party	-7621
▁walls	-7622
individ	-7623
▁Nature	-7624
▁colère	-7625
▁female	-7626
▁iPhone	-7627
▁therap	-7628
▁assembl	-7629
▁leading	-7630
▁opinion	-7631
▁soldats	-7632
▁instinct	-7633
▁référence	-7634
▁chercheurs	-7635
▁microscope	-7636
▁statistics	-7637
▁conférences	-7638
▁enseignants	-7639
▁informatique	-7640
▁intelligents	-7641
add	-7642
azz	-7643
uté	-7644
céan	-7645
ured	-7646
▁due	-7647
▁mov	-7648
inqui	-7649
isted	-7650
objet	-7651
étrie	-7652
▁moth	-7653
▁purs	-7654
▁soup	-7655
ancing	-7656
ansion	-7657
ientôt	-7658
ifying	-7659
itudes	-7660
ulsion	-7661
▁exhib	-7662
▁fresh	-7663
▁noirs	-7664
▁stuck	-7665
▁venez	-7666
▁interf	-7667
▁sector	-7668
▁tester	-7669
▁victim	-7670
▁Science	-7671
▁acceler	-7672
▁ajouter	-7673
▁parking	-7674
▁augmente	-7675
▁compared	-7676
▁feedback	-7677
▁opposite	-7678
▁présence	-7679
▁advantage	-7680
▁davantage	-7681
▁languages	-7682
▁propriété	-7683
▁principalement	-7684
80	-7685
can	-7686
ida	-7687
irt	-7688
▁PI	-7689
unte	-7690
▁Num	-7691
▁bub	-7692
▁fan	-7693
▁fib	-7694
▁pir	-7695
▁SIDA	-7696
▁Take	-7697
▁conç	-7698
▁joie	-7699
▁lack	-7700
▁meat	-7701
▁roof	-7702
▁tube	-7703
▁aveug	-7704
▁cyber	-7705
▁dense	-7706
▁globe	-7707
▁gérer	-7708
▁heads	-7709
▁offer	-7710
▁quels	-7711
▁remet	-7712
▁talks	-7713
▁wheel	-7714
hôpital	-7715
▁Atlant	-7716
▁School	-7717
▁circle	-7718
▁nearly	-7719
▁publié	-7720
▁sortie	-7721
▁éviter	-7722
▁counter	-7723
▁leaving	-7724
▁musical	-7725
▁paysage	-7726
entreprise	-7727
itablement	-7728
▁Sometimes	-7729
▁childhood	-7730
▁lentement	-7731
▁populaire	-7732
▁president	-7733
▁similaire	-7734
▁accessible	-7735
▁apprennent	-7736
▁principale	-7737
▁ressembler	-7738
▁agriculture	-7739
▁independent	-7740
▁civilisation	-7741
emb	-7742
itz	-7743
ests	-7744
oins	-7745
rian	-7746
veux	-7747
▁Did	-7748
▁Mah	-7749
▁Mat	-7750
▁alt	-7751
▁tém	-7752
emplo	-7753
▁Mark	-7754
▁diox	-7755
▁fert	-7756
▁murs	-7757
▁peng	-7758
▁valu	-7759
ignons	-7760
urally	-7761
▁accur	-7762
▁faute	-7763
▁grain	-7764
▁lance	-7765
▁provo	-7766
ometers	-7767
▁Brazil	-7768
▁Depuis	-7769
▁Valley	-7770
▁easier	-7771
▁régime	-7772
▁benefit	-7773
▁despite	-7774
▁lecture	-7775
▁nourrir	-7776
▁warming	-7777
▁weapons	-7778
▁Audience	-7779
▁domaines	-7780
▁explorer	-7781
▁contempor	-7782
▁radiation	-7783
▁investment	-7784
.'	-7785
7.	-7786
9.	-7787
alie	-7788
aped	-7789
avec	-7790
glet	-7791
umin	-7792
âtre	-7793
▁nar	-7794
▁urg	-7795
▁vin	-7796
anges	-7797
bling	-7798
encer	-7799
esses	-7800
oking	-7801
tered	-7802
▁core	-7803
▁faim	-7804
ieuses	-7805
▁Child	-7806
▁Nobel	-7807
▁accum	-7808
▁aient	-7809
▁avanc	-7810
▁bande	-7811
▁divid	-7812
▁froid	-7813
▁leads	-7814
▁multi	-7815
▁offic	-7816
▁Island	-7817
▁breath	-7818
▁colors	-7819
▁disais	-7820
▁effray	-7821
▁jardin	-7822
▁unlike	-7823
▁viande	-7824
▁organic	-7825
▁studied	-7826
▁volonté	-7827
▁previous	-7828
▁terminer	-7829
▁appareils	-7830
▁connecter	-7831
▁responsible	-7832
▁professional	-7833
imb	-7834
écl	-7835
▁RB	-7836
auto	-7837
extr	-7838
roir	-7839
▁Rep	-7840
etnam	-7841
ituel	-7842
▁Jeff	-7843
▁bull	-7844
▁déje	-7845
▁maje	-7846
itness	-7847
omment	-7848
▁helps	-7849
▁immun	-7850
▁liber	-7851
▁états	-7852
ccident	-7853
ologues	-7854
▁attent	-7855
▁bright	-7856
▁crimin	-7857
▁debout	-7858
▁desire	-7859
▁dreams	-7860
▁décrit	-7861
▁infant	-7862
▁jouent	-7863
▁ration	-7864
▁reward	-7865
▁sister	-7866
▁affaire	-7867
▁amusant	-7868
▁appeler	-7869
▁galaxie	-7870
▁mélange	-7871
▁méthode	-7872
▁precise	-7873
▁proches	-7874
▁scanner	-7875
▁believed	-7876
▁conduire	-7877
▁contract	-7878
▁operating	-7879
▁mathematics	-7880
gry	-7881
rum	-7882
▁65	-7883
▁ath	-7884
▁ore	-7885
appar	-7886
idden	-7887
uropé	-7888
▁biod	-7889
▁dict	-7890
▁opér	-7891
▁teen	-7892
effond	-7893
rogène	-7894
▁deter	-7895
▁liens	-7896
▁relev	-7897
▁smell	-7898
▁trous	-7899
▁truck	-7900
▁curios	-7901
▁failed	-7902
▁incent	-7903
▁island	-7904
▁phones	-7905
▁wisdom	-7906
gleterre	-7907
▁authent	-7908
▁factory	-7909
▁insects	-7910
▁matters	-7911
▁raconte	-7912
▁sagesse	-7913
▁theater	-7914
▁allaient	-7915
▁multiple	-7916
▁portrait	-7917
▁cardiaque	-7918
▁discovery	-7919
▁traverser	-7920
▁convaincre	-7921
▁connections	-7922
▁connaissances	-7923
co	-7924
oci	-7925
▁Jo	-7926
atom	-7927
ring	-7928
uner	-7929
▁Pat	-7930
ength	-7931
essel	-7932
▁Cont	-7933
▁bone	-7934
▁fass	-7935
▁subs	-7936
▁avoid	-7937
▁musul	-7938
▁novel	-7939
▁pilot	-7940
▁proud	-7941
▁circul	-7942
▁closed	-7943
▁galaxy	-7944
▁lettre	-7945
▁meters	-7946
▁option	-7947
▁prises	-7948
▁brother	-7949
▁employe	-7950
▁failure	-7951
▁médical	-7952
▁require	-7953
▁fighting	-7954
▁recevoir	-7955
▁efficient	-7956
▁puissante	-7957
▁retrouver	-7958
▁equivalent	-7959
].	-7960
réd	-7961
chec	-7962
▁Tex	-7963
▁rub	-7964
ounts	-7965
place	-7966
point	-7967
▁Each	-7968
▁agir	-7969
▁brut	-7970
▁park	-7971
▁tens	-7972
▁vête	-7973
▁Ghana	-7974
▁attir	-7975
▁douce	-7976
▁dress	-7977
▁frère	-7978
▁fémin	-7979
▁grass	-7980
▁shoes	-7981
▁surge	-7982
▁venus	-7983
obtenir	-7984
▁absorb	-7985
▁découv	-7986
▁oceans	-7987
▁stupid	-7988
▁thinks	-7989
▁Royaume	-7990
▁charbon	-7991
▁ressort	-7992
▁vouloir	-7993
intéresse	-7994
▁matériau	-7995
▁perfectly	-7996
agriculture	-7997
▁précisément	-7998
▁conversations	-7999
▁unfortunately	-8000
èv	-8001
▁den	-8002
▁van	-8003
cking	-8004
iture	-8005
▁Once	-8006
▁dorm	-8007
▁hate	-8008
▁held	-8009
▁Inter	-8010
▁accro	-8011
▁défis	-8012
▁faith	-8013
▁frequ	-8014
▁honte	-8015
▁steps	-8016
arriver	-8017
▁Anyway	-8018
▁Rwanda	-8019
▁deeply	-8020
▁depend	-8021
▁ferait	-8022
▁lesson	-8023
▁movies	-8024
▁pounds	-8025
▁raised	-8026
▁réelle	-8027
▁target	-8028
▁vessel	-8029
▁fenêtre	-8030
▁quitter	-8031
▁typical	-8032
▁wearing	-8033
▁concentr	-8034
▁employés	-8035
▁identity	-8036
▁intéressé	-8037
▁principle	-8038
▁considérer	-8039
▁principles	-8040
▁incroyables	-8041
▁comportements	-8042
▁CE	-8043
▁KB	-8044
oncé	-8045
▁Bob	-8046
▁dot	-8047
▁dry	-8048
▁shr	-8049
tarct	-8050
▁Comm	-8051
▁Flor	-8052
▁arms	-8053
▁coch	-8054
▁horm	-8055
▁soil	-8056
▁tail	-8057
érapie	-8058
▁grave	-8059
▁layer	-8060
▁sauce	-8061
▁scene	-8062
▁émerg	-8063
teindre	-8064
▁Mexico	-8065
▁harder	-8066
▁motion	-8067
▁recycl	-8068
▁strugg	-8069
▁drawing	-8070
▁fabriqu	-8071
▁fourmis	-8072
▁options	-8073
▁vehicle	-8074
▁continué	-8075
▁sociales	-8076
▁ultimately	-8077
▁opportunité	-8078
ads	-8079
agr	-8080
ira	-8081
icit	-8082
oirs	-8083
ombe	-8084
▁700	-8085
▁enr	-8086
▁era	-8087
▁por	-8088
▁Ceux	-8089
▁copy	-8090
▁king	-8091
▁sulf	-8092
▁vélo	-8093
▁whom	-8094
inspir	-8095
▁Juste	-8096
▁barri	-8097
▁ignor	-8098
▁lunch	-8099
▁nommé	-8100
▁tient	-8101
orthern	-8102
▁adults	-8103
▁menace	-8104
▁orient	-8105
▁partis	-8106
▁reform	-8107
▁stable	-8108
▁avancer	-8109
▁battery	-8110
▁mettons	-8111
▁compliqu	-8112
▁soldiers	-8113
ographique	-8114
▁connexion	-8115
▁mentioned	-8116
▁conséquent	-8117
▁innovations	-8118
▁entrepreneur	-8119
▁transmission	-8120
▁Ac	-8121
aret	-8122
cked	-8123
cons	-8124
hatt	-8125
rome	-8126
▁Ser	-8127
▁Sil	-8128
▁bin	-8129
ismes	-8130
prits	-8131
▁Bron	-8132
▁Over	-8133
▁Rome	-8134
▁ador	-8135
▁célé	-8136
▁libr	-8137
hattan	-8138
otechn	-8139
▁2,000	-8140
▁camer	-8141
▁dents	-8142
▁durée	-8143
▁epide	-8144
▁grown	-8145
▁north	-8146
▁paras	-8147
▁refer	-8148
▁smile	-8149
▁appart	-8150
▁cheval	-8151
▁cooper	-8152
▁demain	-8153
▁intens	-8154
▁proper	-8155
▁souffr	-8156
▁terres	-8157
▁territ	-8158
ventions	-8159
▁honnête	-8160
▁managed	-8161
▁antibiot	-8162
▁Manhattan	-8163
▁designing	-8164
▁intention	-8165
▁otherwise	-8166
▁disponibles	-8167
▁fascinating	-8168
ete	-8169
enty	-8170
vere	-8171
▁Lab	-8172
▁Law	-8173
▁cow	-8174
▁tué	-8175
▁unp	-8176
andis	-8177
effic	-8178
▁Coun	-8179
▁basé	-8180
▁chan	-8181
▁edge	-8182
▁ennu	-8183
idémie	-8184
intégr	-8185
▁chron	-8186
▁names	-8187
▁determ	-8188
▁locaux	-8189
▁pointe	-8190
▁singes	-8191
ologists	-8192
▁constit	-8193
▁display	-8194
▁highest	-8195
▁signaux	-8196
▁vieille	-8197
▁chimpanz	-8198
▁utilisée	-8199
▁décennies	-8200
▁hopefully	-8201
▁opération	-8202
▁yesterday	-8203
▁chaussures	-8204
▁transplant	-8205
▁experiences	-8206
▁intéressantes	-8207
If	-8208
irl	-8209
▁95	-8210
Nous	-8211
gets	-8212
iler	-8213
seur	-8214
▁800	-8215
▁Auc	-8216
▁Del	-8217
▁Dem	-8218
▁Pol	-8219
▁mou	-8220
autor	-8221
raham	-8222
▁Perm	-8223
▁Phil	-8224
▁bond	-8225
▁sexe	-8226
existe	-8227
▁Toute	-8228
▁acade	-8229
▁allée	-8230
▁argue	-8231
▁blogs	-8232
▁legal	-8233
▁shock	-8234
▁Virgin	-8235
▁cercle	-8236
▁detail	-8237
▁exists	-8238
▁inconn	-8239
▁medium	-8240
▁quitté	-8241
▁survie	-8242
ormément	-8243
▁essayez	-8244
▁mariage	-8245
▁rendent	-8246
▁normally	-8247
▁richesse	-8248
▁soutenir	-8249
ingénierie	-8250
▁described	-8251
▁regardent	-8252
▁stratégie	-8253
▁artificial	-8254
▁simulation	-8255
▁comprennent	-8256
▁représentent	-8257
▁ur	-8258
aily	-8259
leur	-8260
oile	-8261
otic	-8262
oubl	-8263
▁Sal	-8264
▁adm	-8265
▁cul	-8266
arrêt	-8267
merge	-8268
rième	-8269
▁Gold	-8270
▁Kore	-8271
▁bees	-8272
▁cous	-8273
▁noms	-8274
▁perp	-8275
▁abstr	-8276
▁click	-8277
▁grimp	-8278
▁inner	-8279
▁river	-8280
▁verte	-8281
▁équip	-8282
anglais	-8283
▁begins	-8284
▁créent	-8285
▁fields	-8286
▁limite	-8287
▁pourra	-8288
▁réduit	-8289
▁vaccin	-8290
▁bientôt	-8291
▁protein	-8292
▁shouldn	-8293
▁succeed	-8294
▁worried	-8295
▁abeilles	-8296
▁articles	-8297
▁dessiner	-8298
▁everyday	-8299
▁followed	-8300
expression	-8301
▁maintenir	-8302
▁seriously	-8303
▁ingénieurs	-8304
▁légèrement	-8305
▁participer	-8306
▁générations	-8307
▁correctement	-8308
▁organisations	-8309
▁réchauffement	-8310
6.	-8311
fit	-8312
aked	-8313
cast	-8314
izes	-8315
laud	-8316
ompe	-8317
pper	-8318
▁ate	-8319
▁dat	-8320
▁ree	-8321
▁row	-8322
habit	-8323
icing	-8324
icted	-8325
idées	-8326
known	-8327
lease	-8328
uvres	-8329
▁Rien	-8330
▁ants	-8331
▁blow	-8332
▁forc	-8333
▁ling	-8334
▁poul	-8335
▁prol	-8336
▁scen	-8337
écrire	-8338
▁Moore	-8339
▁Titan	-8340
▁Would	-8341
▁carré	-8342
▁cloud	-8343
▁holes	-8344
▁paint	-8345
▁polar	-8346
▁proto	-8347
▁interc	-8348
▁marine	-8349
▁suffit	-8350
opportun	-8351
▁However	-8352
▁chiffre	-8353
▁curious	-8354
▁invited	-8355
▁observe	-8356
▁pensées	-8357
▁activité	-8358
▁conflits	-8359
▁engineer	-8360
▁objectif	-8361
▁resource	-8362
▁spectacle	-8363
▁composants	-8364
▁productive	-8365
Oui	-8366
cto	-8367
athy	-8368
bell	-8369
wide	-8370
▁Jan	-8371
▁Nor	-8372
▁aqu	-8373
▁bid	-8374
▁bri	-8375
▁fed	-8376
▁lar	-8377
▁scr	-8378
acted	-8379
attle	-8380
ctive	-8381
▁Gore	-8382
▁chau	-8383
▁enem	-8384
▁labo	-8385
▁reve	-8386
aisons	-8387
enture	-8388
▁Congo	-8389
▁Egypt	-8390
▁Three	-8391
▁boule	-8392
▁coral	-8393
▁nulle	-8394
▁round	-8395
▁rêves	-8396
▁south	-8397
lescope	-8398
▁centim	-8399
▁chasse	-8400
▁finish	-8401
▁pingou	-8402
▁script	-8403
▁tonnes	-8404
ièmement	-8405
▁100,000	-8406
▁cheveux	-8407
▁empower	-8408
▁husband	-8409
▁insight	-8410
▁volunte	-8411
ologiques	-8412
▁European	-8413
▁distinct	-8414
▁football	-8415
▁semblait	-8416
▁utilisés	-8417
▁classroom	-8418
▁comprends	-8419
▁demandent	-8420
▁economics	-8421
▁entertain	-8422
▁constantly	-8423
▁electrical	-8424
vas	-8425
iber	-8426
nait	-8427
onst	-8428
apter	-8429
exemp	-8430
rices	-8431
▁1000	-8432
▁fier	-8433
▁resc	-8434
▁Bronx	-8435
▁leçon	-8436
▁lycée	-8437
▁veget	-8438
intérêt	-8439
ologist	-8440
▁battre	-8441
▁circum	-8442
▁debate	-8443
▁explan	-8444
▁shapes	-8445
▁trials	-8446
▁Britain	-8447
▁England	-8448
▁arrivée	-8449
▁letters	-8450
▁requins	-8451
▁weather	-8452
▁property	-8453
▁voulions	-8454
▁bouteille	-8455
▁chemistry	-8456
▁currently	-8457
▁directeur	-8458
▁photograp	-8459
▁possibles	-8460
▁personnelle	-8461
▁intellectual	-8462
Bon	-8463
Yes	-8464
ctu	-8465
▁Ros	-8466
▁via	-8467
apped	-8468
athie	-8469
rence	-8470
▁Bank	-8471
▁Long	-8472
▁hadn	-8473
▁rece	-8474
▁wear	-8475
▁arbre	-8476
▁côtés	-8477
▁empty	-8478
▁honor	-8479
▁monte	-8480
▁negot	-8481
▁persu	-8482
▁sugar	-8483
▁tiens	-8484
▁tumor	-8485
uration	-8486
▁dinner	-8487
▁locale	-8488
▁paying	-8489
▁saving	-8490
▁telles	-8491
▁toward	-8492
▁nervous	-8493
▁section	-8494
▁signals	-8495
▁soutien	-8496
▁clinique	-8497
▁location	-8498
▁ordinary	-8499
▁Hollywood	-8500
▁commencez	-8501
▁montagnes	-8502
▁Everything	-8503
▁circulation	-8504
▁implications	-8505
▁interactions	-8506
▁malheureusement	-8507
mn	-8508
ums	-8509
agos	-8510
ario	-8511
fish	-8512
ômes	-8513
aceut	-8514
▁Amaz	-8515
▁joué	-8516
▁renf	-8517
animal	-8518
ignent	-8519
▁ayons	-8520
▁baiss	-8521
▁jaune	-8522
▁laugh	-8523
▁mener	-8524
▁pluie	-8525
▁quiet	-8526
▁régul	-8527
ressive	-8528
▁damage	-8529
▁destin	-8530
▁fourth	-8531
▁puzzle	-8532
▁sexual	-8533
▁croyons	-8534
▁players	-8535
▁traffic	-8536
▁investig	-8537
▁majority	-8538
▁producing	-8539
▁catastroph	-8540
▁represents	-8541
20	-8542
uy	-8543
ati	-8544
ius	-8545
▁26	-8546
ivez	-8547
urez	-8548
▁Bab	-8549
▁Dis	-8550
▁pin	-8551
ategy	-8552
▁Narr	-8553
▁dieu	-8554
▁dots	-8555
▁fell	-8556
ushing	-8557
▁bases	-8558
▁folks	-8559
▁mosqu	-8560
▁soyez	-8561
ictions	-8562
▁Martin	-8563
▁advert	-8564
▁fellow	-8565
▁autonom	-8566
▁combust	-8567
▁covered	-8568
▁liquide	-8569
▁propose	-8570
▁déjeuner	-8571
▁gratuite	-8572
▁Certaines	-8573
▁dinosaurs	-8574
▁largement	-8575
▁puissions	-8576
▁businesses	-8577
▁résolution	-8578
▁économiques	-8579
▁électriques	-8580
▁particulière	-8581
Il	-8582
cket	-8583
mans	-8584
orce	-8585
rane	-8586
▁Art	-8587
▁Lat	-8588
accès	-8589
icate	-8590
isher	-8591
▁bear	-8592
▁bour	-8593
▁pray	-8594
▁wave	-8595
bridge	-8596
▁Their	-8597
▁Women	-8598
▁drôle	-8599
▁equal	-8600
▁grade	-8601
▁lifet	-8602
▁marri	-8603
▁repas	-8604
▁teeth	-8605
▁texte	-8606
▁vaste	-8607
Comment	-8608
▁assign	-8609
▁donnez	-8610
▁filled	-8611
▁losing	-8612
▁Mexique	-8613
▁contrôl	-8614
▁coordin	-8615
▁fiction	-8616
▁interpr	-8617
▁joueurs	-8618
▁magasin	-8619
▁treated	-8620
▁violent	-8621
▁viruses	-8622
▁devaient	-8623
▁feelings	-8624
▁hydrogen	-8625
▁launched	-8626
▁lumières	-8627
▁sentence	-8628
▁strategy	-8629
▁survival	-8630
▁victimes	-8631
▁métaphore	-8632
▁quatrième	-8633
▁frontières	-8634
▁surprising	-8635
▁restaurants	-8636
▁evolutionary	-8637
▁généralement	-8638
aled	-8639
atar	-8640
ench	-8641
well	-8642
▁adj	-8643
▁tue	-8644
▁wat	-8645
cents	-8646
explo	-8647
phant	-8648
▁coul	-8649
▁gain	-8650
▁rang	-8651
▁synd	-8652
▁weak	-8653
illage	-8654
onents	-8655
ériques	-8656
▁essaye	-8657
▁leaves	-8658
▁pierre	-8659
▁sharks	-8660
▁touche	-8661
astiques	-8662
ications	-8663
▁arrived	-8664
▁confort	-8665
▁contain	-8666
▁dynamic	-8667
▁gravité	-8668
▁guerres	-8669
▁mothers	-8670
▁obtient	-8671
▁Japanese	-8672
▁Pourtant	-8673
▁générale	-8674
▁souvenez	-8675
▁tomorrow	-8676
▁Permettez	-8677
▁mortality	-8678
▁universal	-8679
▁découvertes	-8680
▁generations	-8681
▁grandmother	-8682
▁reconnaître	-8683
iée	-8684
▁'9	-8685
iaux	-8686
omin	-8687
onné	-8688
▁Sir	-8689
▁gun	-8690
▁hol	-8691
neath	-8692
▁Does	-8693
▁Have	-8694
▁Wall	-8695
▁cath	-8696
▁dile	-8697
▁ethn	-8698
▁hasn	-8699
▁hero	-8700
▁lady	-8701
▁ultr	-8702
ipment	-8703
▁Enfin	-8704
▁amène	-8705
▁bouge	-8706
▁invol	-8707
▁sable	-8708
▁servi	-8709
▁skill	-8710
▁arrêté	-8711
▁aurons	-8712
▁conduc	-8713
▁diapos	-8714
▁fossil	-8715
▁invers	-8716
▁malade	-8717
▁specif	-8718
▁surviv	-8719
▁conseil	-8720
▁dealing	-8721
▁details	-8722
▁figures	-8723
▁limited	-8724
▁normale	-8725
▁roughly	-8726
▁clinical	-8727
▁décennie	-8728
▁considère	-8729
▁nationale	-8730
▁management	-8731
▁university	-8732
▁énormément	-8733
▁constamment	-8734
▁professeurs	-8735
▁représentation	-8736
En	-8737
500	-8738
Uni	-8739
hes	-8740
That	-8741
illé	-8742
once	-8743
quet	-8744
èses	-8745
▁Air	-8746
▁Net	-8747
▁Tor	-8748
▁mér	-8749
▁cock	-8750
▁gout	-8751
▁pair	-8752
▁soie	-8753
acters	-8754
heimer	-8755
▁rayon	-8756
▁establ	-8757
▁miroir	-8758
▁nouvel	-8759
▁passés	-8760
▁prefer	-8761
▁rouges	-8762
▁unless	-8763
▁Vietnam	-8764
▁keeping	-8765
▁married	-8766
▁opening	-8767
▁testing	-8768
▁Quelques	-8769
▁generate	-8770
▁pleasure	-8771
▁psychiat	-8772
▁Cambridge	-8773
▁equipment	-8774
▁publicité	-8775
▁characters	-8776
▁concernant	-8777
▁effectively	-8778
%.	-8779
DP	-8780
exc	-8781
rét	-8782
▁GP	-8783
tait	-8784
▁lux	-8785
owers	-8786
uries	-8787
▁Sans	-8788
▁desk	-8789
▁dure	-8790
▁tons	-8791
▁Texas	-8792
▁awful	-8793
▁boite	-8794
▁chaos	-8795
▁fract	-8796
▁horse	-8797
▁avance	-8798
▁caused	-8799
▁picked	-8800
▁player	-8801
▁pousse	-8802
▁mainten	-8803
▁session	-8804
▁vivants	-8805
▁auxquels	-8806
▁emerging	-8807
▁ridicule	-8808
▁compagnies	-8809
▁kilometers	-8810
▁pharmaceut	-8811
▁sentiments	-8812
organisation	-8813
▁ressemblait	-8814
▁consequences	-8815
▁increasingly	-8816
▁possibilities	-8817
▁internationale	-8818
Eh	-8819
fl	-8820
ban	-8821
▁Ty	-8822
▁ts	-8823
hiop	-8824
mbre	-8825
ouer	-8826
▁Sep	-8827
▁wel	-8828
ocide	-8829
▁evil	-8830
▁fran	-8831
▁nett	-8832
▁sacr	-8833
▁shif	-8834
essaie	-8835
▁categ	-8836
▁chefs	-8837
▁cloth	-8838
▁flies	-8839
▁gagne	-8840
▁heavy	-8841
▁libér	-8842
▁spont	-8843
▁viend	-8844
▁écran	-8845
▁Soleil	-8846
▁affich	-8847
▁corpor	-8848
▁ouvrir	-8849
▁schéma	-8850
▁tumeur	-8851
▁éloign	-8852
▁étapes	-8853
▁cameras	-8854
▁crucial	-8855
▁réussir	-8856
▁setting	-8857
▁spatial	-8858
▁variety	-8859
▁absolute	-8860
▁annivers	-8861
▁consumer	-8862
▁dialogue	-8863
▁réussite	-8864
▁computing	-8865
▁essential	-8866
▁vêtements	-8867
▁engagement	-8868
▁traditions	-8869
▁Malheureusement	-8870
ek	-8871
ised	-8872
life	-8873
quez	-8874
ôtre	-8875
▁191	-8876
▁Env	-8877
▁Ess	-8878
▁Hey	-8879
▁Kar	-8880
▁cup	-8881
▁gap	-8882
▁nez	-8883
alisé	-8884
érêts	-8885
▁Russ	-8886
▁Sing	-8887
▁ends	-8888
▁lait	-8889
▁genet	-8890
▁lourd	-8891
▁metal	-8892
▁chimie	-8893
▁imprim	-8894
▁tenter	-8895
▁triste	-8896
agissait	-8897
▁centres	-8898
▁conduis	-8899
▁glamour	-8900
▁mentale	-8901
▁paralys	-8902
▁journaux	-8903
▁sûrement	-8904
▁vertical	-8905
▁augmenter	-8906
▁chemicals	-8907
▁technical	-8908
▁associated	-8909
▁comprenons	-8910
enseignement	-8911
▁description	-8912
▁philanthrop	-8913
▁communications	-8914
▁CD	-8915
uing	-8916
usqu	-8917
ailed	-8918
lying	-8919
▁Mand	-8920
▁shut	-8921
ulated	-8922
▁agent	-8923
▁chain	-8924
▁coûts	-8925
▁délic	-8926
▁emmen	-8927
▁flash	-8928
▁input	-8929
▁liked	-8930
▁motif	-8931
▁spoke	-8932
▁stood	-8933
▁sucre	-8934
essence	-8935
itarian	-8936
utation	-8937
▁Oxford	-8938
▁aimons	-8939
▁battle	-8940
▁belong	-8941
▁consac	-8942
▁detect	-8943
▁embarr	-8944
▁essais	-8945
▁review	-8946
▁croient	-8947
▁killing	-8948
nellement	-8949
▁essayant	-8950
▁fabriqué	-8951
▁parfaite	-8952
▁according	-8953
▁standards	-8954
▁controvers	-8955
▁déterminer	-8956
▁récompense	-8957
▁underneath	-8958
▁inspiration	-8959
▁travaillant	-8960
▁bibliothèque	-8961
▁concentration	-8962
▁participation	-8963
ti	-8964
za	-8965
aks	-8966
har	-8967
iam	-8968
yle	-8969
▁Ju	-8970
▁ah	-8971
▁ci	-8972
erry	-8973
irez	-8974
▁Six	-8975
▁agg	-8976
▁jug	-8977
essed	-8978
▁silk	-8979
▁tsun	-8980
▁Carol	-8981
▁daily	-8982
▁jeter	-8983
▁saved	-8984
▁serez	-8985
▁thème	-8986
▁vague	-8987
zheimer	-8988
▁Howard	-8989
▁announ	-8990
▁ballon	-8991
▁belief	-8992
▁bottle	-8993
▁factor	-8994
▁videos	-8995
▁Project	-8996
▁cutting	-8997
▁disparu	-8998
▁entrain	-8999
▁initial	-9000
▁positif	-9001
▁affected	-9002
▁reaction	-9003
▁retrouve	-9004
▁spectrum	-9005
équivalent	-9006
▁descendre	-9007
▁efficaces	-9008
▁pensaient	-9009
▁processes	-9010
▁depression	-9011
▁compétition	-9012
RI	-9013
Tu	-9014
na	-9015
enh	-9016
mas	-9017
ued	-9018
ahar	-9019
down	-9020
kins	-9021
ytoc	-9022
▁cub	-9023
▁gel	-9024
▁lié	-9025
▁tab	-9026
charg	-9027
throp	-9028
▁Stud	-9029
▁corn	-9030
▁rejo	-9031
▁tank	-9032
▁tels	-9033
iables	-9034
▁Smith	-9035
▁frais	-9036
▁siège	-9037
▁sweet	-9038
angible	-9039
envoyer	-9040
▁buying	-9041
▁define	-9042
▁explor	-9043
▁manage	-9044
▁rendez	-9045
▁éclair	-9046
▁Pacific	-9047
▁cancers	-9048
▁charges	-9049
▁combine	-9050
▁globale	-9051
▁rivière	-9052
▁attitude	-9053
▁efficien	-9054
▁exercise	-9055
▁generally	-9056
▁components	-9057
▁considered	-9058
▁couverture	-9059
▁enthousias	-9060
▁rassembler	-9061
▁transforme	-9062
▁normalement	-9063
▁personnages	-9064
▁fondamentale	-9065
▁relativement	-9066
CA	-9067
▁rh	-9068
alog	-9069
ingt	-9070
phab	-9071
▁Sim	-9072
arriv	-9073
hique	-9074
▁Norm	-9075
▁diet	-9076
▁hote	-9077
▁juge	-9078
▁mile	-9079
▁poly	-9080
▁tape	-9081
▁wine	-9082
dedans	-9083
▁amour	-9084
▁rates	-9085
▁squel	-9086
ultural	-9087
▁enable	-9088
▁essaie	-9089
▁liquid	-9090
▁parach	-9091
▁physic	-9092
▁status	-9093
▁contrad	-9094
▁esprits	-9095
▁origami	-9096
▁ouverte	-9097
▁partner	-9098
▁rapidly	-9099
équilibre	-9100
▁disaster	-9101
▁identify	-9102
▁individu	-9103
▁indépend	-9104
▁longueur	-9105
▁requires	-9106
▁stations	-9107
▁carefully	-9108
▁newspaper	-9109
▁protocell	-9110
▁variation	-9111
▁consumption	-9112
▁fondamental	-9113
ij	-9114
ols	-9115
rob	-9116
▁Mag	-9117
▁Ray	-9118
▁cry	-9119
▁dop	-9120
▁lac	-9121
ogram	-9122
résil	-9123
▁agré	-9124
▁bicy	-9125
▁hang	-9126
▁shop	-9127
orient	-9128
▁Olymp	-9129
▁refus	-9130
▁steel	-9131
▁Brésil	-9132
▁anesth	-9133
▁driver	-9134
▁halluc	-9135
▁orange	-9136
▁suppos	-9137
▁venant	-9138
▁forment	-9139
▁grandir	-9140
▁primary	-9141
▁selling	-9142
▁spectre	-9143
▁théâtre	-9144
▁ancêtres	-9145
▁explique	-9146
▁prepared	-9147
▁President	-9148
▁chirurgie	-9149
▁objectifs	-9150
▁physiques	-9151
▁quasiment	-9152
▁artistique	-9153
▁introduced	-9154
▁photographs	-9155
▁specifically	-9156
▁consommateurs	-9157
OK	-9158
▁]	-9159
lyn	-9160
rie	-9161
tel	-9162
top	-9163
umn	-9164
▁Dé	-9165
▁Gl	-9166
▁éd	-9167
bors	-9168
eral	-9169
onge	-9170
▁Bay	-9171
▁rav	-9172
forme	-9173
▁loud	-9174
▁lune	-9175
▁puts	-9176
▁unes	-9177
▁user	-9178
▁éduc	-9179
iquent	-9180
▁beaux	-9181
▁escal	-9182
▁poign	-9183
▁shall	-9184
▁theme	-9185
anément	-9186
▁Intern	-9187
▁agents	-9188
▁divert	-9189
▁parlez	-9190
▁tâches	-9191
▁volcan	-9192
appelait	-9193
▁anciens	-9194
▁artiste	-9195
▁calling	-9196
▁comprom	-9197
▁consult	-9198
▁hauteur	-9199
▁promise	-9200
▁réunion	-9201
▁strateg	-9202
▁terminé	-9203
▁travaux	-9204
▁analysis	-9205
▁chimique	-9206
▁facteurs	-9207
▁identité	-9208
▁embarrass	-9209
▁fonctions	-9210
▁spiritual	-9211
▁dirigeants	-9212
▁instructions	-9213
▁presentation	-9214
gu	-9215
èd	-9216
ali	-9217
pen	-9218
roc	-9219
▁US	-9220
Look	-9221
angh	-9222
dies	-9223
ifie	-9224
érir	-9225
▁Day	-9226
▁Gen	-9227
▁Ver	-9228
▁dél	-9229
▁tex	-9230
child	-9231
rooms	-9232
▁Chac	-9233
▁Hong	-9234
▁Last	-9235
▁Star	-9236
▁créd	-9237
▁goût	-9238
▁grid	-9239
▁kick	-9240
▁rats	-9241
▁ring	-9242
entend	-9243
essaye	-9244
itchen	-9245
▁Found	-9246
▁biens	-9247
▁broke	-9248
▁chute	-9249
▁garde	-9250
▁incor	-9251
▁signe	-9252
▁Museum	-9253
▁courte	-9254
▁facing	-9255
▁habitu	-9256
▁ingred	-9257
▁portée	-9258
▁rayons	-9259
▁solved	-9260
▁visuel	-9261
▁winter	-9262
▁longues	-9263
▁publics	-9264
▁batterie	-9265
▁conclure	-9266
▁étonnant	-9267
▁cependant	-9268
▁emissions	-9269
▁mécanique	-9270
▁positions	-9271
▁surprised	-9272
▁véhicules	-9273
imagination	-9274
▁chimpanzés	-9275
▁relatively	-9276
▁combinaison	-9277
▁sérieusement	-9278
ani	-9279
ora	-9280
▁PM	-9281
▁dî	-9282
..."	-9283
assi	-9284
bler	-9285
gram	-9286
haut	-9287
iest	-9288
ihad	-9289
çait	-9290
▁120	-9291
▁Cap	-9292
▁Jim	-9293
▁cod	-9294
▁pla	-9295
chron	-9296
power	-9297
vable	-9298
▁hits	-9299
▁mens	-9300
▁mène	-9301
▁refl	-9302
▁toit	-9303
allons	-9304
encies	-9305
entrée	-9306
estres	-9307
source	-9308
▁Gener	-9309
▁Talib	-9310
▁atoms	-9311
▁atter	-9312
▁cards	-9313
▁dilem	-9314
▁maman	-9315
▁métal	-9316
▁océan	-9317
▁pause	-9318
iconque	-9319
▁auront	-9320
▁champs	-9321
▁cycles	-9322
▁handic	-9323
▁hidden	-9324
▁neuron	-9325
▁privil	-9326
▁string	-9327
écriture	-9328
▁feuille	-9329
▁maximum	-9330
▁ramener	-9331
▁regular	-9332
▁restent	-9333
▁centaine	-9334
▁circuits	-9335
▁circumst	-9336
▁exchange	-9337
▁illusion	-9338
▁lifetime	-9339
▁thoughts	-9340
▁réflexion	-9341
▁substance	-9342
▁definitely	-9343
▁photographie	-9344
até	-9345
ela	-9346
run	-9347
▁PC	-9348
▁lâ	-9349
▁ér	-9350
apon	-9351
ding	-9352
▁Boy	-9353
▁Con	-9354
▁LED	-9355
▁Sel	-9356
▁cyl	-9357
▁mak	-9358
athan	-9359
copes	-9360
gling	-9361
izoph	-9362
oncer	-9363
▁Swed	-9364
▁gène	-9365
▁pige	-9366
▁wake	-9367
alisés	-9368
ologue	-9369
▁digit	-9370
▁homes	-9371
▁ought	-9372
▁rejet	-9373
▁révél	-9374
▁trace	-9375
▁waves	-9376
▁auprès	-9377
▁belles	-9378
▁clever	-9379
▁forgot	-9380
▁frères	-9381
▁prends	-9382
▁propag	-9383
▁pulled	-9384
▁safety	-9385
▁tissus	-9386
▁magique	-9387
▁paradox	-9388
▁prisonn	-9389
▁soudain	-9390
▁tsunami	-9391
▁visages	-9392
▁watched	-9393
améliorer	-9394
expliquer	-9395
▁determin	-9396
▁expected	-9397
▁probable	-9398
▁présenté	-9399
▁received	-9400
▁surveill	-9401
▁valuable	-9402
▁accidents	-9403
▁autrement	-9404
▁convinced	-9405
▁intuition	-9406
▁neighbors	-9407
▁obstacles	-9408
▁practical	-9409
▁comfortable	-9410
▁pourcentage	-9411
▁proposition	-9412
▁conservation	-9413
▁mathematical	-9414
▁technologique	-9415
DA	-9416
▁3,	-9417
▁Bi	-9418
▁Hi	-9419
▁SW	-9420
aure	-9421
▁Tas	-9422
▁Tes	-9423
▁hey	-9424
clear	-9425
iring	-9426
rions	-9427
rophe	-9428
▁avoc	-9429
▁hack	-9430
yright	-9431
▁Jusqu	-9432
▁Union	-9433
▁aging	-9434
▁crowd	-9435
▁hydro	-9436
▁prove	-9437
▁vingt	-9438
acheter	-9439
▁baisse	-9440
▁blocks	-9441
▁exposé	-9442
▁forced	-9443
▁height	-9444
▁sphère	-9445
entendre	-9446
▁apporté	-9447
▁gravity	-9448
▁moteurs	-9449
▁vaccine	-9450
▁voisins	-9451
▁fraction	-9452
▁véhicule	-9453
▁introduce	-9454
▁movements	-9455
▁organized	-9456
▁wondering	-9457
▁exploration	-9458
▁researchers	-9459
▁traitements	-9460
▁transparent	-9461
▁environments	-9462
sp	-9463
agh	-9464
cel	-9465
fic	-9466
▁JH	-9467
▁ri	-9468
apor	-9469
appy	-9470
atta	-9471
care	-9472
chez	-9473
comp	-9474
hold	-9475
oler	-9476
roid	-9477
what	-9478
▁202	-9479
▁GDP	-9480
▁noy	-9481
adesh	-9482
allée	-9483
intes	-9484
▁cess	-9485
▁crop	-9486
▁doub	-9487
▁fake	-9488
▁pron	-9489
▁roul	-9490
▁tran	-9491
▁unit	-9492
espèce	-9493
icious	-9494
▁bleue	-9495
▁degré	-9496
▁intit	-9497
▁shark	-9498
▁users	-9499
▁usine	-9500
itement	-9501
▁Newton	-9502
▁Prenez	-9503
▁Shangh	-9504
▁fortun	-9505
▁fruits	-9506
▁mirror	-9507
▁organs	-9508
▁rocket	-9509
▁cartoon	-9510
▁chicken	-9511
▁cooking	-9512
▁défense	-9513
▁parlant	-9514
▁prouver	-9515
▁records	-9516
▁release	-9517
▁remonte	-9518
▁réparer	-9519
hydrogène	-9520
▁creature	-9521
▁mistakes	-9522
▁schizoph	-9523
▁struggle	-9524
▁sunlight	-9525
▁développe	-9526
▁excellent	-9527
▁utilisées	-9528
▁continents	-9529
▁reconnaiss	-9530
▁similaires	-9531
▁spécifique	-9532
▁conséquence	-9533
▁participants	-9534
ET	-9535
va	-9536
pos	-9537
▁!"	-9538
▁hô	-9539
▁té	-9540
conf	-9541
ller	-9542
otte	-9543
tery	-9544
yrus	-9545
égal	-9546
▁Jew	-9547
▁Sam	-9548
▁Tim	-9549
▁USA	-9550
▁bul	-9551
Islam	-9552
alles	-9553
dames	-9554
ested	-9555
ifiée	-9556
isses	-9557
ocent	-9558
opard	-9559
orous	-9560
usual	-9561
ynman	-9562
▁Arch	-9563
▁Sant	-9564
▁TEDT	-9565
▁corr	-9566
▁enne	-9567
▁load	-9568
▁logo	-9569
▁unif	-9570
imagin	-9571
▁Black	-9572
▁Gates	-9573
▁Scott	-9574
▁State	-9575
▁curve	-9576
▁glaci	-9577
▁sides	-9578
▁sympa	-9579
assembl	-9580
▁actuel	-9581
▁ancien	-9582
▁credit	-9583
▁driven	-9584
▁improv	-9585
▁invite	-9586
▁length	-9587
▁poison	-9588
isations	-9589
▁Feynman	-9590
▁applied	-9591
▁hôpital	-9592
▁privile	-9593
▁sending	-9594
▁singing	-9595
▁tension	-9596
▁advanced	-9597
▁epidemic	-9598
▁graduate	-9599
▁infected	-9600
▁marriage	-9601
▁framework	-9602
▁molecular	-9603
▁pingouins	-9604
▁quantités	-9605
▁dispositif	-9606
▁efficiency	-9607
▁personally	-9608
▁variations	-9609
▁experienced	-9610
▁politicians	-9611
▁supplémentaires	-9612
Do	-9613
Ou	-9614
uk	-9615
uve	-9616
agan	-9617
yers	-9618
▁Mor	-9619
▁bow	-9620
▁rhy	-9621
▁roy	-9622
▁tes	-9623
aises	-9624
anzan	-9625
ingue	-9626
ètent	-9627
érant	-9628
▁1990	-9629
▁Also	-9630
▁cong	-9631
▁iPod	-9632
▁nage	-9633
arrête	-9634
▁5,000	-9635
▁basée	-9636
▁stone	-9637
▁toxic	-9638
istique	-9639
▁Pouvez	-9640
▁conver	-9641
▁retard	-9642
▁solide	-9643
▁tandis	-9644
▁tourné	-9645
▁venons	-9646
▁worlds	-9647
▁attempt	-9648
▁centers	-9649
▁compter	-9650
▁cricket	-9651
▁dessins	-9652
▁devions	-9653
▁facteur	-9654
▁miracle	-9655
▁organes	-9656
▁suscept	-9657
▁carrying	-9658
▁election	-9659
▁organism	-9660
▁retraite	-9661
▁syndrome	-9662
▁trillion	-9663
▁ultimate	-9664
▁expansion	-9665
▁fréquence	-9666
▁éducation	-9667
▁discipline	-9668
▁génétiques	-9669
▁permission	-9670
▁souffrance	-9671
▁combination	-9672
▁psychologie	-9673
▁reproduction	-9674
▁extraordinaires	-9675
Ch	-9676
On	-9677
ss	-9678
xi	-9679
umé	-9680
▁ru	-9681
agés	-9682
ardo	-9683
mons	-9684
rime	-9685
èche	-9686
▁Lar	-9687
▁esc	-9688
aites	-9689
iogen	-9690
itann	-9691
scale	-9692
upper	-9693
uster	-9694
▁Coca	-9695
▁Gand	-9696
▁Sovi	-9697
▁cade	-9698
▁inev	-9699
▁remo	-9700
▁saut	-9701
imming	-9702
▁chart	-9703
▁coupe	-9704
▁essai	-9705
▁nuage	-9706
▁vital	-9707
▁auriez	-9708
▁deeper	-9709
▁garage	-9710
▁hoping	-9711
▁offrir	-9712
▁sample	-9713
▁serais	-9714
▁voisin	-9715
▁Antarct	-9716
▁britann	-9717
▁electro	-9718
▁inspiré	-9719
▁kitchen	-9720
▁préserv	-9721
▁reverse	-9722
▁unusual	-9723
▁amoureux	-9724
▁bataille	-9725
▁dopamine	-9726
▁heureuse	-9727
▁prostate	-9728
▁recorded	-9729
▁required	-9730
▁behaviors	-9731
▁collision	-9732
▁ecosystem	-9733
▁fascinant	-9734
▁interests	-9735
▁mountains	-9736
▁worldwide	-9737
▁industries	-9738
▁properties	-9739
▁Deuxièmement	-9740
▁responsables	-9741
alg	-9742
fri	-9743
▁Bo	-9744
Yeah	-9745
atre	-9746
imal	-9747
éder	-9748
ôtel	-9749
▁Bur	-9750
▁Lou	-9751
▁Peu	-9752
▁Sar	-9753
▁foi	-9754
▁sen	-9755
▁tor	-9756
▁édu	-9757
▁Leur	-9758
▁aidé	-9759
▁boom	-9760
▁cast	-9761
▁joke	-9762
▁lend	-9763
▁swim	-9764
istant	-9765
▁Allez	-9766
▁Delhi	-9767
▁Other	-9768
▁Ouais	-9769
▁Super	-9770
▁admit	-9771
▁claim	-9772
▁facts	-9773
▁fewer	-9774
▁fruit	-9775
▁guide	-9776
▁keeps	-9777
▁poche	-9778
▁risks	-9779
▁split	-9780
▁tours	-9781
aliment	-9782
entends	-9783
▁Voyons	-9784
▁acting	-9785
▁advent	-9786
▁donnée	-9787
▁hospit	-9788
▁houses	-9789
▁laptop	-9790
▁parole	-9791
▁rentre	-9792
▁simult	-9793
▁Germany	-9794
▁dropped	-9795
▁définir	-9796
▁fingers	-9797
▁gestion	-9798
▁quantum	-9799
▁suivent	-9800
▁victims	-9801
▁énormes	-9802
▁Republic	-9803
▁occurred	-9804
▁pensions	-9805
▁employees	-9806
▁enseigner	-9807
▁naturally	-9808
▁remplacer	-9809
▁historique	-9810
▁processing	-9811
▁catastrophe	-9812
▁nécessaires	-9813
▁partenaires	-9814
hh	-9815
enu	-9816
iti	-9817
▁28	-9818
ader	-9819
cont	-9820
mage	-9821
père	-9822
tail	-9823
west	-9824
▁193	-9825
▁dén	-9826
alled	-9827
trait	-9828
▁Irak	-9829
▁hurt	-9830
▁lies	-9831
▁pill	-9832
▁prat	-9833
▁runs	-9834
▁scén	-9835
▁tact	-9836
▁thin	-9837
Orient	-9838
ailles	-9839
stitut	-9840
usions	-9841
▁Nouve	-9842
▁added	-9843
▁créée	-9844
▁goods	-9845
▁génie	-9846
▁inher	-9847
▁lutte	-9848
▁mines	-9849
▁param	-9850
▁taste	-9851
▁upper	-9852
écouter	-9853
étation	-9854
▁Ethiop	-9855
▁acoust	-9856
▁chiens	-9857
▁conven	-9858
▁courir	-9859
▁forêts	-9860
▁furent	-9861
▁passée	-9862
▁placer	-9863
▁poetry	-9864
▁voices	-9865
agissent	-9866
approche	-9867
▁Environ	-9868
▁depends	-9869
▁emmener	-9870
▁minimum	-9871
▁nombres	-9872
▁quarter	-9873
▁secrets	-9874
▁stupide	-9875
▁Mondiale	-9876
▁centrale	-9877
▁créature	-9878
▁faudrait	-9879
▁penguins	-9880
▁provient	-9881
▁relevant	-9882
▁whenever	-9883
▁activités	-9884
▁distances	-9885
▁operation	-9886
▁traveling	-9887
▁Foundation	-9888
▁observation	-9889
▁probabilité	-9890
▁énergétique	-9891
▁naturellement	-9892
/1	-9893
EC	-9894
lls	-9895
ufs	-9896
war	-9897
yde	-9898
erey	-9899
foot	-9900
ifer	-9901
levé	-9902
rows	-9903
ueux	-9904
▁Mur	-9905
▁mac	-9906
▁rit	-9907
inson	-9908
isées	-9909
▁Come	-9910
▁Gulf	-9911
▁Time	-9912
▁eggs	-9913
▁gift	-9914
▁maps	-9915
▁mets	-9916
▁plot	-9917
▁snow	-9918
ielles	-9919
quille	-9920
reinte	-9921
▁Techn	-9922
▁White	-9923
▁Woman	-9924
▁biais	-9925
▁camps	-9926
▁foule	-9927
▁goals	-9928
▁japon	-9929
▁obser	-9930
▁pitch	-9931
▁score	-9932
▁trich	-9933
ilience	-9934
▁aftern	-9935
▁allant	-9936
▁civile	-9937
▁concur	-9938
▁pilote	-9939
▁poster	-9940
▁requin	-9941
▁thanks	-9942
▁totale	-9943
ainement	-9944
▁aurions	-9945
▁connait	-9946
▁connaît	-9947
▁factors	-9948
▁habitat	-9949
▁harvest	-9950
▁intrins	-9951
▁majeure	-9952
▁nerveux	-9953
▁panneau	-9954
▁procédé	-9955
▁Monterey	-9956
▁espérons	-9957
▁fossiles	-9958
▁measured	-9959
▁modernes	-9960
▁proteins	-9961
▁sensible	-9962
▁souhaite	-9963
▁gentlemen	-9964
▁Finalement	-9965
▁activities	-9966
▁democratic	-9967
▁percentage	-9968
▁profondeur	-9969
▁débarrasser	-9970
▁Premièrement	-9971
▁industrielle	-9972
▁fundamentally	-9973
▁technological	-9974
▁véritablement	-9975
di	-9976
bly	-9977
inv	-9978
▁55	-9979
▁LG	-9980
agon	-9981
enda	-9982
éral	-9983
▁cig	-9984
enser	-9985
inder	-9986
érité	-9987
▁Ford	-9988
▁Gree	-9989
▁Rock	-9990
▁casc	-9991
▁lanc	-9992
▁mout	-9993
▁rede	-9994
▁rire	-9995
▁sédu	-9996
▁trig	-9997
▁vibr	-9998
object	-9999
▁3,000	-10000
▁Mount	-10001
▁immeu	-10002
▁plain	-10003
▁thick	-10004
▁tombé	-10005
▁étend	-10006
osphere	-10007
▁banque	-10008
▁déclen	-10009
▁ennuye	-10010
▁fleurs	-10011
▁infirm	-10012
▁parall	-10013
▁poésie	-10014
▁relate	-10015
▁spring	-10016
cepteurs	-10017
occasion	-10018
▁burning	-10019
▁lessons	-10020
▁mesures	-10021
▁mistake	-10022
▁savions	-10023
▁sortent	-10024
▁suicide	-10025
existence	-10026
icalement	-10027
▁Shanghai	-10028
▁panneaux	-10029
▁pourrons	-10030
▁puissiez	-10031
▁synchron	-10032
▁Australia	-10033
▁Basically	-10034
▁Pacifique	-10035
▁batteries	-10036
▁comprenez	-10037
▁explosion	-10038
▁forcément	-10039
▁infantile	-10040
▁interpret	-10041
▁réduction	-10042
▁selection	-10043
▁foundation	-10044
▁militaires	-10045
▁psychology	-10046
▁explanation	-10047
▁expressions	-10048
▁magnifiques	-10049
▁fonctionnement	-10050
has	-10051
osn	-10052
pha	-10053
pte	-10054
▁AK	-10055
Okay	-10056
keys	-10057
lève	-10058
prim	-10059
qués	-10060
whel	-10061
▁ADN	-10062
▁Acc	-10063
▁PIB	-10064
▁dil	-10065
▁tél	-10066
akers	-10067
analy	-10068
▁Four	-10069
▁Mill	-10070
▁ence	-10071
▁fête	-10072
▁nose	-10073
▁pump	-10074
▁sees	-10075
▁tick	-10076
auteur	-10077
lected	-10078
onneur	-10079
ouille	-10080
pitaux	-10081
▁barre	-10082
▁bombs	-10083
▁canop	-10084
▁embed	-10085
▁flott	-10086
▁minor	-10087
▁neige	-10088
▁orbit	-10089
▁phras	-10090
▁senti	-10091
ologies	-10092
retagne	-10093
▁Tanzan	-10094
▁formed	-10095
▁garden	-10096
▁intrig	-10097
▁invité	-10098
▁negoti	-10099
▁sphere	-10100
▁touché	-10101
estation	-10102
llemagne	-10103
▁Johnson	-10104
▁chanter	-10105
▁defined	-10106
▁fragile	-10107
▁paralle	-10108
▁remains	-10109
▁talents	-10110
▁voyager	-10111
▁écosyst	-10112
▁avantage	-10113
▁baleines	-10114
▁collapse	-10115
▁détecter	-10116
▁implique	-10117
▁intérêts	-10118
▁transfer	-10119
▁utilisez	-10120
▁versions	-10121
▁afternoon	-10122
▁copyright	-10123
▁documents	-10124
▁récupérer	-10125
opportunité	-10126
▁auxquelles	-10127
▁vulnerable	-10128
▁représenter	-10129
▁augmentation	-10130
70	-10131
Ne	-10132
bat	-10133
œil	-10134
▁85	-10135
▁ic	-10136
▁jo	-10137
ecte	-10138
isez	-10139
isms	-10140
olum	-10141
élic	-10142
érop	-10143
▁Pet	-10144
▁nit	-10145
▁tar	-10146
burgh	-10147
eline	-10148
idité	-10149
ifiés	-10150
ollar	-10151
oster	-10152
phins	-10153
retch	-10154
riers	-10155
▁Adam	-10156
▁bare	-10157
▁dogs	-10158
▁furn	-10159
▁hide	-10160
▁liés	-10161
▁obsc	-10162
▁peak	-10163
▁unex	-10164
istics	-10165
naires	-10166
ribles	-10167
tember	-10168
▁Brook	-10169
▁anten	-10170
▁aurez	-10171
▁boxes	-10172
▁diarr	-10173
▁distr	-10174
▁mesur	-10175
▁nutri	-10176
▁presc	-10177
▁title	-10178
areness	-10179
exemple	-10180
éritage	-10181
éroport	-10182
▁avenir	-10183
▁boring	-10184
▁corail	-10185
▁garant	-10186
▁masses	-10187
▁motifs	-10188
▁répart	-10189
▁season	-10190
▁sentez	-10191
▁Bonjour	-10192
▁anthrop	-10193
▁anticip	-10194
▁blanche	-10195
▁couches	-10196
▁fishing	-10197
▁gouvern	-10198
▁illness	-10199
▁prédire	-10200
▁reached	-10201
▁revenue	-10202
▁suspect	-10203
▁abstract	-10204
▁dépenser	-10205
▁hallucin	-10206
▁overwhel	-10207
▁rational	-10208
▁visuelle	-10209
▁vérifier	-10210
▁ancestors	-10211
▁mécanisme	-10212
▁professor	-10213
▁profondes	-10214
▁quiconque	-10215
▁typically	-10216
▁behavioral	-10217
▁literature	-10218
▁meaningful	-10219
▁participate	-10220
▁gratuitement	-10221
▁opportunités	-10222
▁personnalité	-10223
▁entertainment	-10224
▁nécessairement	-10225
▁traditionnelle	-10226
At	-10227
▁“	-10228
oto	-10229
rey	-10230
▁MT	-10231
inet	-10232
irds	-10233
ming	-10234
oted	-10235
rage	-10236
umps	-10237
érée	-10238
▁Hel	-10239
▁Sus	-10240
▁mad	-10241
lobal	-10242
ottes	-10243
ènent	-10244
échec	-10245
▁Five	-10246
▁Hill	-10247
▁Simp	-10248
▁Tony	-10249
▁banc	-10250
▁chev	-10251
▁pard	-10252
▁quit	-10253
▁sett	-10254
▁trau	-10255
▁wars	-10256
▁éche	-10257
essent	-10258
stream	-10259
▁Aussi	-10260
▁cinqu	-10261
▁error	-10262
▁ideal	-10263
▁jambe	-10264
▁signs	-10265
▁spons	-10266
assurer	-10267
▁adulte	-10268
▁blancs	-10269
▁cinéma	-10270
▁compat	-10271
▁créons	-10272
▁member	-10273
▁mondes	-10274
▁pattes	-10275
▁pertin	-10276
▁plante	-10277
▁remain	-10278
▁retire	-10279
▁réserv	-10280
aneously	-10281
▁decline	-10282
▁include	-10283
▁mosquit	-10284
▁regions	-10285
▁renouve	-10286
▁branches	-10287
▁citation	-10288
▁essayent	-10289
▁paradigm	-10290
▁continued	-10291
▁functions	-10292
▁reference	-10293
▁surprenant	-10294
▁appropriate	-10295
▁circumstances	-10296
▁manufacturing	-10297
▁sophisticated	-10298
My	-10299
Os	-10300
ato	-10301
err	-10302
non	-10303
adow	-10304
entr	-10305
here	-10306
ifth	-10307
rite	-10308
ynth	-10309
▁Unf	-10310
▁fum	-10311
▁luc	-10312
▁pip	-10313
▁vég	-10314
iante	-10315
peare	-10316
quare	-10317
▁Mary	-10318
▁Quoi	-10319
▁ayez	-10320
▁calc	-10321
▁cass	-10322
▁disg	-10323
▁ears	-10324
▁eaux	-10325
▁gasp	-10326
▁nurs	-10327
▁preg	-10328
▁sets	-10329
▁west	-10330
astern	-10331
▁Celle	-10332
▁Voyez	-10333
▁foyer	-10334
▁mobil	-10335
▁plait	-10336
▁retir	-10337
▁shame	-10338
▁staff	-10339
▁tente	-10340
▁toile	-10341
▁œuvre	-10342
▁Amazon	-10343
▁Nobody	-10344
▁aperçu	-10345
▁oublié	-10346
▁résolu	-10347
▁select	-10348
▁severe	-10349
▁systém	-10350
▁Quelque	-10351
▁abandon	-10352
▁bureaux	-10353
▁diriger	-10354
▁donnait	-10355
▁emplois	-10356
▁falling	-10357
▁feature	-10358
▁flowers	-10359
▁phrases	-10360
▁pourrez	-10361
▁souffle	-10362
akespeare	-10363
▁Congress	-10364
▁agréable	-10365
▁bactérie	-10366
▁colonies	-10367
▁connecté	-10368
▁détruire	-10369
▁excitant	-10370
▁features	-10371
▁influenc	-10372
▁internal	-10373
▁ministre	-10374
▁montrant	-10375
▁transist	-10376
▁vieilles	-10377
efficacité	-10378
ifications	-10379
▁animation	-10380
▁explained	-10381
▁frontière	-10382
▁chirurgien	-10383
▁controlled	-10384
▁reproduire	-10385
▁interactive	-10386
▁transmettre	-10387
NG	-10388
NU	-10389
],	-10390
yo	-10391
Ét	-10392
iac	-10393
uba	-10394
▁36	-10395
▁DV	-10396
▁IM	-10397
agée	-10398
amie	-10399
mark	-10400
mers	-10401
olfe	-10402
omat	-10403
ooth	-10404
osse	-10405
▁20,	-10406
▁Yet	-10407
being	-10408
ulous	-10409
▁Fort	-10410
▁Hans	-10411
▁Jour	-10412
▁abst	-10413
▁bloc	-10414
▁erad	-10415
▁flag	-10416
▁limb	-10417
▁mené	-10418
▁mété	-10419
▁nest	-10420
▁poem	-10421
▁pomp	-10422
▁Peter	-10423
▁Since	-10424
▁avais	-10425
▁balle	-10426
▁intim	-10427
▁tourn	-10428
▁vendu	-10429
instant	-10430
▁Design	-10431
▁Guerre	-10432
▁atomes	-10433
▁chante	-10434
▁deaths	-10435
▁drives	-10436
▁encoun	-10437
▁inters	-10438
▁routes	-10439
▁aveugle	-10440
▁balloon	-10441
▁designs	-10442
▁deviend	-10443
▁embrace	-10444
▁engaged	-10445
▁franche	-10446
▁graines	-10447
▁however	-10448
▁operate	-10449
▁profits	-10450
▁ridicul	-10451
▁unknown	-10452
▁witness	-10453
abilities	-10454
▁birthday	-10455
▁dramatic	-10456
▁démonstr	-10457
▁français	-10458
▁hôpitaux	-10459
▁oreilles	-10460
▁remettre	-10461
▁swimming	-10462
▁wireless	-10463
▁September	-10464
▁increased	-10465
▁nutrition	-10466
▁protected	-10467
▁signature	-10468
▁automobile	-10469
▁dépression	-10470
▁exposition	-10471
▁propriétés	-10472
▁transformé	-10473
▁discussions	-10474
▁pratiquement	-10475
▁Unfortunately	-10476
Si	-10477
All	-10478
ena	-10479
kin	-10480
▁Sy	-10481
clop	-10482
idéo	-10483
ilib	-10484
part	-10485
reed	-10486
uild	-10487
▁Gro	-10488
▁Inc	-10489
▁Met	-10490
▁Moi	-10491
▁Sky	-10492
▁Tam	-10493
▁fla	-10494
▁gay	-10495
▁jol	-10496
▁jur	-10497
▁ooh	-10498
▁pic	-10499
belie	-10500
usted	-10501
▁Benj	-10502
▁Hall	-10503
▁Josh	-10504
▁Pitt	-10505
▁feme	-10506
▁flew	-10507
▁infl	-10508
▁stro	-10509
▁tall	-10510
▁tiré	-10511
arante	-10512
ignant	-10513
▁Korea	-10514
▁Trans	-10515
▁bombe	-10516
▁frank	-10517
▁mètre	-10518
▁pairs	-10519
▁recul	-10520
▁répét	-10521
▁trend	-10522
▁tubes	-10523
essions	-10524
imagine	-10525
▁banlie	-10526
▁biolum	-10527
▁branch	-10528
▁cordes	-10529
▁exclus	-10530
▁export	-10531
▁handle	-10532
▁millim	-10533
▁négoci	-10534
▁papers	-10535
▁reçoit	-10536
▁serons	-10537
▁calculs	-10538
▁collaps	-10539
▁courses	-10540
▁dancing	-10541
▁dispers	-10542
▁docteur	-10543
▁donnant	-10544
▁enfance	-10545
▁extract	-10546
▁faibles	-10547
▁library	-10548
▁mystère	-10549
▁equation	-10550
▁médicaux	-10551
▁presence	-10552
▁appellent	-10553
▁determine	-10554
▁militaire	-10555
▁remarquer	-10556
▁vaisseaux	-10557
▁biolumines	-10558
▁chromosome	-10559
▁nucléaires	-10560
▁passionate	-10561
▁résistance	-10562
▁Shakespeare	-10563
▁littérature	-10564
▁intervention	-10565
▁utilisateurs	-10566
▁architectural	-10567
Be	-10568
LA	-10569
cil	-10570
rak	-10571
▁3.	-10572
▁Ug	-10573
▁gê	-10574
anze	-10575
aste	-10576
cton	-10577
gers	-10578
ideo	-10579
ilit	-10580
inal	-10581
olar	-10582
viol	-10583
èges	-10584
▁Mod	-10585
▁mun	-10586
▁pul	-10587
avage	-10588
emain	-10589
ifice	-10590
igéri	-10591
oient	-10592
ouest	-10593
étape	-10594
▁1960	-10595
▁Vrai	-10596
▁cave	-10597
▁cere	-10598
▁icon	-10599
▁orph	-10600
▁plug	-10601
▁sain	-10602
▁sale	-10603
▁surg	-10604
▁turb	-10605
▁Bangl	-10606
▁croit	-10607
▁falls	-10608
▁maîtr	-10609
▁poème	-10610
▁rooms	-10611
▁sales	-10612
▁bouton	-10613
▁famine	-10614
▁jusque	-10615
▁microb	-10616
▁étoile	-10617
▁breathe	-10618
▁distant	-10619
▁passons	-10620
▁siècles	-10621
▁therapy	-10622
▁augmenté	-10623
▁flexible	-10624
▁médicale	-10625
▁méthodes	-10626
▁savaient	-10627
▁hospitals	-10628
▁terrorism	-10629
Afghanistan	-10630
▁diagnostic	-10631
▁economists	-10632
▁electronic	-10633
▁innovative	-10634
IS	-10635
oln	-10636
▁29	-10637
▁42	-10638
▁eh	-10639
Asie	-10640
aler	-10641
etch	-10642
osis	-10643
rete	-10644
▁350	-10645
▁Imp	-10646
▁Van	-10647
▁Wow	-10648
▁bét	-10649
▁crâ	-10650
▁lob	-10651
▁nur	-10652
▁sla	-10653
chons	-10654
ignon	-10655
lande	-10656
lique	-10657
onome	-10658
▁Hait	-10659
▁Jose	-10660
▁Noël	-10661
▁Rand	-10662
▁caps	-10663
▁cure	-10664
▁inév	-10665
▁rose	-10666
▁shel	-10667
alisée	-10668
incoln	-10669
écoute	-10670
études	-10671
▁Clint	-10672
▁Could	-10673
▁Force	-10674
▁Latin	-10675
▁Never	-10676
▁beach	-10677
▁clock	-10678
▁depth	-10679
▁incap	-10680
▁média	-10681
▁vente	-10682
▁Please	-10683
▁commod	-10684
▁config	-10685
▁détail	-10686
▁espoir	-10687
▁illust	-10688
▁senses	-10689
▁transm	-10690
▁élevés	-10691
vergence	-10692
▁closely	-10693
▁composé	-10694
▁evening	-10695
▁monkeys	-10696
▁mystery	-10697
▁overall	-10698
▁sommeil	-10699
▁approxim	-10700
▁director	-10701
▁impliqué	-10702
▁interven	-10703
▁somewhat	-10704
▁stronger	-10705
▁trouvait	-10706
▁venaient	-10707
▁wherever	-10708
▁Christmas	-10709
▁awareness	-10710
▁lendemain	-10711
▁primitive	-10712
▁reçoivent	-10713
▁biologiques	-10714
▁challenging	-10715
▁distributed	-10716
▁mathématique	-10717
eu	-10718
ki	-10719
cut	-10720
lax	-10721
ria	-10722
▁["	-10723
fait	-10724
igue	-10725
itre	-10726
lley	-10727
oken	-10728
onna	-10729
oons	-10730
osov	-10731
ouvé	-10732
pher	-10733
veur	-10734
▁Str	-10735
▁alé	-10736
▁god	-10737
▁lap	-10738
▁nor	-10739
▁tea	-10740
ensus	-10741
iaire	-10742
moins	-10743
▁Bell	-10744
▁Gene	-10745
▁June	-10746
▁Octo	-10747
▁brev	-10748
▁crev	-10749
▁cube	-10750
▁elev	-10751
▁mand	-10752
▁mere	-10753
▁méch	-10754
▁pest	-10755
▁wing	-10756
profit	-10757
viewer	-10758
▁2000,	-10759
▁2007,	-10760
▁breed	-10761
▁coups	-10762
▁hotel	-10763
▁offre	-10764
▁Gandhi	-10765
▁aident	-10766
▁church	-10767
▁deploy	-10768
▁evolve	-10769
▁linked	-10770
▁traité	-10771
▁utiles	-10772
▁ventil	-10773
▁funding	-10774
▁outcome	-10775
▁repouss	-10776
▁sourire	-10777
▁vessels	-10778
ouverture	-10779
partement	-10780
▁Benjamin	-10781
▁accurate	-10782
▁chansons	-10783
▁released	-10784
▁Something	-10785
▁footprint	-10786
▁permanent	-10787
▁transcend	-10788
▁initiative	-10789
▁satellites	-10790
ministration	-10791
▁disparaître	-10792
▁principales	-10793
▁International	-10794
Ah	-10795
ya	-10796
acé	-10797
dam	-10798
etr	-10799
lan	-10800
lor	-10801
net	-10802
▁Hé	-10803
▁ok	-10804
▁ow	-10805
amen	-10806
gent	-10807
rors	-10808
ôles	-10809
▁DVD	-10810
▁Kev	-10811
▁odd	-10812
▁ski	-10813
acher	-10814
ansas	-10815
ining	-10816
iteur	-10817
lines	-10818
otter	-10819
▁Blue	-10820
▁Brad	-10821
▁Camp	-10822
▁Homo	-10823
▁assu	-10824
▁bars	-10825
▁bike	-10826
▁chol	-10827
▁douz	-10828
▁médi	-10829
▁renv	-10830
▁tack	-10831
▁vues	-10832
ection	-10833
making	-10834
ronter	-10835
▁Brian	-10836
▁McDon	-10837
▁Power	-10838
▁Voila	-10839
▁anony	-10840
▁doubt	-10841
▁fleur	-10842
▁kilos	-10843
▁redes	-10844
▁rhyth	-10845
▁topic	-10846
▁usage	-10847
esearch	-10848
isseurs	-10849
ondance	-10850
ènement	-10851
▁Health	-10852
▁Number	-10853
▁column	-10854
▁diffus	-10855
▁fisher	-10856
▁pathog	-10857
▁repair	-10858
▁tables	-10859
▁traces	-10860
▁traged	-10861
▁whales	-10862
▁Congrès	-10863
▁clothes	-10864
▁circonst	-10865
▁existing	-10866
▁obsessed	-10867
▁recueill	-10868
▁vehicles	-10869
▁convaincu	-10870
▁fondation	-10871
▁identical	-10872
▁implement	-10873
▁measuring	-10874
▁tendances	-10875
▁économies	-10876
inspiration	-10877
▁appreciate	-10878
▁contribute	-10879
▁identifier	-10880
▁apparemment	-10881
▁composition	-10882
▁educational	-10883
▁économistes	-10884
▁automatically	-10885
▁automatiquement	-10886
-1	-10887
BM	-10888
bie	-10889
equ	-10890
▁33	-10891
▁BG	-10892
abor	-10893
attr	-10894
ctus	-10895
iait	-10896
plus	-10897
quée	-10898
▁Bre	-10899
▁Get	-10900
▁Hen	-10901
▁Lin	-10902
▁clo	-10903
▁ens	-10904
acing	-10905
atter	-10906
night	-10907
orial	-10908
osses	-10909
▁Camb	-10910
▁ampl	-10911
▁aéri	-10912
▁bref	-10913
▁file	-10914
▁gram	-10915
▁gren	-10916
▁hamb	-10917
▁hook	-10918
▁jazz	-10919
▁lets	-10920
▁nets	-10921
▁regr	-10922
▁root	-10923
▁saur	-10924
ducing	-10925
opping	-10926
phones	-10927
romagn	-10928
▁About	-10929
▁Arist	-10930
▁Haiti	-10931
▁Kosov	-10932
▁Video	-10933
▁bidon	-10934
▁bones	-10935
▁coins	-10936
▁false	-10937
▁finit	-10938
▁gamme	-10939
▁liver	-10940
▁relax	-10941
▁roads	-10942
unclear	-10943
▁advice	-10944
▁crimes	-10945
▁cultiv	-10946
▁emploi	-10947
▁entrop	-10948
▁ingréd	-10949
▁joueur	-10950
▁mammif	-10951
▁owners	-10952
▁prices	-10953
▁remont	-10954
▁skelet	-10955
▁struct	-10956
changing	-10957
lication	-10958
éanmoins	-10959
▁Clinton	-10960
▁acteurs	-10961
▁appliqu	-10962
▁cherché	-10963
▁densité	-10964
▁implant	-10965
▁mangent	-10966
▁observé	-10967
▁orchest	-10968
▁quelcon	-10969
▁tremble	-10970
atteindre	-10971
▁Africans	-10972
▁abstrait	-10973
▁attendez	-10974
▁handicap	-10975
▁innocent	-10976
▁magnetic	-10977
▁authority	-10978
▁carburant	-10979
▁narrative	-10980
▁organisme	-10981
▁Geographic	-10982
▁champignons	-10983
▁gouvernance	-10984
▁intelligente	-10985
▁installations	-10986
▁vieillissement	-10987
DE	-10988
PT	-10989
RM	-10990
00,	-10991
log	-10992
via	-10993
▁MS	-10994
elez	-10995
pent	-10996
phen	-10997
▁Ban	-10998
▁Dés	-10999
▁Rio	-11000
▁dau	-11001
▁tro	-11002
osion	-11003
uisse	-11004
▁Arct	-11005
▁Prof	-11006
▁acte	-11007
▁amie	-11008
▁busy	-11009
▁exec	-11010
aignée	-11011
effort	-11012
friend	-11013
orking	-11014
▁Brown	-11015
▁Laden	-11016
▁Space	-11017
▁basse	-11018
▁bulle	-11019
▁gamin	-11020
▁impat	-11021
▁meurt	-11022
▁privé	-11023
▁sinon	-11024
▁storm	-11025
▁éparg	-11026
acement	-11027
énormes	-11028
▁Russia	-11029
▁attrap	-11030
▁comics	-11031
▁connue	-11032
▁déclin	-11033
▁désolé	-11034
▁extent	-11035
▁geomet	-11036
▁intent	-11037
▁leçons	-11038
▁monkey	-11039
▁remove	-11040
▁spider	-11041
▁stupéf	-11042
▁vraies	-11043
▁Lincoln	-11044
▁amounts	-11045
▁attract	-11046
▁commune	-11047
▁donnons	-11048
▁frankly	-11049
▁impacts	-11050
▁largely	-11051
▁portent	-11052
▁évoluer	-11053
videmment	-11054
▁aliments	-11055
▁altitude	-11056
▁ancienne	-11057
▁dominant	-11058
▁intitulé	-11059
▁meetings	-11060
▁parallel	-11061
▁préparer	-11062
▁retourne	-11063
▁wondered	-11064
▁administr	-11065
▁avantages	-11066
▁caractère	-11067
▁cliniques	-11068
▁component	-11069
▁mechanism	-11070
▁minuscule	-11071
▁permettez	-11072
▁quantique	-11073
▁rassemble	-11074
▁Bangladesh	-11075
▁confidence	-11076
▁identiques	-11077
▁permanence	-11078
▁physically	-11079
▁potentially	-11080
▁contribution	-11081
▁électronique	-11082
▁collaborative	-11083
Ex	-11084
Que	-11085
axe	-11086
bra	-11087
ima	-11088
olo	-11089
olt	-11090
spe	-11091
sum	-11092
aucr	-11093
cean	-11094
olic	-11095
wing	-11096
▁192	-11097
▁Gén	-11098
▁Tib	-11099
▁arb	-11100
▁dol	-11101
ariat	-11102
elson	-11103
eries	-11104
icier	-11105
influ	-11106
ombre	-11107
▁Budd	-11108
▁Kong	-11109
▁Supp	-11110
▁army	-11111
▁bask	-11112
▁fich	-11113
▁gray	-11114
▁hybr	-11115
▁loop	-11116
▁milk	-11117
▁mush	-11118
▁pace	-11119
▁till	-11120
▁wash	-11121
charge	-11122
father	-11123
quette	-11124
▁Satur	-11125
▁decre	-11126
▁enemy	-11127
▁lying	-11128
▁ramen	-11129
▁resté	-11130
▁stack	-11131
éricain	-11132
étrique	-11133
▁Berlin	-11134
▁Norden	-11135
▁assume	-11136
▁claire	-11137
▁desper	-11138
▁fausse	-11139
▁flower	-11140
▁franch	-11141
▁ignore	-11142
▁joined	-11143
▁output	-11144
▁paraly	-11145
▁poulet	-11146
▁ritual	-11147
▁salles	-11148
▁scream	-11149
▁seules	-11150
▁slides	-11151
▁trains	-11152
enregist	-11153
▁Central	-11154
▁General	-11155
▁Mandela	-11156
▁Perhaps	-11157
▁appréci	-11158
▁arrivez	-11159
▁causing	-11160
▁essence	-11161
▁expliqu	-11162
▁inspire	-11163
▁pensant	-11164
▁retirer	-11165
▁solving	-11166
▁suggère	-11167
▁Research	-11168
▁combined	-11169
▁feuilles	-11170
▁horizont	-11171
▁infinite	-11172
▁malheure	-11173
▁marchent	-11174
▁modifier	-11175
▁primaire	-11176
▁protéine	-11177
▁symmetry	-11178
▁symptoms	-11179
▁apprenons	-11180
▁chimpanze	-11181
▁disorders	-11182
▁ordinaire	-11183
▁puissants	-11184
▁sensitive	-11185
▁statement	-11186
▁telephone	-11187
▁toilettes	-11188
▁translate	-11189
▁difficulté	-11190
▁laboratory	-11191
▁chromosomes	-11192
▁controlling	-11193
▁travailleurs	-11194
OL	-11195
ONU	-11196
arc	-11197
col	-11198
hyp	-11199
nal	-11200
sol	-11201
arme	-11202
aule	-11203
midi	-11204
rète	-11205
▁Att	-11206
▁Fre	-11207
▁Jon	-11208
▁Nam	-11209
▁tol	-11210
apper	-11211
atson	-11212
enger	-11213
level	-11214
umble	-11215
èdent	-11216
▁Fond	-11217
▁Lune	-11218
▁Prob	-11219
▁insc	-11220
▁proj	-11221
▁quad	-11222
▁sûre	-11223
▁sœur	-11224
▁îles	-11225
hommes	-11226
instru	-11227
▁Colle	-11228
▁Cyrus	-11229
▁Santa	-11230
▁camér	-11231
▁compt	-11232
▁envis	-11233
▁lingu	-11234
▁loint	-11235
▁ordre	-11236
▁rétro	-11237
▁serre	-11238
▁songs	-11239
animaux	-11240
issante	-11241
ulating	-11242
▁Albert	-11243
▁Copenh	-11244
▁Russie	-11245
▁Uganda	-11246
▁Watson	-11247
▁assise	-11248
▁excess	-11249
▁extern	-11250
▁limité	-11251
▁margin	-11252
▁narrow	-11253
▁patent	-11254
▁prepar	-11255
▁refuge	-11256
▁rempli	-11257
▁sauter	-11258
▁scared	-11259
▁survey	-11260
▁traits	-11261
▁volant	-11262
onnected	-11263
▁Silicon	-11264
▁apporte	-11265
▁cigaret	-11266
▁créatif	-11267
▁equally	-11268
▁exploit	-11269
▁gratuit	-11270
▁libérer	-11271
▁poorest	-11272
▁storyte	-11273
▁texture	-11274
▁Everyone	-11275
▁accepter	-11276
▁calculer	-11277
▁chocolat	-11278
▁disorder	-11279
▁download	-11280
▁empêcher	-11281
▁naturels	-11282
▁peinture	-11283
▁pourront	-11284
▁provides	-11285
▁subjects	-11286
▁symétrie	-11287
▁collected	-11288
▁consumers	-11289
▁depending	-11290
▁trouverez	-11291
▁architects	-11292
▁simplicité	-11293
▁développent	-11294
▁philosophie	-11295
▁dramatically	-11296
▁transportation	-11297
But	-11298
las	-11299
low	-11300
vir	-11301
zes	-11302
▁0.	-11303
ador	-11304
inez	-11305
lent	-11306
ouch	-11307
outs	-11308
œurs	-11309
▁Ann	-11310
▁GPS	-11311
▁Jud	-11312
▁œil	-11313
astre	-11314
huile	-11315
onaut	-11316
quant	-11317
usage	-11318
usses	-11319
▁Coll	-11320
▁High	-11321
▁Miss	-11322
▁grab	-11323
▁oeil	-11324
agerie	-11325
mental	-11326
▁2004,	-11327
▁2008,	-11328
▁Essay	-11329
▁Larry	-11330
▁Prize	-11331
▁aston	-11332
▁audio	-11333
▁boire	-11334
▁censé	-11335
▁flood	-11336
▁prize	-11337
▁réfug	-11338
▁vache	-11339
engager	-11340
étudier	-11341
▁Democr	-11342
▁Disney	-11343
▁Sweden	-11344
▁bubble	-11345
▁décide	-11346
▁goutte	-11347
▁hunger	-11348
▁mérite	-11349
▁pollin	-11350
▁rising	-11351
▁saison	-11352
▁stabil	-11353
objectif	-11354
épendant	-11355
▁appears	-11356
▁attacks	-11357
▁bombard	-11358
▁careful	-11359
▁carried	-11360
▁dioxide	-11361
▁divided	-11362
▁feeding	-11363
▁license	-11364
▁légumes	-11365
▁percept	-11366
▁préféré	-11367
▁sentent	-11368
▁stretch	-11369
▁surgeon	-11370
▁younger	-11371
opération	-11372
▁Remember	-11373
▁Vraiment	-11374
▁brothers	-11375
▁calories	-11376
▁contrast	-11377
▁expliqué	-11378
▁hardware	-11379
▁incident	-11380
▁pyramide	-11381
▁retourné	-11382
▁africains	-11383
▁conscient	-11384
▁créateurs	-11385
▁déplacent	-11386
▁economies	-11387
▁increases	-11388
▁intuitive	-11389
▁intéresse	-11390
▁logiciels	-11391
▁messieurs	-11392
▁optimiste	-11393
▁religieux	-11394
▁réactions	-11395
▁équilibre	-11396
▁algorithms	-11397
▁exhibition	-11398
▁incentives	-11399
▁mechanical	-11400
▁philosophy	-11401
▁quelconque	-11402
▁politiciens	-11403
▁intéressants	-11404
▁neuroscience	-11405
▁productivity	-11406
investissement	-11407
▁démonstration	-11408
▁personnellement	-11409
▁potentiellement	-11410
méd	-11411
pox	-11412
rég	-11413
▁Kh	-11414
▁ug	-11415
oral	-11416
osex	-11417
uary	-11418
utch	-11419
▁Far	-11420
▁bip	-11421
▁déd	-11422
▁ped	-11423
opter	-11424
oupes	-11425
utile	-11426
venue	-11427
▁Crai	-11428
▁Mach	-11429
▁Mike	-11430
▁Pass	-11431
▁acts	-11432
▁conj	-11433
▁dame	-11434
▁doul	-11435
▁enzy	-11436
▁fous	-11437
▁laid	-11438
▁pous	-11439
▁rect	-11440
▁élim	-11441
appell	-11442
avance	-11443
cevons	-11444
dollar	-11445
icides	-11446
verest	-11447
▁Human	-11448
▁Suède	-11449
▁copie	-11450
▁coute	-11451
▁nourr	-11452
▁prévu	-11453
▁théor	-11454
▁tries	-11455
▁voire	-11456
▁whale	-11457
▁étiqu	-11458
adapter	-11459
analyse	-11460
interpr	-11461
occuper	-11462
osphère	-11463
▁agreed	-11464
▁robust	-11465
▁résist	-11466
▁sports	-11467
▁toilet	-11468
▁élevée	-11469
issaient	-11470
▁Finally	-11471
▁accepté	-11472
▁classic	-11473
▁détaill	-11474
▁earthqu	-11475
▁extinct	-11476
▁métabol	-11477
▁refroid	-11478
▁sensors	-11479
▁symbole	-11480
▁unbelie	-11481
▁windows	-11482
essentiel	-11483
▁discuter	-11484
▁floating	-11485
▁mutation	-11486
▁printing	-11487
▁speakers	-11488
▁suggests	-11489
▁celebrate	-11490
▁centuries	-11491
▁disappear	-11492
▁presented	-11493
▁quotidien	-11494
▁spreading	-11495
▁événement	-11496
▁afterwards	-11497
▁infections	-11498
▁opérations	-11499
▁partenaire	-11500
▁performing	-11501
▁transports	-11502
exploitation	-11503
▁destination	-11504
▁journaliste	-11505
▁progression	-11506
▁anniversaire	-11507
▁artificielle	-11508
▁installation	-11509
▁physiquement	-11510
▁reconnaissance	-11511
blé	-11512
gie	-11513
ona	-11514
yon	-11515
âts	-11516
▁Ky	-11517
▁PD	-11518
▁Ve	-11519
Mais	-11520
chet	-11521
etti	-11522
oeil	-11523
oudd	-11524
État	-11525
▁Dev	-11526
▁Kir	-11527
▁Pan	-11528
▁Spe	-11529
▁Sys	-11530
▁dys	-11531
▁ger	-11532
▁mim	-11533
▁toy	-11534
▁twe	-11535
activ	-11536
archy	-11537
estim	-11538
eters	-11539
front	-11540
itors	-11541
uting	-11542
▁Cour	-11543
▁Kenn	-11544
▁Only	-11545
▁acid	-11546
▁bath	-11547
▁clon	-11548
▁géom	-11549
▁ille	-11550
▁mail	-11551
▁prét	-11552
▁sexy	-11553
▁sinc	-11554
▁tabl	-11555
asters	-11556
athers	-11557
ualité	-11558
udisme	-11559
vation	-11560
▁House	-11561
▁brown	-11562
▁chips	-11563
▁datab	-11564
▁déplo	-11565
▁exter	-11566
▁imper	-11567
▁monté	-11568
▁skull	-11569
▁tromp	-11570
tements	-11571
édition	-11572
▁20,000	-11573
▁Nelson	-11574
▁Wright	-11575
▁désesp	-11576
▁détest	-11577
▁fertil	-11578
▁filter	-11579
▁fright	-11580
▁grains	-11581
▁ladies	-11582
▁montée	-11583
▁pareil	-11584
▁pocket	-11585
▁proced	-11586
internet	-11587
lescopes	-11588
▁Eastern	-11589
▁promote	-11590
▁raisonn	-11591
▁variole	-11592
▁visions	-11593
▁vouliez	-11594
important	-11595
infrastru	-11596
▁embedded	-11597
▁obtenons	-11598
▁parcours	-11599
▁shoulder	-11600
▁tracking	-11601
▁authentic	-11602
▁breathing	-11603
▁considéré	-11604
▁furniture	-11605
▁habitants	-11606
▁paintings	-11607
▁provenant	-11608
▁uncertain	-11609
▁commitment	-11610
▁connecting	-11611
▁permettant	-11612
▁prototypes	-11613
▁computation	-11614
▁franchement	-11615
▁transformed	-11616
▁travaillait	-11617
▁conventional	-11618
▁circonstances	-11619
▁professionnel	-11620
▁électroniques	-11621
ado	-11622
box	-11623
édé	-11624
île	-11625
▁JA	-11626
▁Ze	-11627
ason	-11628
auté	-11629
case	-11630
emic	-11631
isph	-11632
▁205	-11633
▁Bel	-11634
▁Syl	-11635
▁coh	-11636
▁hip	-11637
▁omn	-11638
▁wid	-11639
irait	-11640
pring	-11641
▁1950	-11642
▁1980	-11643
▁Lego	-11644
▁Mass	-11645
▁clou	-11646
▁rabb	-11647
▁surp	-11648
called	-11649
rivent	-11650
éclair	-11651
▁2005,	-11652
▁2009,	-11653
▁Unies	-11654
▁cable	-11655
▁embry	-11656
▁honey	-11657
▁plage	-11658
▁remix	-11659
▁repos	-11660
▁toler	-11661
▁weigh	-11662
parents	-11663
through	-11664
▁acquis	-11665
▁cadeau	-11666
▁emmené	-11667
▁europé	-11668
▁limits	-11669
▁lovely	-11670
▁offert	-11671
▁placed	-11672
▁stands	-11673
▁tested	-11674
▁triang	-11675
Bretagne	-11676
Occident	-11677
empathie	-11678
▁Islamic	-11679
▁agricul	-11680
▁attaque	-11681
▁consent	-11682
▁density	-11683
▁existed	-11684
▁fortune	-11685
▁grosses	-11686
▁interne	-11687
▁metabol	-11688
▁nowhere	-11689
▁persist	-11690
▁réserve	-11691
▁samples	-11692
▁wanting	-11693
stitution	-11694
▁aircraft	-11695
▁allowing	-11696
▁contrain	-11697
▁démarrer	-11698
▁désastre	-11699
▁faisions	-11700
▁lighting	-11701
▁lunettes	-11702
▁rappelez	-11703
▁remercie	-11704
▁traduire	-11705
▁traverse	-11706
engagement	-11707
▁diffusion	-11708
▁exploring	-11709
▁microscop	-11710
▁multiples	-11711
▁paludisme	-11712
▁parachute	-11713
exploration	-11714
▁resistance	-11715
▁terrorisme	-11716
▁architectes	-11717
▁disappeared	-11718
▁explication	-11719
▁partnership	-11720
▁merveilleuses	-11721
▁spectaculaire	-11722
HA	-11723
da	-11724
ïs	-11725
And	-11726
bul	-11727
ecd	-11728
uée	-11729
ués	-11730
vey	-11731
anny	-11732
olet	-11733
opin	-11734
opol	-11735
orch	-11736
phin	-11737
urre	-11738
▁Ice	-11739
▁Moz	-11740
▁pub	-11741
▁quo	-11742
accro	-11743
agger	-11744
illon	-11745
irons	-11746
iseur	-11747
sière	-11748
écriv	-11749
élium	-11750
▁Asie	-11751
▁Penn	-11752
▁Soci	-11753
▁corp	-11754
▁delà	-11755
▁dose	-11756
▁firm	-11757
▁gonf	-11758
▁hers	-11759
▁lens	-11760
▁levé	-11761
▁payé	-11762
▁pâte	-11763
▁salt	-11764
▁surm	-11765
isters	-11766
iteurs	-11767
▁Heure	-11768
▁While	-11769
▁absur	-11770
▁chest	-11771
▁câble	-11772
▁entré	-11773
▁envah	-11774
▁faced	-11775
▁fixed	-11776
▁links	-11777
▁paire	-11778
▁purch	-11779
▁régén	-11780
▁sight	-11781
▁trave	-11782
▁étais	-11783
dessous	-11784
ensible	-11785
ishment	-11786
iveness	-11787
▁Cambod	-11788
▁Orient	-11789
▁Tasman	-11790
▁agenda	-11791
▁button	-11792
▁discut	-11793
▁dégrad	-11794
▁legacy	-11795
▁pigeon	-11796
▁repart	-11797
▁smooth	-11798
▁spoken	-11799
▁statut	-11800
▁stayed	-11801
▁transc	-11802
appareil	-11803
épidémie	-11804
▁Muslims	-11805
▁Seattle	-11806
▁amélior	-11807
▁assurer	-11808
▁colonie	-11809
▁confirm	-11810
▁dignité	-11811
▁empathy	-11812
▁millier	-11813
▁opposed	-11814
▁passive	-11815
▁pyramid	-11816
▁rapides	-11817
▁tonight	-11818
▁électro	-11819
individus	-11820
▁Narrator	-11821
▁academic	-11822
▁achieved	-11823
▁appeared	-11824
▁attraper	-11825
▁investir	-11826
▁philosop	-11827
▁remonter	-11828
▁scolaire	-11829
▁smallpox	-11830
▁Alzheimer	-11831
▁Christian	-11832
▁destroyed	-11833
▁ingénieur	-11834
▁interagir	-11835
▁Revolution	-11836
▁confrontés	-11837
▁encourager	-11838
▁principaux	-11839
▁projection	-11840
▁simplicity	-11841
▁surrounded	-11842
▁adolescents	-11843
▁advertising	-11844
▁trajectoire	-11845
▁surveillance	-11846
▁échantillons	-11847
▁divertissement	-11848
Ce	-11849
aa	-11850
ETI	-11851
aby	-11852
los	-11853
nut	-11854
pet	-11855
upt	-11856
wis	-11857
▁Wi	-11858
amis	-11859
fare	-11860
iled	-11861
isan	-11862
otes	-11863
teau	-11864
▁'60	-11865
▁10.	-11866
▁190	-11867
▁Ham	-11868
▁Ten	-11869
▁meg	-11870
▁raw	-11871
▁reç	-11872
▁roi	-11873
▁ère	-11874
arium	-11875
astes	-11876
irent	-11877
itent	-11878
matic	-11879
opath	-11880
phere	-11881
ésité	-11882
œuvre	-11883
▁Souv	-11884
▁adap	-11885
▁dump	-11886
▁mars	-11887
▁maïs	-11888
▁mini	-11889
▁outc	-11890
▁relâ	-11891
▁vice	-11892
archie	-11893
menter	-11894
▁Jones	-11895
▁Saint	-11896
▁anger	-11897
▁aster	-11898
▁cible	-11899
▁dirty	-11900
▁dozen	-11901
▁grows	-11902
▁humor	-11903
▁indig	-11904
▁mises	-11905
▁proth	-11906
▁seats	-11907
▁seeds	-11908
▁seuil	-11909
▁smoke	-11910
▁vagin	-11911
▁écras	-11912
ciences	-11913
introdu	-11914
▁Allons	-11915
▁Joshua	-11916
▁Square	-11917
▁apparu	-11918
▁couper	-11919
▁décomp	-11920
▁fabule	-11921
▁gender	-11922
▁immune	-11923
▁repeat	-11924
▁soyons	-11925
▁tunnel	-11926
▁airport	-11927
▁baleine	-11928
▁channel	-11929
▁dignity	-11930
▁entered	-11931
▁générer	-11932
▁portion	-11933
▁routine	-11934
▁touched	-11935
▁drinking	-11936
▁enseigne	-11937
▁organisé	-11938
▁properly	-11939
▁provided	-11940
▁rapports	-11941
▁retrouvé	-11942
▁réfléchi	-11943
▁réserves	-11944
▁thérapie	-11945
▁transmet	-11946
▁vivaient	-11947
exposition	-11948
▁conserver	-11949
▁musiciens	-11950
▁precisely	-11951
▁supporter	-11952
▁supérieur	-11953
▁connexions	-11954
▁enregistré	-11955
▁partageons	-11956
▁underwater	-11957
▁distinction	-11958
▁heureusement	-11959
▁réfléchissez	-11960
▁contrairement	-11961
He	-11962
vo	-11963
Éc	-11964
Wow	-11965
eda	-11966
ems	-11967
mée	-11968
obi	-11969
raw	-11970
ulg	-11971
vin	-11972
▁fu	-11973
fall	-11974
nons	-11975
olas	-11976
▁ain	-11977
▁mit	-11978
Union	-11979
while	-11980
▁Bosn	-11981
▁Rick	-11982
▁Zero	-11983
▁lung	-11984
▁siff	-11985
ouvoir	-11986
rières	-11987
sembly	-11988
émisph	-11989
▁Henry	-11990
▁alien	-11991
▁joint	-11992
▁lions	-11993
▁liées	-11994
▁métro	-11995
▁opens	-11996
▁outre	-11997
▁placé	-11998
▁prime	-11999
▁scary	-12000
▁teams	-12001
▁voies	-12002
▁wings	-12003
atrices	-12004
royable	-12005
▁50,000	-12006
▁Steven	-12007
▁affirm	-12008
▁behave	-12009
▁boucle	-12010
▁créant	-12011
▁diable	-12012
▁déprim	-12013
▁facial	-12014
▁feront	-12015
▁fibres	-12016
▁format	-12017
▁frozen	-12018
▁jouets	-12019
▁mascul	-12020
▁saisir	-12021
▁échoué	-12022
▁College	-12023
▁Nothing	-12024
▁attirer	-12025
▁baisser	-12026
▁bicycle	-12027
▁caméras	-12028
▁consume	-12029
▁disgust	-12030
▁formule	-12031
▁fournit	-12032
▁marques	-12033
▁parlais	-12034
▁barrière	-12035
▁commande	-12036
▁dynamics	-12037
▁opinions	-12038
▁profiter	-12039
▁périodes	-12040
▁respirer	-12041
▁ressenti	-12042
▁réunions	-12043
▁transmit	-12044
▁troubles	-12045
Angleterre	-12046
▁arguments	-12047
▁chocolate	-12048
▁obsession	-12049
▁symptômes	-12050
▁apparaître	-12051
▁cardiaques	-12052
▁healthcare	-12053
▁numériques	-12054
▁ordinaires	-12055
▁laboratoires	-12056
▁observations	-12057
▁perspectives	-12058
BC	-12059
igr	-12060
lli	-12061
oen	-12062
▁72	-12063
▁NG	-12064
▁Os	-12065
▁Up	-12066
etes	-12067
hour	-12068
itée	-12069
roll	-12070
uine	-12071
▁50,	-12072
▁Nic	-12073
▁Rad	-12074
▁Tel	-12075
▁Tok	-12076
▁adh	-12077
▁bug	-12078
omper	-12079
quête	-12080
▁Doug	-12081
▁Milo	-12082
▁Next	-12083
▁chip	-12084
▁dish	-12085
▁fulf	-12086
▁gris	-12087
▁liné	-12088
▁mall	-12089
▁neat	-12090
▁rail	-12091
▁émet	-12092
accept	-12093
apping	-12094
entraî	-12095
entrer	-12096
▁Aucun	-12097
▁Louis	-12098
▁Venez	-12099
▁Vidéo	-12100
▁casse	-12101
▁démén	-12102
▁fluid	-12103
▁forts	-12104
▁modél	-12105
▁sacré	-12106
▁spots	-12107
▁tapis	-12108
atoires	-12109
iscover	-12110
▁Andrew	-12111
▁Really	-12112
▁Singap	-12113
▁Sylvia	-12114
▁chaise	-12115
▁divide	-12116
▁décoll	-12117
▁dégâts	-12118
▁latest	-12119
▁lifest	-12120
▁oiseau	-12121
▁orbite	-12122
▁précip	-12123
▁silenc	-12124
▁writer	-12125
abilités	-12126
▁courbes	-12127
▁curieux	-12128
▁diverse	-12129
▁faciles	-12130
▁indique	-12131
▁locales	-12132
▁mettant	-12133
▁offered	-12134
▁pushing	-12135
intention	-12136
▁Atlantic	-12137
▁McDonald	-12138
▁apparaît	-12139
▁capteurs	-12140
▁diverses	-12141
▁facility	-12142
▁interrog	-12143
▁japonais	-12144
▁particle	-12145
▁preserve	-12146
▁présents	-12147
▁qualités	-12148
▁ralentir	-12149
▁téléphon	-12150
étiquement	-12151
▁calculate	-12152
▁construct	-12153
▁corporate	-12154
▁financier	-12155
▁providing	-12156
▁précision	-12157
▁précédent	-12158
▁recording	-12159
▁ressource	-12160
▁department	-12161
▁poursuivre	-12162
▁recognized	-12163
▁supermarch	-12164
▁événements	-12165
augmentation	-12166
▁interacting	-12167
▁transporter	-12168
▁apparaissent	-12169
▁traditionnel	-12170
▁caractéristique	-12171
ja	-12172
bar	-12173
pan	-12174
uum	-12175
▁$1	-12176
agen	-12177
anou	-12178
asha	-12179
avis	-12180
ende	-12181
ords	-12182
vier	-12183
▁9/1	-12184
▁Den	-12185
▁jan	-12186
▁née	-12187
▁rur	-12188
▁île	-12189
Homme	-12190
accél	-12191
arbre	-12192
iders	-12193
oenix	-12194
ordon	-12195
sters	-12196
urban	-12197
▁1970	-12198
▁Pole	-12199
▁Wolf	-12200
▁axis	-12201
▁bous	-12202
▁clos	-12203
▁glam	-12204
▁infr	-12205
▁liée	-12206
▁puce	-12207
▁pupp	-12208
▁quar	-12209
Americ	-12210
emploi	-12211
phants	-12212
primer	-12213
▁Corée	-12214
▁Tokyo	-12215
▁allem	-12216
▁angry	-12217
▁coinc	-12218
▁dîner	-12219
▁formé	-12220
▁hemis	-12221
▁poitr	-12222
▁proph	-12223
▁quête	-12224
▁rares	-12225
▁relat	-12226
▁repro	-12227
▁sheep	-12228
▁upset	-12229
appeler	-12230
forward	-12231
étaires	-12232
▁Before	-12233
▁Daniel	-12234
▁Kosovo	-12235
▁blague	-12236
▁bombes	-12237
▁campus	-12238
▁excuse	-12239
▁galler	-12240
▁oeuvre	-12241
▁plenty	-12242
▁thrown	-12243
▁tombée	-12244
▁tribus	-12245
▁January	-12246
▁Stephen	-12247
▁borders	-12248
▁charity	-12249
▁comport	-12250
▁granted	-12251
▁passing	-12252
▁protest	-12253
▁racines	-12254
▁removed	-12255
▁retenir	-12256
▁tragedy	-12257
▁assemble	-12258
▁bureaucr	-12259
▁concours	-12260
▁extraire	-12261
▁maintain	-12262
▁musulman	-12263
▁overcome	-12264
▁romantic	-12265
▁théories	-12266
▁aimerions	-12267
▁backwards	-12268
▁combattre	-12269
▁connectés	-12270
▁extérieur	-12271
▁télécharg	-12272
▁virtually	-12273
▁ingredients	-12274
▁travaillais	-12275
▁productivité	-12276
▁terriblement	-12277
▁signification	-12278
▁professionnels	-12279
▁technologiques	-12280
▁infrastructures	-12281
.»	-12282
jo	-12283
▁x	-12284
asm	-12285
lée	-12286
nik	-12287
oue	-12288
ups	-12289
▁37	-12290
▁Ir	-12291
▁gâ	-12292
abes	-12293
alem	-12294
aver	-12295
iday	-12296
illy	-12297
keep	-12298
osen	-12299
phal	-12300
ping	-12301
éfin	-12302
érés	-12303
▁30,	-12304
▁Aug	-12305
▁Sea	-12306
▁tuy	-12307
ineux	-12308
unité	-12309
uther	-12310
▁Jane	-12311
▁SETI	-12312
▁avan	-12313
▁bass	-12314
▁clar	-12315
▁exéc	-12316
▁inch	-12317
estine	-12318
inoise	-12319
ipping	-12320
▁Pitts	-12321
▁alarm	-12322
▁ambit	-12323
▁anecd	-12324
▁aside	-12325
▁dossi	-12326
▁fermé	-12327
▁manqu	-12328
▁prête	-12329
▁rocks	-12330
▁sauvé	-12331
▁végét	-12332
▁évent	-12333
istoire	-12334
ouiller	-12335
▁Chacun	-12336
▁camion	-12337
▁carrés	-12338
▁dépass	-12339
▁elimin	-12340
▁facult	-12341
▁heaven	-12342
▁heroes	-12343
▁layers	-12344
▁oldest	-12345
▁passez	-12346
▁renfor	-12347
▁rescue	-12348
▁ultime	-12349
identité	-12350
riptions	-12351
▁Chinois	-12352
▁exposed	-12353
▁fulfill	-12354
▁neither	-12355
▁painful	-12356
▁précise	-12357
▁rebuild	-12358
▁reviend	-12359
▁savings	-12360
▁segment	-12361
▁servent	-12362
▁superbe	-12363
▁voyages	-12364
▁Nouvelle	-12365
▁baseball	-12366
▁chinoise	-12367
▁contains	-12368
▁estimate	-12369
▁involves	-12370
▁moustiqu	-12371
▁produces	-12372
▁sanguins	-12373
▁secteurs	-12374
▁croyances	-12375
▁dedicated	-12376
▁emergency	-12377
▁extension	-12378
▁printemps	-12379
▁élections	-12380
▁catégories	-12381
▁construite	-12382
▁contribuer	-12383
▁governance	-12384
▁interviews	-12385
▁mammifères	-12386
▁programmer	-12387
▁unexpected	-12388
informatique	-12389
▁algorithmes	-12390
▁britannique	-12391
▁construisent	-12392
▁performances	-12393
▁propriétaire	-12394
▁radicalement	-12395
▁environnements	-12396
IA	-12397
aze	-12398
toi	-12399
épr	-12400
▁Ap	-12401
enew	-12402
thur	-12403
▁185	-12404
▁Mas	-12405
▁Sin	-12406
▁Som	-12407
▁gad	-12408
aucun	-12409
maker	-12410
rimin	-12411
▁Ital	-12412
▁Mons	-12413
▁Wind	-12414
▁ages	-12415
▁dive	-12416
▁dust	-12417
▁horr	-12418
▁jail	-12419
▁lift	-12420
▁palm	-12421
images	-12422
infect	-12423
▁Kevin	-12424
▁align	-12425
▁avéré	-12426
▁exped	-12427
▁fiber	-12428
▁freez	-12429
▁géant	-12430
▁likes	-12431
▁ratio	-12432
▁scann	-12433
▁singe	-12434
▁tired	-12435
▁utter	-12436
▁whist	-12437
anderth	-12438
èvement	-12439
▁Saturn	-12440
▁ajouté	-12441
▁clinic	-12442
▁condam	-12443
▁copies	-12444
▁défaut	-12445
▁escape	-12446
▁fluctu	-12447
▁frappe	-12448
▁frappé	-12449
▁puisqu	-12450
▁rendue	-12451
▁réunir	-12452
▁titres	-12453
▁trends	-12454
▁Abraham	-12455
▁William	-12456
▁analyse	-12457
▁comparé	-12458
▁couvert	-12459
▁déroule	-12460
▁illegal	-12461
▁imaginé	-12462
▁publish	-12463
▁pulling	-12464
▁renvers	-12465
▁virtuel	-12466
▁vivante	-12467
▁attached	-12468
▁biotechn	-12469
▁conclude	-12470
▁conseils	-12471
▁darkness	-12472
▁division	-12473
▁ennuyeux	-12474
▁fauteuil	-12475
▁fragment	-12476
▁northern	-12477
▁organize	-12478
▁poitrine	-12479
▁rarement	-12480
▁recovery	-12481
▁shopping	-12482
▁substant	-12483
▁textbook	-12484
▁Regardons	-12485
▁continues	-12486
▁curiosity	-12487
▁infection	-12488
▁inspiring	-12489
▁magazines	-12490
▁mutations	-12491
▁sensibles	-12492
▁souvenirs	-12493
▁commission	-12494
▁sculptures	-12495
▁demonstrate	-12496
▁frustration	-12497
▁grandfather	-12498
▁probability	-12499
▁recognition	-12500
▁secondaires	-12501
▁échantillon	-12502
▁Heureusement	-12503
▁agricultural	-12504
▁coordination	-12505
▁psychological	-12506
▁sustainability	-12507
.]	-12508
MA	-12509
ba	-12510
mo	-12511
asy	-12512
obt	-12513
▁WK	-12514
▁cô	-12515
▁gh	-12516
▁ho	-12517
▁kg	-12518
asso	-12519
aïti	-12520
esus	-12521
icks	-12522
inse	-12523
inés	-12524
ione	-12525
onds	-12526
tems	-12527
▁Dès	-12528
▁Ken	-12529
▁Luc	-12530
▁Rec	-12531
▁Ron	-12532
▁Ven	-12533
▁apt	-12534
▁eld	-12535
▁meu	-12536
Ouest	-12537
endez	-12538
erais	-12539
esome	-12540
liers	-12541
marin	-12542
ribly	-12543
urger	-12544
▁Gard	-12545
▁bang	-12546
▁blah	-12547
▁hire	-12548
▁joli	-12549
▁lève	-12550
▁rely	-12551
▁rush	-12552
▁souc	-12553
▁sque	-12554
▁tenu	-12555
▁traî	-12556
▁ugly	-12557
▁́est	-12558
ifiant	-12559
ighted	-12560
merger	-12561
upiter	-12562
▁Monde	-12563
▁Namib	-12564
▁Ocean	-12565
▁abund	-12566
▁aimez	-12567
▁bière	-12568
▁corré	-12569
▁demie	-12570
▁décès	-12571
▁flour	-12572
▁gorge	-12573
▁gotta	-12574
▁intro	-12575
▁invis	-12576
▁knock	-12577
▁modes	-12578
▁proof	-12579
▁relie	-12580
▁sheet	-12581
▁spagh	-12582
▁stere	-12583
▁tears	-12584
▁ultra	-12585
obésité	-12586
▁anatom	-12587
▁assure	-12588
▁chosen	-12589
▁emphas	-12590
▁emprun	-12591
▁incons	-12592
▁insist	-12593
▁landed	-12594
▁privée	-12595
▁temple	-12596
▁ticket	-12597
▁troupe	-12598
▁worker	-12599
▁Charlie	-12600
▁astéroï	-12601
▁briefly	-12602
▁fantôme	-12603
▁herself	-12604
▁housing	-12605
▁remplir	-12606
▁récente	-12607
▁soigner	-12608
▁vaccins	-12609
▁équipes	-12610
▁accueill	-12611
▁arrivait	-12612
▁arrivons	-12613
▁artistic	-12614
▁collègue	-12615
▁district	-12616
▁fenêtres	-12617
▁imagined	-12618
▁outcomes	-12619
▁totalité	-12620
▁traveled	-12621
ifiquement	-12622
▁algorithm	-12623
▁catégorie	-12624
▁demandais	-12625
▁elsewhere	-12626
▁musulmans	-12627
▁possèdent	-12628
▁publiques	-12629
▁reduction	-12630
▁earthquake	-12631
▁greenhouse	-12632
▁naturelles	-12633
▁resolution	-12634
▁ingrédients	-12635
▁maintenance	-12636
▁moléculaire	-12637
▁personality	-12638
▁récompenses	-12639
▁alternatives	-12640
▁démocratique	-12641
▁émotionnelle	-12642
▁constructions	-12643
▁significative	-12644
▁hallucinations	-12645
Or	-12646
▁&	-12647
Let	-12648
Mon	-12649
ady	-12650
any	-12651
bum	-12652
dis	-12653
inn	-12654
ita	-12655
llo	-12656
vol	-12657
▁4,	-12658
▁BM	-12659
▁ra	-12660
Cola	-12661
obsc	-12662
onia	-12663
uish	-12664
ître	-12665
▁Jay	-12666
▁Joe	-12667
▁Pap	-12668
▁aer	-12669
▁gut	-12670
▁vus	-12671
acier	-12672
class	-12673
ernal	-12674
glise	-12675
hanol	-12676
think	-12677
èvres	-12678
▁Girl	-12679
▁Lang	-12680
▁Leon	-12681
▁Prés	-12682
▁Sout	-12683
▁Sund	-12684
▁Vict	-12685
▁arme	-12686
▁cash	-12687
▁cray	-12688
▁guid	-12689
▁mâle	-12690
▁stun	-12691
▁étro	-12692
onfort	-12693
option	-12694
phabet	-12695
çaient	-12696
▁Craig	-12697
▁calme	-12698
▁chief	-12699
▁drove	-12700
▁idiot	-12701
▁nager	-12702
▁neutr	-12703
▁pires	-12704
▁poste	-12705
▁realm	-12706
▁revue	-12707
▁tasks	-12708
▁tight	-12709
▁verts	-12710
cepteur	-12711
cession	-12712
égalité	-12713
▁Econom	-12714
▁Minist	-12715
▁actors	-12716
▁cataly	-12717
▁chaude	-12718
▁crying	-12719
▁envoie	-12720
▁froide	-12721
▁inclus	-12722
▁parven	-12723
▁protoc	-12724
▁réagir	-12725
▁scales	-12726
▁signed	-12727
▁surely	-12728
▁vacuum	-12729
attendre	-12730
exprimer	-12731
▁Jupiter	-12732
▁Montana	-12733
▁couvrir	-12734
▁forests	-12735
▁gagnent	-12736
▁happier	-12737
▁monitor	-12738
▁négatif	-12739
▁raconté	-12740
▁robotic	-12741
▁Brooklyn	-12742
▁Mesdames	-12743
▁comparer	-12744
▁contamin	-12745
▁céréales	-12746
▁dinosaur	-12747
▁external	-12748
▁fabrique	-12749
▁includes	-12750
▁parvenir	-12751
▁paysages	-12752
▁pregnant	-12753
▁shooting	-12754
▁tableaux	-12755
▁treating	-12756
▁évidence	-12757
▁anciennes	-12758
▁curiosité	-12759
▁depressed	-12760
▁effrayant	-12761
▁illusions	-12762
▁nécessite	-12763
▁paradigme	-12764
▁tentative	-12765
▁Angleterre	-12766
▁adolescent	-12767
▁culturelle	-12768
▁développés	-12769
▁functional	-12770
▁tranquille	-12771
▁écologique	-12772
▁équipement	-12773
▁comparaison	-12774
▁consequence	-12775
▁considérons	-12776
▁disposition	-12777
▁predictions	-12778
▁transparence	-12779
▁intelligentes	-12780
▁supplémentaire	-12781
▁Ê	-12782
atr	-12783
dig	-12784
hal	-12785
ura	-12786
wel	-12787
▁0,	-12788
▁AI	-12789
▁BJ	-12790
▁Lu	-12791
chée	-12792
four	-12793
gant	-12794
iées	-12795
wart	-12796
zler	-12797
▁Fer	-12798
▁Jac	-12799
▁ack	-12800
▁enh	-12801
▁oct	-12802
▁pix	-12803
▁riz	-12804
▁unh	-12805
ablir	-12806
antic	-12807
ormal	-12808
overn	-12809
worth	-12810
éparg	-12811
▁Brun	-12812
▁Fran	-12813
▁aimé	-12814
▁east	-12815
▁indu	-12816
▁mice	-12817
▁pare	-12818
▁peer	-12819
▁scar	-12820
▁sois	-12821
▁sûrs	-12822
amener	-12823
erland	-12824
otique	-12825
▁2006,	-12826
▁Italy	-12827
▁Jesus	-12828
▁River	-12829
▁Tibet	-12830
▁aesth	-12831
▁cesse	-12832
▁cliff	-12833
▁diapo	-12834
▁drawn	-12835
▁dépla	-12836
▁jelly	-12837
▁nôtre	-12838
▁piste	-12839
▁prosp	-12840
▁sonne	-12841
▁spray	-12842
▁voila	-12843
▁walks	-12844
▁wound	-12845
usiness	-12846
▁basket	-12847
▁calend	-12848
▁célébr	-12849
▁diront	-12850
▁emerge	-12851
▁hungry	-12852
▁inches	-12853
▁locked	-12854
▁nuages	-12855
▁portes	-12856
▁poussé	-12857
▁rentré	-12858
▁sensor	-12859
▁stages	-12860
▁suffer	-12861
▁Quelles	-12862
▁Teszler	-12863
▁aborder	-12864
▁affecte	-12865
▁allions	-12866
▁prenant	-12867
▁recycle	-12868
▁sembler	-12869
▁sensory	-12870
▁trigger	-12871
▁Children	-12872
▁Ethiopia	-12873
▁autonome	-12874
▁concrete	-12875
▁controls	-12876
▁crossing	-12877
▁examiner	-12878
▁gigantes	-12879
▁guarante	-12880
▁musicale	-12881
▁mystérie	-12882
▁parasite	-12883
▁provoque	-12884
▁reaching	-12885
▁restrict	-12886
▁symboles	-12887
▁vaisseau	-12888
▁variable	-12889
▁Parkinson	-12890
▁colleague	-12891
▁confident	-12892
▁conflicts	-12893
▁demandant	-12894
▁encounter	-12895
▁essentiel	-12896
▁kilomètre	-12897
▁magnitude	-12898
▁organiser	-12899
▁privilege	-12900
▁provoquer	-12901
▁remercier	-12902
▁Pittsburgh	-12903
▁boundaries	-12904
▁connectome	-12905
▁continuent	-12906
▁integrated	-12907
▁intéressés	-12908
▁minuscules	-12909
▁volunteers	-12910
▁essentielle	-12911
▁occidentale	-12912
▁photography	-12913
▁spécifiques	-12914
▁utilisation	-12915
▁photographed	-12916
administration	-12917
infrastructure	-12918
▁contradiction	-12919
▁interventions	-12920
▁vulnérabilité	-12921
▁characteristics	-12922
Hé	-12923
Re	-12924
bru	-12925
▁Bh	-12926
▁Ré	-12927
▁Us	-12928
Irak	-12929
Iran	-12930
acts	-12931
fond	-12932
inos	-12933
mous	-12934
oret	-12935
zing	-12936
édia	-12937
érez	-12938
▁Bud	-12939
▁Cin	-12940
▁Dal	-12941
▁Mer	-12942
▁Mos	-12943
▁ONG	-12944
▁ere	-12945
▁féd	-12946
▁mén	-12947
▁sed	-12948
There	-12949
ennis	-12950
enter	-12951
epend	-12952
icies	-12953
ierra	-12954
imité	-12955
onnés	-12956
produ	-12957
âteau	-12958
▁Beck	-12959
▁Dick	-12960
▁Jill	-12961
▁Mumb	-12962
▁News	-12963
▁beer	-12964
▁dies	-12965
▁débr	-12966
▁fame	-12967
▁fest	-12968
▁flip	-12969
▁glad	-12970
▁mate	-12971
▁pèse	-12972
▁tuna	-12973
▁voca	-12974
▁vole	-12975
anding	-12976
aspect	-12977
obiles	-12978
orment	-12979
ptions	-12980
usalem	-12981
▁Homme	-12982
▁Third	-12983
▁Voice	-12984
▁affir	-12985
▁ailes	-12986
▁apple	-12987
▁arabe	-12988
▁bucks	-12989
▁carre	-12990
▁corbe	-12991
▁crist	-12992
▁crops	-12993
▁crâne	-12994
▁céléb	-12995
▁fifth	-12996
▁judge	-12997
▁ondes	-12998
▁plays	-12999
▁roman	-13000
affaire	-13001
clavage	-13002
▁Faites	-13003
▁Joseph	-13004
▁borrow	-13005
▁colony	-13006
▁effond	-13007
▁hearts	-13008
▁mainly	-13009
▁manuel	-13010
▁paquet	-13011
▁scores	-13012
▁shrimp	-13013
▁urbain	-13014
▁vivait	-13015
ènements	-13016
▁Atlanta	-13017
▁Kennedy	-13018
▁Phoenix	-13019
▁associé	-13020
▁circles	-13021
▁compell	-13022
▁cousins	-13023
▁entoure	-13024
▁frapper	-13025
▁hostile	-13026
▁oublier	-13027
▁picking	-13028
▁potable	-13029
▁regener	-13030
▁réalise	-13031
obscurité	-13032
▁Northern	-13033
▁Occident	-13034
▁attaques	-13035
▁créatifs	-13036
▁diabetes	-13037
▁engaging	-13038
▁official	-13039
▁policies	-13040
▁proposer	-13041
▁synthèse	-13042
▁triangle	-13043
▁appliquer	-13044
▁bénéfices	-13045
▁dependent	-13046
▁intérieur	-13047
▁pratiques	-13048
▁quartiers	-13049
▁rejoindre	-13050
▁separated	-13051
▁collecting	-13052
▁compliquée	-13053
▁extinction	-13054
▁financiers	-13055
▁sophistiqu	-13056
▁travaillez	-13057
▁underlying	-13058
alimentation	-13059
▁diapositive	-13060
▁indépendant	-13061
▁prisonniers	-13062
▁represented	-13063
▁agriculteurs	-13064
▁satisfaction	-13065
▁universities	-13066
▁informatiques	-13067
▁intellectuelle	-13068
"?	-13069
-2	-13070
auf	-13071
oma	-13072
rof	-13073
▁AM	-13074
▁hé	-13075
alks	-13076
arts	-13077
oran	-13078
town	-13079
èvre	-13080
▁10-	-13081
▁Amy	-13082
▁Fem	-13083
▁Res	-13084
▁SMS	-13085
▁Sah	-13086
▁Tre	-13087
▁eut	-13088
▁hat	-13089
▁ink	-13090
▁nid	-13091
▁nés	-13092
▁pne	-13093
▁péd	-13094
▁éte	-13095
ademy	-13096
apers	-13097
chose	-13098
esity	-13099
ipped	-13100
odeur	-13101
ommer	-13102
yclop	-13103
▁Conf	-13104
▁Move	-13105
▁cage	-13106
▁empê	-13107
▁sole	-13108
▁sond	-13109
aiment	-13110
bercul	-13111
othing	-13112
uganda	-13113
▁Donne	-13114
▁Media	-13115
▁Trade	-13116
▁actor	-13117
▁cryst	-13118
▁diplô	-13119
▁disag	-13120
▁drill	-13121
▁inhab	-13122
▁mémor	-13123
▁mérit	-13124
▁naked	-13125
▁renew	-13126
▁simul	-13127
▁usual	-13128
▁yield	-13129
▁yours	-13130
artiste	-13131
itative	-13132
émotion	-13133
▁Johnny	-13134
▁Mumbai	-13135
▁breaks	-13136
▁cacher	-13137
▁détach	-13138
▁excité	-13139
▁fourmi	-13140
▁genius	-13141
▁grille	-13142
▁hardly	-13143
▁métier	-13144
▁plaque	-13145
▁pommes	-13146
▁recept	-13147
▁repose	-13148
▁sacred	-13149
▁stores	-13150
▁thresh	-13151
▁trafic	-13152
▁vagues	-13153
▁écouté	-13154
affaires	-13155
altitude	-13156
▁Natasha	-13157
▁October	-13158
▁absence	-13159
▁articul	-13160
▁avancée	-13161
▁conduct	-13162
▁defense	-13163
▁diabète	-13164
▁diminue	-13165
▁hanging	-13166
▁impress	-13167
▁methane	-13168
▁peuples	-13169
▁pierres	-13170
▁poumons	-13171
▁receive	-13172
▁recette	-13173
▁résumer	-13174
▁sachant	-13175
▁symbols	-13176
▁torture	-13177
▁troupes	-13178
▁éthique	-13179
ieusement	-13180
▁aventure	-13181
▁encyclop	-13182
▁fabulous	-13183
▁graphics	-13184
▁hormones	-13185
▁jeunesse	-13186
▁machiner	-13187
▁marchand	-13188
▁minister	-13189
▁pandemic	-13190
▁sauvages	-13191
▁traversé	-13192
▁vacances	-13193
▁accomplir	-13194
▁glamorous	-13195
▁musicians	-13196
▁organique	-13197
▁partagent	-13198
▁percevoir	-13199
▁teenagers	-13200
▁terrestre	-13201
▁mécanismes	-13202
▁improvement	-13203
▁breakthrough	-13204
▁reconstruire	-13205
▁soudainement	-13206
▁globalization	-13207
gi	-13208
rix	-13209
see	-13210
▁eB	-13211
acée	-13212
half	-13213
illa	-13214
neur	-13215
oids	-13216
oter	-13217
reur	-13218
zero	-13219
èner	-13220
▁130	-13221
▁Bet	-13222
▁Det	-13223
▁Off	-13224
▁PDG	-13225
▁Vol	-13226
▁cra	-13227
▁pel	-13228
▁tut	-13229
accum	-13230
grade	-13231
keley	-13232
owing	-13233
▁Ardu	-13234
▁Beij	-13235
▁Bern	-13236
▁Dire	-13237
▁Eric	-13238
▁Pays	-13239
▁clés	-13240
▁couv	-13241
▁cute	-13242
▁evol	-13243
▁jung	-13244
▁leap	-13245
▁pigs	-13246
▁recr	-13247
▁reef	-13248
▁refr	-13249
▁stig	-13250
▁tone	-13251
▁volé	-13252
▁whis	-13253
▁wise	-13254
acteur	-13255
expert	-13256
nation	-13257
éviter	-13258
▁2000.	-13259
▁Lewis	-13260
▁Selon	-13261
▁Water	-13262
▁advoc	-13263
▁assur	-13264
▁banqu	-13265
▁bonus	-13266
▁codes	-13267
▁edges	-13268
▁femin	-13269
▁folle	-13270
▁fuels	-13271
▁incar	-13272
▁phant	-13273
▁pompe	-13274
▁pénét	-13275
▁regul	-13276
▁spill	-13277
▁têtes	-13278
▁units	-13279
▁unité	-13280
▁vivez	-13281
chement	-13282
ustriel	-13283
▁August	-13284
▁Global	-13285
▁Victor	-13286
▁angles	-13287
▁bulles	-13288
▁conçus	-13289
▁drogue	-13290
▁découp	-13291
▁endomm	-13292
▁ethnic	-13293
▁fortes	-13294
▁golden	-13295
▁libres	-13296
▁nurses	-13297
▁powers	-13298
▁résumé	-13299
▁shaped	-13300
▁signes	-13301
▁struck	-13302
▁trompe	-13303
▁usines	-13304
▁voyait	-13305
aticiens	-13306
enseigne	-13307
iliation	-13308
▁Taliban	-13309
▁amongst	-13310
▁beliefs	-13311
▁budgets	-13312
▁croyais	-13313
▁diviser	-13314
▁dépensé	-13315
▁enlever	-13316
▁letting	-13317
▁methods	-13318
▁municip	-13319
▁ouverts	-13320
▁proposé	-13321
▁scratch	-13322
▁wheelch	-13323
▁whereas	-13324
▁writers	-13325
▁établir	-13326
influence	-13327
épendance	-13328
▁Berkeley	-13329
▁Somebody	-13330
▁décharge	-13331
▁dépenses	-13332
▁entendez	-13333
▁extended	-13334
▁memories	-13335
▁passions	-13336
▁sleeping	-13337
▁tragédie	-13338
▁étranges	-13339
▁apartment	-13340
▁attendant	-13341
▁attendent	-13342
▁consensus	-13343
▁démontrer	-13344
▁frequency	-13345
▁generated	-13346
▁gentleman	-13347
▁insurance	-13348
▁physicist	-13349
▁predicted	-13350
▁qualities	-13351
▁robotique	-13352
interaction	-13353
▁Department	-13354
▁apparently	-13355
▁capability	-13356
▁comparable	-13357
▁développée	-13358
▁fascinated	-13359
▁interfaces	-13360
▁inventions	-13361
▁resilience	-13362
▁ridiculous	-13363
▁signifiait	-13364
▁astonishing	-13365
▁disciplines	-13366
▁electronics	-13367
▁grandissent	-13368
ju	-13369
tt	-13370
lla	-13371
mph	-13372
ova	-13373
▁48	-13374
▁Po	-13375
▁cm	-13376
▁ub	-13377
aska	-13378
chés	-13379
emen	-13380
izon	-13381
ogan	-13382
rale	-13383
unis	-13384
wind	-13385
▁180	-13386
▁DAR	-13387
▁Rép	-13388
▁Way	-13389
▁alc	-13390
▁fir	-13391
▁lex	-13392
▁pit	-13393
ading	-13394
graph	-13395
illée	-13396
inger	-13397
isser	-13398
▁Carl	-13399
▁Give	-13400
▁Same	-13401
▁Voix	-13402
▁bain	-13403
▁beet	-13404
▁bind	-13405
▁cott	-13406
▁curr	-13407
▁earn	-13408
▁pink	-13409
▁plaf	-13410
▁porn	-13411
▁répl	-13412
▁sacs	-13413
ancien	-13414
asions	-13415
imalay	-13416
▁Phili	-13417
▁ceint	-13418
▁chrét	-13419
▁cruel	-13420
▁idéal	-13421
▁léger	-13422
▁plier	-13423
▁pères	-13424
▁skept	-13425
▁téléc	-13426
▁wired	-13427
absence	-13428
ulsions	-13429
érateur	-13430
érieurs	-13431
▁Arctic	-13432
▁Columb	-13433
▁Quatre	-13434
▁Scient	-13435
▁buried	-13436
▁câbles	-13437
▁enrich	-13438
▁farmer	-13439
▁faudra	-13440
▁fermer	-13441
▁immers	-13442
▁improb	-13443
▁larmes	-13444
▁linear	-13445
▁mentor	-13446
▁neural	-13447
▁paraît	-13448
▁perdez	-13449
▁procès	-13450
▁pushed	-13451
▁sièges	-13452
▁tribes	-13453
▁weapon	-13454
aughters	-13455
iculture	-13456
itations	-13457
▁disturb	-13458
▁malades	-13459
▁notions	-13460
▁obesity	-13461
▁partagé	-13462
▁primord	-13463
▁raising	-13464
▁reports	-13465
▁salaire	-13466
▁tournée	-13467
▁variété	-13468
▁échange	-13469
espérance	-13470
▁admettre	-13471
▁breaking	-13472
▁brillant	-13473
▁diminuer	-13474
▁docteurs	-13475
▁essaient	-13476
▁focusing	-13477
▁matières	-13478
▁obstacle	-13479
▁paraître	-13480
▁repeated	-13481
▁évidente	-13482
▁Alexander	-13483
▁Allemagne	-13484
▁consommer	-13485
▁customers	-13486
▁détection	-13487
▁expertise	-13488
▁hypothèse	-13489
▁impliqués	-13490
▁portraits	-13491
▁privilège	-13492
▁spaghetti	-13493
▁synthetic	-13494
▁explaining	-13495
▁journalist	-13496
▁optimistic	-13497
▁secondaire	-13498
▁strategies	-13499
▁supérieure	-13500
▁concepteurs	-13501
▁conclusions	-13502
▁discoveries	-13503
▁spectacular	-13504
▁underground	-13505
▁universités	-13506
▁catastrophes	-13507
▁contemporary	-13508
▁journalistes	-13509
▁unbelievable	-13510
▁mondialisation	-13511
ît	-13512
Art	-13513
enz	-13514
▁Ye	-13515
▁bâ	-13516
▁ya	-13517
bage	-13518
enth	-13519
esia	-13520
izab	-13521
rans	-13522
rick	-13523
road	-13524
ship	-13525
▁'70	-13526
▁Isn	-13527
▁Pop	-13528
▁Put	-13529
▁asc	-13530
▁lou	-13531
▁pli	-13532
▁tig	-13533
assez	-13534
ittle	-13535
usine	-13536
▁Play	-13537
▁meal	-13538
▁mett	-13539
▁sage	-13540
▁thon	-13541
▁témo	-13542
adoles	-13543
envers	-13544
idérez	-13545
illent	-13546
illons	-13547
ouvant	-13548
▁1990,	-13549
▁Harry	-13550
▁Peace	-13551
▁Yemen	-13552
▁bleus	-13553
▁chame	-13554
▁fibre	-13555
▁finds	-13556
▁gonna	-13557
▁holds	-13558
▁jurid	-13559
▁legis	-13560
▁marin	-13561
▁memor	-13562
▁mixed	-13563
▁peurs	-13564
▁reson	-13565
▁shell	-13566
▁soeur	-13567
▁symph	-13568
▁threw	-13569
▁thumb	-13570
▁viral	-13571
▁élève	-13572
mençons	-13573
oreille	-13574
unction	-13575
viously	-13576
échange	-13577
▁30,000	-13578
▁Banque	-13579
▁Canyon	-13580
▁Europé	-13581
▁Sierra	-13582
▁acknow	-13583
▁ambigu	-13584
▁boîtes	-13585
▁cheese	-13586
▁contag	-13587
▁déform	-13588
▁formal	-13589
▁funded	-13590
▁lutter	-13591
▁missed	-13592
▁mélang	-13593
▁shadow	-13594
▁vallée	-13595
children	-13596
endroits	-13597
essayais	-13598
individu	-13599
▁accéder	-13600
▁cercles	-13601
▁cheaper	-13602
▁dioxyde	-13603
▁emerged	-13604
▁entrent	-13605
▁mobiles	-13606
▁méthane	-13607
▁prisons	-13608
▁préparé	-13609
▁tromper	-13610
▁typique	-13611
invention	-13612
orchestre	-13613
émisphère	-13614
▁banlieue	-13615
▁contents	-13616
▁cuisiner	-13617
▁devienne	-13618
▁domestic	-13619
▁elephant	-13620
▁enceinte	-13621
▁habitués	-13622
▁incorpor	-13623
▁laissent	-13624
▁leverage	-13625
▁marchait	-13626
▁mosquito	-13627
▁perceive	-13628
▁tangible	-13629
▁tiennent	-13630
▁tropical	-13631
▁étranger	-13632
orestation	-13633
▁airplanes	-13634
▁apprécier	-13635
▁barrières	-13636
▁elections	-13637
▁recommend	-13638
▁replicate	-13639
▁reprendre	-13640
▁souffrent	-13641
▁suffisant	-13642
▁surmonter	-13643
▁séquences	-13644
▁télescope	-13645
▁variables	-13646
▁cartograph	-13647
▁intentions	-13648
▁originally	-13649
▁plateforme	-13650
▁traduction	-13651
▁association	-13652
▁biologistes	-13653
▁cooperation	-13654
▁coopération	-13655
▁tremblement	-13656
▁biodiversité	-13657
▁fantastiques	-13658
RA	-13659
So	-13660
cko	-13661
cod	-13662
ipr	-13663
jac	-13664
▁46	-13665
▁SS	-13666
▁ov	-13667
aphe	-13668
ardi	-13669
ials	-13670
ilée	-13671
opie	-13672
ouff	-13673
quie	-13674
rand	-13675
rive	-13676
ulum	-13677
▁'80	-13678
▁900	-13679
▁CEO	-13680
▁Kle	-13681
▁Mot	-13682
▁Tar	-13683
▁Zip	-13684
▁cér	-13685
▁ham	-13686
aviez	-13687
gypte	-13688
illet	-13689
omics	-13690
ommun	-13691
ouler	-13692
outes	-13693
▁Aust	-13694
▁Youn	-13695
▁boun	-13696
▁dear	-13697
▁guit	-13698
▁lion	-13699
▁lith	-13700
▁mant	-13701
▁pond	-13702
▁pool	-13703
▁porc	-13704
▁rice	-13705
▁semi	-13706
▁toss	-13707
▁triv	-13708
apagos	-13709
resser	-13710
ytocin	-13711
▁2003,	-13712
▁Alpha	-13713
▁Beach	-13714
▁Dutch	-13715
▁Golfe	-13716
▁Hawai	-13717
▁Haïti	-13718
▁Sarah	-13719
▁bénév	-13720
▁chers	-13721
▁clips	-13722
▁conce	-13723
▁hauts	-13724
▁helic	-13725
▁inclu	-13726
▁males	-13727
▁mangé	-13728
▁quasi	-13729
▁roots	-13730
▁serai	-13731
▁taper	-13732
▁vieil	-13733
espèces	-13734
itables	-13735
working	-13736
▁Aucune	-13737
▁Jewish	-13738
▁Mother	-13739
▁adjust	-13740
▁arrang	-13741
▁arrête	-13742
▁bourse	-13743
▁danser	-13744
▁entrez	-13745
▁faveur	-13746
▁génére	-13747
▁intime	-13748
▁killer	-13749
▁millén	-13750
▁regime	-13751
▁régler	-13752
▁senior	-13753
▁served	-13754
▁subtle	-13755
▁témoin	-13756
▁écoute	-13757
Institut	-13758
empêcher	-13759
électron	-13760
étranger	-13761
▁Floride	-13762
▁Redwood	-13763
▁Whether	-13764
▁analyze	-13765
▁homosex	-13766
▁paradis	-13767
▁pleurer	-13768
▁ressens	-13769
▁soldier	-13770
▁Palestin	-13771
▁africain	-13772
▁climbing	-13773
▁glaciers	-13774
▁héritage	-13775
▁informed	-13776
▁membrane	-13777
▁mondiaux	-13778
▁scenario	-13779
▁scénario	-13780
▁southern	-13781
▁spatiale	-13782
▁theories	-13783
▁Galapagos	-13784
▁Jefferson	-13785
▁delivered	-13786
▁fragments	-13787
▁lifestyle	-13788
▁paralyzed	-13789
▁répondent	-13790
▁squelette	-13791
▁suivantes	-13792
▁telescope	-13793
▁évènement	-13794
▁Commençons	-13795
▁abandonner	-13796
▁biologists	-13797
▁determined	-13798
▁expectancy	-13799
▁financière	-13800
▁maternelle	-13801
▁prévention	-13802
▁constructed	-13803
▁translation	-13804
▁uncertainty	-13805
▁alimentaires	-13806
▁constitution	-13807
▁efficacement	-13808
▁experimental	-13809
▁personnelles	-13810
▁travaillaient	-13811
▁vulnerability	-13812
▁pharmaceutical	-13813
%,	-13814
bb	-13815
iP	-13816
aws	-13817
dre	-13818
law	-13819
pas	-13820
syl	-13821
uct	-13822
Etat	-13823
ayer	-13824
embl	-13825
obil	-13826
oper	-13827
oven	-13828
pile	-13829
rich	-13830
ueil	-13831
▁160	-13832
▁FDA	-13833
▁Had	-13834
▁Mel	-13835
▁Ret	-13836
▁ira	-13837
▁lan	-13838
▁sir	-13839
▁évo	-13840
aints	-13841
allez	-13842
arten	-13843
aterr	-13844
exerc	-13845
itous	-13846
èques	-13847
▁2005	-13848
▁Kell	-13849
▁Parl	-13850
▁anne	-13851
▁bron	-13852
▁cycl	-13853
▁dism	-13854
▁dung	-13855
▁eBay	-13856
▁fins	-13857
▁irre	-13858
▁roue	-13859
▁sits	-13860
▁subi	-13861
▁tied	-13862
▁égoï	-13863
ateful	-13864
effect	-13865
engine	-13866
ituels	-13867
lessly	-13868
objets	-13869
ocking	-13870
économ	-13871
▁Indus	-13872
▁absor	-13873
▁algae	-13874
▁avert	-13875
▁blank	-13876
▁embau	-13877
▁foods	-13878
▁memes	-13879
▁ouvre	-13880
▁pomme	-13881
▁recip	-13882
▁stops	-13883
▁stéré	-13884
▁tribe	-13885
▁uncom	-13886
▁youth	-13887
century	-13888
quettes	-13889
▁Afghan	-13890
▁Church	-13891
▁Should	-13892
▁Soviet	-13893
▁avancé	-13894
▁barely	-13895
▁bother	-13896
▁bullet	-13897
▁curric	-13898
▁decent	-13899
▁degrad	-13900
▁dormir	-13901
▁engagé	-13902
▁entrée	-13903
▁needle	-13904
▁normes	-13905
▁patron	-13906
▁silent	-13907
▁strang	-13908
▁stroke	-13909
▁vienne	-13910
▁élever	-13911
attaquer	-13912
autorité	-13913
culaires	-13914
inquiète	-13915
inventer	-13916
▁Arduino	-13917
▁Pennsyl	-13918
▁applaud	-13919
▁awesome	-13920
▁cascade	-13921
▁diplôme	-13922
▁entouré	-13923
▁entropy	-13924
▁examiné	-13925
▁fassent	-13926
▁involve	-13927
▁mammals	-13928
▁occuper	-13929
▁phantom	-13930
▁plafond	-13931
▁plongée	-13932
▁préfère	-13933
▁rejoint	-13934
▁sentais	-13935
▁sisters	-13936
▁synthes	-13937
▁tombent	-13938
▁visited	-13939
ependence	-13940
▁Minister	-13941
▁amateurs	-13942
▁analyser	-13943
▁archives	-13944
▁conduite	-13945
▁démontré	-13946
▁educated	-13947
▁globally	-13948
▁inventer	-13949
▁morality	-13950
▁pandémie	-13951
▁reported	-13952
▁daughters	-13953
▁forgotten	-13954
▁introduit	-13955
▁physicien	-13956
▁promotion	-13957
▁ressentez	-13958
▁universel	-13959
▁continuons	-13960
▁historical	-13961
▁magnétique	-13962
▁opposition	-13963
▁trajectory	-13964
▁volontaire	-13965
▁centimètres	-13966
▁connaissait	-13967
▁contiennent	-13968
▁exponential	-13969
▁genetically	-13970
▁limitations	-13971
▁publication	-13972
▁respiration	-13973
▁étonnamment	-13974
▁manipulation	-13975
▁remarquables	-13976
▁successfully	-13977
St	-13978
cr	-13979
oz	-13980
Who	-13981
eds	-13982
ilé	-13983
loc	-13984
oce	-13985
wan	-13986
▁31	-13987
▁38	-13988
▁43	-13989
▁MB	-13990
When	-13991
amas	-13992
arez	-13993
aton	-13994
atts	-13995
etts	-13996
izer	-13997
pour	-13998
rine	-13999
ylon	-14000
èles	-14001
▁80%	-14002
▁Cro	-14003
▁Cur	-14004
▁Esp	-14005
▁Mom	-14006
▁Sen	-14007
▁rup	-14008
▁tat	-14009
aired	-14010
aluer	-14011
anium	-14012
belle	-14013
ented	-14014
escal	-14015
ouses	-14016
▁..."	-14017
▁Coke	-14018
▁Phot	-14019
▁Soud	-14020
▁Tell	-14021
▁Turn	-14022
▁Walk	-14023
▁Zimb	-14024
▁agit	-14025
▁deme	-14026
▁drap	-14027
▁dumb	-14028
▁gate	-14029
▁gluc	-14030
▁hect	-14031
▁hiér	-14032
▁lobe	-14033
▁nuts	-14034
▁orth	-14035
▁toys	-14036
ashing	-14037
encing	-14038
▁2010,	-14039
▁Coran	-14040
▁March	-14041
▁Medic	-14042
▁Organ	-14043
▁Stage	-14044
▁Young	-14045
▁actif	-14046
▁array	-14047
▁bored	-14048
▁burst	-14049
▁clich	-14050
▁doses	-14051
▁fondé	-14052
▁fumée	-14053
▁geste	-14054
▁inhib	-14055
▁miser	-14056
▁mutil	-14057
▁outer	-14058
▁puits	-14059
▁reten	-14060
▁taxes	-14061
▁tribu	-14062
▁ubiqu	-14063
▁vents	-14064
▁vides	-14065
▁âgées	-14066
▁actifs	-14067
▁adding	-14068
▁border	-14069
▁devast	-14070
▁déterm	-14071
▁emails	-14072
▁graves	-14073
▁majeur	-14074
▁obligé	-14075
▁proxim	-14076
▁relier	-14077
▁sticks	-14078
▁écrite	-14079
American	-14080
apporter	-14081
explorer	-14082
mergence	-14083
▁Florida	-14084
▁amateur	-14085
▁branche	-14086
▁closing	-14087
▁glacier	-14088
▁graisse	-14089
▁géniale	-14090
▁inutile	-14091
▁meubles	-14092
▁pointed	-14093
▁reconnu	-14094
▁sauvage	-14095
▁secours	-14096
▁speaker	-14097
▁submers	-14098
▁survécu	-14099
▁uniform	-14100
▁cérébral	-14101
▁explains	-14102
▁familier	-14103
▁genetics	-14104
▁intégrer	-14105
▁oxytocin	-14106
▁poussent	-14107
▁précieux	-14108
▁tubercul	-14109
▁épidémie	-14110
équipement	-14111
▁Neanderth	-14112
▁announced	-14113
▁brillants	-14114
▁critiques	-14115
▁extraterr	-14116
▁immediate	-14117
▁nanotechn	-14118
▁parcourir	-14119
▁positives	-14120
▁primarily	-14121
▁satisfait	-14122
▁searching	-14123
▁semblable	-14124
▁stabilité	-14125
▁supermark	-14126
▁threshold	-14127
▁Pennsylvan	-14128
▁affordable	-14129
▁ecosystems	-14130
▁stratégies	-14131
▁commerciaux	-14132
▁difficultés	-14133
▁immunitaire	-14134
▁biodiversity	-14135
▁photographer	-14136
▁spécialement	-14137
▁administration	-14138
De	-14139
PTC	-14140
afe	-14141
awa	-14142
mod	-14143
▁44	-14144
▁FG	-14145
▁MO	-14146
asty	-14147
cium	-14148
fold	-14149
free	-14150
ived	-14151
orph	-14152
▁gro	-14153
▁pac	-14154
▁sév	-14155
herbe	-14156
ilson	-14157
isait	-14158
isode	-14159
mster	-14160
ropol	-14161
using	-14162
uyant	-14163
▁Cinq	-14164
▁Hind	-14165
▁Nick	-14166
▁Open	-14167
▁cake	-14168
▁cats	-14169
▁hill	-14170
▁meme	-14171
▁sche	-14172
▁tatt	-14173
▁verb	-14174
ggling	-14175
iament	-14176
idding	-14177
ighter	-14178
second	-14179
soever	-14180
évrier	-14181
▁4,000	-14182
▁Build	-14183
▁Rover	-14184
▁begun	-14185
▁blame	-14186
▁blocs	-14187
▁chamb	-14188
▁clubs	-14189
▁ferai	-14190
▁filtr	-14191
▁jouet	-14192
▁legit	-14193
▁lobby	-14194
▁pione	-14195
▁récip	-14196
▁shake	-14197
▁subir	-14198
▁tends	-14199
▁views	-14200
▁épuis	-14201
Austral	-14202
lements	-14203
looking	-14204
ocortex	-14205
élicopt	-14206
érément	-14207
▁Arthur	-14208
▁Turkey	-14209
▁capita	-14210
▁cosmos	-14211
▁deviez	-14212
▁dialog	-14213
▁dingue	-14214
▁enthus	-14215
▁extrém	-14216
▁gestes	-14217
▁moelle	-14218
▁offici	-14219
▁rarely	-14220
▁récifs	-14221
▁trucks	-14222
▁ventre	-14223
▁voyant	-14224
▁émerge	-14225
▁évolue	-14226
Histoire	-14227
aluation	-14228
andering	-14229
aéroport	-14230
équation	-14231
▁Massach	-14232
▁Prenons	-14233
▁TEDTalk	-14234
▁Turquie	-14235
▁adopter	-14236
▁annoncé	-14237
▁camions	-14238
▁chapter	-14239
▁combatt	-14240
▁démarré	-14241
▁dérange	-14242
▁federal	-14243
▁hackers	-14244
▁hitting	-14245
▁manquer	-14246
▁millenn	-14247
▁normaux	-14248
▁painted	-14249
▁perdent	-14250
▁printer	-14251
▁prévoir	-14252
▁publier	-14253
▁puzzles	-14254
▁relever	-14255
▁restait	-14256
▁slavery	-14257
▁traités	-14258
▁ultravi	-14259
interface	-14260
▁Secondly	-14261
▁accepted	-14262
▁connecte	-14263
▁créateur	-14264
▁disagree	-14265
▁durables	-14266
▁découvre	-14267
▁fermiers	-14268
▁geometry	-14269
▁interrup	-14270
▁nettoyer	-14271
▁poursuiv	-14272
▁sensorie	-14273
▁transmis	-14274
▁émission	-14275
▁Obviously	-14276
▁Président	-14277
▁audiences	-14278
▁cherchons	-14279
▁cinquième	-14280
▁constante	-14281
▁diagramme	-14282
▁détecteur	-14283
▁empreinte	-14284
▁expanding	-14285
▁hautement	-14286
▁néanmoins	-14287
ordinateurs	-14288
▁consistent	-14289
▁distinguer	-14290
▁malheureux	-14291
▁operations	-14292
▁protecting	-14293
▁remembered	-14294
▁territoire	-14295
▁université	-14296
▁whatsoever	-14297
▁assumptions	-14298
▁neuroscient	-14299
▁volontaires	-14300
▁expectations	-14301
▁antibiotiques	-14302
▁attentivement	-14303
▁compassionate	-14304
▁exponentielle	-14305
▁institutional	-14306
▁investissement	-14307
▁representation	-14308
dé	-14309
ano	-14310
lés	-14311
rén	-14312
▁34	-14313
▁52	-14314
▁RS	-14315
▁lé	-14316
▁Éc	-14317
astr	-14318
cére	-14319
igné	-14320
ocke	-14321
uyer	-14322
▁450	-14323
▁Arm	-14324
▁Gar	-14325
▁Gre	-14326
▁Hol	-14327
▁IBM	-14328
▁Jam	-14329
▁Méd	-14330
▁Out	-14331
▁aig	-14332
▁ode	-14333
▁pav	-14334
▁vel	-14335
Sahar	-14336
alore	-14337
apeur	-14338
ariot	-14339
ernic	-14340
going	-14341
ibera	-14342
orale	-14343
vient	-14344
▁Back	-14345
▁Data	-14346
▁Lord	-14347
▁Moon	-14348
▁None	-14349
▁Ross	-14350
▁anxi	-14351
▁clav	-14352
▁gods	-14353
▁hipp	-14354
▁leaf	-14355
▁nano	-14356
▁robe	-14357
▁seek	-14358
▁shit	-14359
▁suck	-14360
bruary	-14361
ourner	-14362
étisme	-14363
▁2001,	-14364
▁Danny	-14365
▁Fried	-14366
▁Parmi	-14367
▁Reven	-14368
▁allum	-14369
▁bâton	-14370
▁mâles	-14371
▁nucle	-14372
▁obsol	-14373
▁pente	-14374
▁reefs	-14375
▁sharp	-14376
▁sixth	-14377
▁stair	-14378
▁steam	-14379
▁unpre	-14380
▁valid	-14381
▁wider	-14382
ajouter	-14383
izabeth	-14384
urgence	-14385
ustrial	-14386
▁Kansas	-14387
▁Portug	-14388
▁Within	-14389
▁bruits	-14390
▁clouds	-14391
▁digest	-14392
▁domain	-14393
▁ending	-14394
▁enlevé	-14395
▁extend	-14396
▁foyers	-14397
▁gamins	-14398
▁jumped	-14399
▁manual	-14400
▁omnipr	-14401
▁pardon	-14402
▁preval	-14403
▁proces	-14404
▁prosth	-14405
▁rendus	-14406
▁réunis	-14407
▁subway	-14408
▁summar	-14409
▁supern	-14410
▁tracks	-14411
▁vaches	-14412
▁venais	-14413
▁Develop	-14414
▁Whereas	-14415
▁Wolfram	-14416
▁adopted	-14417
▁adorent	-14418
▁affects	-14419
▁banques	-14420
▁bateaux	-14421
▁cabinet	-14422
▁calcium	-14423
▁cancére	-14424
▁ceiling	-14425
▁croyait	-14426
▁dépassé	-14427
▁ethical	-14428
▁garbage	-14429
▁imagery	-14430
▁magical	-14431
▁multipl	-14432
▁neurone	-14433
▁papiers	-14434
▁prosper	-14435
▁reduced	-14436
▁regroup	-14437
▁serving	-14438
▁séparer	-14439
▁uniques	-14440
organiser	-14441
▁February	-14442
▁captured	-14443
▁devenues	-14444
▁diamètre	-14445
▁entering	-14446
▁extrêmes	-14447
▁financer	-14448
▁laissons	-14449
▁linéaire	-14450
▁produite	-14451
▁préférés	-14452
▁prévenir	-14453
▁radicale	-14454
▁reminded	-14455
▁solaires	-14456
▁tendency	-14457
▁éliminer	-14458
▁Bangalore	-14459
▁conducted	-14460
▁constater	-14461
▁cérébrale	-14462
▁détermine	-14463
▁finissent	-14464
▁gathering	-14465
▁hamburger	-14466
▁ownership	-14467
▁passerait	-14468
▁poussière	-14469
▁regardais	-14470
▁uncomfort	-14471
▁étonnante	-14472
▁Antarctica	-14473
▁bouteilles	-14474
▁difficulty	-14475
▁graphiques	-14476
▁hemisphere	-14477
▁hypothesis	-14478
▁inevitable	-14479
▁perfection	-14480
▁personnels	-14481
▁puissantes	-14482
▁romantique	-14483
▁wheelchair	-14484
▁émotionnel	-14485
▁évènements	-14486
▁appartement	-14487
▁commerciale	-14488
▁département	-14489
▁infirmières	-14490
▁photographe	-14491
▁quotidienne	-14492
▁civilisations	-14493
▁configuration	-14494
▁interagissent	-14495
▁manifestation	-14496
▁programmation	-14497
▁simultaneously	-14498
ES	-14499
Vo	-14500
alc	-14501
ril	-14502
sex	-14503
égl	-14504
ôts	-14505
▁Ni	-14506
acre	-14507
aded	-14508
avel	-14509
fast	-14510
inth	-14511
kind	-14512
lean	-14513
onto	-14514
play	-14515
pple	-14516
rame	-14517
▁140	-14518
▁50%	-14519
▁70,	-14520
▁Age	-14521
▁Doc	-14522
▁Emp	-14523
▁Ses	-14524
▁cav	-14525
▁coc	-14526
▁goû	-14527
▁irr	-14528
▁mai	-14529
accep	-14530
alors	-14531
itary	-14532
liest	-14533
nante	-14534
nulle	-14535
ratif	-14536
shirt	-14537
stone	-14538
érale	-14539
▁3000	-14540
▁Bert	-14541
▁Cath	-14542
▁Cost	-14543
▁Hist	-14544
▁Unis	-14545
▁asse	-14546
▁craw	-14547
▁gaps	-14548
▁kidn	-14549
▁neck	-14550
▁révé	-14551
▁sach	-14552
▁solo	-14553
▁trot	-14554
▁œufs	-14555
alités	-14556
arters	-14557
astics	-14558
gments	-14559
ifient	-14560
ifully	-14561
lables	-14562
omesse	-14563
omique	-14564
usetts	-14565
▁Grâce	-14566
▁banks	-14567
▁caché	-14568
▁charm	-14569
▁corde	-14570
▁couch	-14571
▁créez	-14572
▁flows	-14573
▁kills	-14574
▁lampe	-14575
▁loves	-14576
▁maill	-14577
▁mythe	-14578
▁owner	-14579
▁recev	-14580
▁schém	-14581
▁watts	-14582
accompl	-14583
asseoir	-14584
itorium	-14585
ytocine	-14586
étoiles	-14587
▁Italie	-14588
▁Luther	-14589
▁Wilson	-14590
▁Zimbab	-14591
▁assess	-14592
▁casque	-14593
▁connus	-14594
▁crédit	-14595
▁examin	-14596
▁genoux	-14597
▁hautes	-14598
▁humble	-14599
▁indire	-14600
▁intact	-14601
▁merely	-14602
▁organe	-14603
▁revoir	-14604
▁secure	-14605
▁submit	-14606
▁voyais	-14607
▁œuvres	-14608
araignée	-14609
imagerie	-14610
érations	-14611
▁Stewart	-14612
▁Toronto	-14613
▁bubbles	-14614
▁chapeau	-14615
▁colonne	-14616
▁comptes	-14617
▁conspir	-14618
▁deserve	-14619
▁deviner	-14620
▁elected	-14621
▁exister	-14622
▁graphic	-14623
▁liberal	-14624
▁poignée	-14625
▁précoce	-14626
▁recours	-14627
▁selfish	-14628
▁serions	-14629
▁solides	-14630
▁staying	-14631
▁targets	-14632
▁theoret	-14633
▁visiter	-14634
▁winning	-14635
attendais	-14636
histoires	-14637
▁attentes	-14638
▁capturer	-14639
▁clothing	-14640
▁commença	-14641
▁croyance	-14642
▁cultiver	-14643
▁dépasser	-14644
▁figuring	-14645
▁génocide	-14646
▁homework	-14647
▁magasins	-14648
▁monsieur	-14649
▁promesse	-14650
▁répandre	-14651
▁terribly	-14652
▁unlikely	-14653
▁Africains	-14654
▁aléatoire	-14655
▁committed	-14656
▁compromis	-14657
▁detection	-14658
▁dinosaure	-14659
▁effectuer	-14660
▁fortunate	-14661
▁realizing	-14662
▁sentences	-14663
▁continuous	-14664
▁curriculum	-14665
▁distribute	-14666
▁identified	-14667
▁intérieure	-14668
▁mysterious	-14669
▁occidental	-14670
▁promouvoir	-14671
▁semblables	-14672
▁struggling	-14673
▁substances	-14674
▁suggesting	-14675
▁translated	-14676
▁treatments	-14677
▁vegetables	-14678
▁Évidemment	-14679
effondrement	-14680
▁chimpanzees	-14681
▁concurrence	-14682
▁intrinsèque	-14683
▁proviennent	-14684
▁individuelle	-14685
▁régulièrement	-14686
▁universitaire	-14687
▁impressionnant	-14688
Ec	-14689
IP	-14690
Sh	-14691
Can	-14692
apy	-14693
dri	-14694
iva	-14695
ped	-14696
pie	-14697
▁BL	-14698
▁CP	-14699
▁Di	-14700
▁SJ	-14701
▁TB	-14702
▁dj	-14703
irts	-14704
list	-14705
loge	-14706
made	-14707
oded	-14708
ollo	-14709
osez	-14710
page	-14711
tell	-14712
èler	-14713
étér	-14714
▁187	-14715
▁Bat	-14716
▁Bor	-14717
▁Lee	-14718
▁MRI	-14719
▁Mid	-14720
▁RIS	-14721
▁axe	-14722
▁fli	-14723
▁kit	-14724
▁tip	-14725
▁wed	-14726
▁wet	-14727
abled	-14728
allow	-14729
capes	-14730
ersey	-14731
force	-14732
gener	-14733
hiver	-14734
illés	-14735
intit	-14736
orage	-14737
▁Expl	-14738
▁Marc	-14739
▁Matt	-14740
▁Mess	-14741
▁bamb	-14742
▁debt	-14743
▁indo	-14744
▁lake	-14745
▁remb	-14746
▁éter	-14747
Atlant	-14748
affich	-14749
ifiées	-14750
marine	-14751
otypes	-14752
église	-14753
▁2008.	-14754
▁Contr	-14755
▁chère	-14756
▁coupé	-14757
▁crain	-14758
▁devil	-14759
▁doors	-14760
▁eaten	-14761
▁embar	-14762
▁excit	-14763
▁fonde	-14764
▁hired	-14765
▁inequ	-14766
▁laver	-14767
▁lisez	-14768
▁maire	-14769
▁nanom	-14770
▁nerfs	-14771
▁nurse	-14772
▁opera	-14773
▁piles	-14774
▁screw	-14775
▁trash	-14776
Saharan	-14777
attente	-14778
culaire	-14779
related	-14780
ulement	-14781
▁Colomb	-14782
▁Kibera	-14783
▁Nigéri	-14784
▁accent	-14785
▁aggreg	-14786
▁bandes	-14787
▁déroul	-14788
▁estime	-14789
▁injury	-14790
▁magnet	-14791
▁malnut	-14792
▁mortes	-14793
▁nerves	-14794
▁pertes	-14795
[...]
